{
  "version": "1.0",
  "truncation": null,
  "padding": null,
  "added_tokens": [],
  "normalizer": null,
  "pre_tokenizer": {
    "type": "BertPreTokenizer"
  },
  "post_processor": {
    "type": "BertProcessing",
    "sep": [
      "[SEP]",
      1
    ],
    "cls": [
      "[CLS]",
      2
    ]
  },
  "decoder": {
    "type": "WordPiece",
    "prefix": "##",
    "cleanup": true
  },
  "model": {
    "type": "WordPiece",
    "unk_token": "[UNK]",
    "continuing_subword_prefix": "##",
    "max_input_chars_per_word": 4,
    "vocab": {
      "0": 0,
      "1": 1,
      "2": 2,
      "3": 3,
      "4": 4,
      "5": 5,
      "6": 6,
      "7": 7,
      "8": 8,
      "9": 9,
      "a": 10,
      "b": 11,
      "c": 12,
      "d": 13,
      "e": 14,
      "f": 15,
      "##6": 16,
      "##4": 17,
      "##d": 18,
      "##f": 19,
      "##9": 20,
      "##3": 21,
      "##c": 22,
      "##a": 23,
      "##5": 24,
      "##b": 25,
      "##2": 26,
      "##8": 27,
      "##7": 28,
      "##1": 29,
      "##e": 30,
      "##0": 31,
      "##00": 32,
      "##10": 33,
      "##80": 34,
      "##50": 35,
      "##20": 36,
      "##30": 37,
      "##17": 38,
      "##1f": 39,
      "##18": 40,
      "##a0": 41,
      "##24": 42,
      "##6e": 43,
      "##97": 44,
      "##34": 45,
      "##1e": 46,
      "##a4": 47,
      "##2b": 48,
      "##9b": 49,
      "##3b": 50,
      "##5b": 51,
      "##3d": 52,
      "##ad": 53,
      "##3e": 54,
      "##94": 55,
      "##14": 56,
      "##2e": 57,
      "##ab": 58,
      "##ac": 59,
      "##5f": 60,
      "##6d": 61,
      "##54": 62,
      "##3f": 63,
      "##2f": 64,
      "##6b": 65,
      "##1d": 66,
      "##6c": 67,
      "##9d": 68,
      "##2d": 69,
      "##9c": 70,
      "##9f": 71,
      "##af": 72,
      "##64": 73,
      "##ae": 74,
      "##5c": 75,
      "##5e": 76,
      "##3c": 77,
      "##1b": 78,
      "##1c": 79,
      "##27": 80,
      "##2c": 81,
      "##6f": 82,
      "##5d": 83,
      "##67": 84,
      "##57": 85,
      "##a7": 86,
      "##9e": 87,
      "##37": 88,
      "##60": 89,
      "##8f": 90,
      "##87": 91,
      "##90": 92,
      "##8b": 93,
      "##8e": 94,
      "##8d": 95,
      "##8c": 96,
      "##84": 97,
      "00": 98,
      "000": 99,
      "##70": 100,
      "##1a": 101,
      "##22": 102,
      "##35": 103,
      "##69": 104,
      "##ee": 105,
      "##bf": 106,
      "##38": 107,
      "##dd": 108,
      "##65": 109,
      "##44": 110,
      "##15": 111,
      "##3a": 112,
      "##19": 113,
      "##6a": 114,
      "##68": 115,
      "##bc": 116,
      "##39": 117,
      "##7c": 118,
      "##7f": 119,
      "##12": 120,
      "##32": 121,
      "##be": 122,
      "##b0": 123,
      "##7e": 124,
      "##74": 125,
      "##dc": 126,
      "##b4": 127,
      "##df": 128,
      "##62": 129,
      "50": 130,
      "##d0": 131,
      "##de": 132,
      "##d4": 133,
      "##89": 134,
      "##a9": 135,
      "##59": 136,
      "##ff": 137,
      "##cc": 138,
      "##a8": 139,
      "##a5": 140,
      "##29": 141,
      "##40": 142,
      "##e0": 143,
      "80": 144,
      "##11": 145,
      "0000": 146,
      "##b7": 147,
      "##28": 148,
      "##33": 149,
      "##c0": 150,
      "##ef": 151,
      "##66": 152,
      "##58": 153,
      "##4f": 154,
      "##cf": 155,
      "20": 156,
      "##aa": 157,
      "##77": 158,
      "##25": 159,
      "##bb": 160,
      "10": 161,
      "##e4": 162,
      "##99": 163,
      "##16": 164,
      "##13": 165,
      "##88": 166,
      "##55": 167,
      "##ec": 168,
      "##d7": 169,
      "##63": 170,
      "##2a": 171,
      "##4c": 172,
      "##f0": 173,
      "##db": 174,
      "e0": 175,
      "60": 176,
      "40": 177,
      "30": 178,
      "b0": 179,
      "c0": 180,
      "f0": 181,
      "a0": 182,
      "70": 183,
      "d0": 184,
      "90": 185,
      "4f": 186,
      "8f": 187,
      "5f": 188,
      "2f": 189,
      "##23": 190,
      "af": 191,
      "0f": 192,
      "6f": 193,
      "1f": 194,
      "3f": 195,
      "bf": 196,
      "9f": 197,
      "ff": 198,
      "##4e": 199,
      "df": 200,
      "7f": 201,
      "##7b": 202,
      "##85": 203,
      "ef": 204,
      "cf": 205,
      "##61": 206,
      "##d9": 207,
      "dc": 208,
      "0c": 209,
      "9c": 210,
      "cc": 211,
      "ac": 212,
      "bc": 213,
      "6c": 214,
      "3c": 215,
      "8c": 216,
      "4c": 217,
      "1c": 218,
      "5c": 219,
      "2c": 220,
      "7c": 221,
      "ec": 222,
      "fc": 223,
      "##8a": 224,
      "##5a": 225,
      "010": 226,
      "04": 227,
      "##eb": 228,
      "##31": 229,
      "##36": 230,
      "##21": 231,
      "##26": 232,
      "##e7": 233,
      "24": 234,
      "34": 235,
      "74": 236,
      "44": 237,
      "f4": 238,
      "64": 239,
      "b4": 240,
      "54": 241,
      "14": 242,
      "84": 243,
      "a4": 244,
      "e4": 245,
      "d4": 246,
      "94": 247,
      "c4": 248,
      "##b9": 249,
      "##da": 250,
      "##d8": 251,
      "##d5": 252,
      "##79": 253,
      "6e": 254,
      "0e": 255,
      "3e": 256,
      "2e": 257,
      "8e": 258,
      "4e": 259,
      "1e": 260,
      "ae": 261,
      "be": 262,
      "ce": 263,
      "7e": 264,
      "ee": 265,
      "5e": 266,
      "9e": 267,
      "fe": 268,
      "de": 269,
      "100": 270,
      "b7": 271,
      "97": 272,
      "07": 273,
      "77": 274,
      "47": 275,
      "f7": 276,
      "17": 277,
      "67": 278,
      "87": 279,
      "0b": 280,
      "5b": 281,
      "9b": 282,
      "c7": 283,
      "d7": 284,
      "27": 285,
      "ab": 286,
      "2b": 287,
      "a7": 288,
      "db": 289,
      "bb": 290,
      "57": 291,
      "37": 292,
      "e7": 293,
      "1b": 294,
      "8b": 295,
      "eb": 296,
      "7b": 297,
      "6b": 298,
      "4b": 299,
      "3b": 300,
      "fb": 301,
      "cb": 302,
      "##98": 303,
      "##9a": 304,
      "##95": 305,
      "3d": 306,
      "fd": 307,
      "0a": 308,
      "05": 309,
      "1d": 310,
      "ad": 311,
      "2d": 312,
      "8d": 313,
      "9d": 314,
      "ed": 315,
      "6d": 316,
      "dd": 317,
      "0d": 318,
      "bd": 319,
      "5d": 320,
      "7d": 321,
      "4d": 322,
      "cd": 323,
      "08": 324,
      "18": 325,
      "35": 326,
      "02": 327,
      "89": 328,
      "69": 329,
      "##d6": 330,
      "49": 331,
      "##53": 332,
      "##56": 333,
      "f8": 334,
      "f5": 335,
      "##83": 336,
      "##a6": 337,
      "99": 338,
      "##86": 339,
      "##51": 340,
      "b9": 341,
      "##d3": 342,
      "##52": 343,
      "##a1": 344,
      "##d2": 345,
      "##d1": 346,
      "##a2": 347,
      "##82": 348,
      "##81": 349,
      "a9": 350,
      "##a3": 351,
      "48": 352,
      "19": 353,
      "59": 354,
      "09": 355,
      "29": 356,
      "28": 357,
      "03": 358,
      "c9": 359,
      "f9": 360,
      "d9": 361,
      "79": 362,
      "1a": 363,
      "39": 364,
      "e9": 365,
      "45": 366,
      "88": 367,
      "b5": 368,
      "a8": 369,
      "68": 370,
      "98": 371,
      "ba": 372,
      "b8": 373,
      "58": 374,
      "65": 375,
      "78": 376,
      "85": 377,
      "38": 378,
      "e8": 379,
      "d8": 380,
      "15": 381,
      "25": 382,
      "e5": 383,
      "c8": 384,
      "55": 385,
      "d5": 386,
      "a5": 387,
      "7a": 388,
      "95": 389,
      "3a": 390,
      "c5": 391,
      "75": 392,
      "aa": 393,
      "6a": 394,
      "da": 395,
      "4a": 396,
      "2a": 397,
      "5010": 398,
      "ea": 399,
      "8a": 400,
      "fa": 401,
      "9a": 402,
      "5a": 403,
      "ca": 404,
      "22": 405,
      "12": 406,
      "32": 407,
      "0101": 408,
      "82": 409,
      "b2": 410,
      "62": 411,
      "a2": 412,
      "92": 413,
      "c2": 414,
      "e2": 415,
      "72": 416,
      "42": 417,
      "52": 418,
      "f2": 419,
      "d2": 420,
      "01": 421,
      "0001": 422,
      "93": 423,
      "c6": 424,
      "f3": 425,
      "33": 426,
      "83": 427,
      "23": 428,
      "b3": 429,
      "d3": 430,
      "63": 431,
      "43": 432,
      "c3": 433,
      "06": 434,
      "53": 435,
      "f6": 436,
      "13": 437,
      "73": 438,
      "a3": 439,
      "d6": 440,
      "e3": 441,
      "16": 442,
      "56": 443,
      "66": 444,
      "b6": 445,
      "a6": 446,
      "e6": 447,
      "46": 448,
      "86": 449,
      "76": 450,
      "36": 451,
      "26": 452,
      "96": 453,
      "##93": 454,
      "080": 455,
      "##92": 456,
      "##91": 457,
      "##96": 458,
      "f1": 459,
      "c1": 460,
      "11": 461,
      "31": 462,
      "b1": 463,
      "51": 464,
      "91": 465,
      "a1": 466,
      "21": 467,
      "81": 468,
      "41": 469,
      "d1": 470,
      "71": 471,
      "e1": 472,
      "61": 473,
      "##7a": 474,
      "0108": 475,
      "080a": 476,
      "##b8": 477,
      "##b6": 478,
      "##76": 479,
      "##b2": 480,
      "##b5": 481,
      "##b3": 482,
      "##75": 483,
      "##72": 484,
      "##b1": 485,
      "##73": 486,
      "##78": 487,
      "##71": 488,
      "##7d": 489,
      "##bd": 490,
      "##ba": 491,
      "030": 492,
      "8010": 493,
      "2020": 494,
      "##49": 495,
      "##45": 496,
      "##ed": 497,
      "##48": 498,
      "##46": 499,
      "##42": 500,
      "##47": 501,
      "##43": 502,
      "##4d": 503,
      "##4a": 504,
      "##e8": 505,
      "##4b": 506,
      "##e5": 507,
      "##e9": 508,
      "##41": 509,
      "##e1": 510,
      "##e3": 511,
      "##e2": 512,
      "##e6": 513,
      "##ea": 514,
      "1000": 515,
      "0a0": 516,
      "##703": 517,
      "01f": 518,
      "180": 519,
      "##c1": 520,
      "1001": 521,
      "##c6": 522,
      "0303": 523,
      "##c5": 524,
      "##cd": 525,
      "##ce": 526,
      "##cb": 527,
      "##c9": 528,
      "##ca": 529,
      "##c8": 530,
      "##c7": 531,
      "##c4": 532,
      "##c3": 533,
      "##c2": 534,
      "1703": 535,
      "1002": 536,
      "##000": 537,
      "0105": 538,
      "##50a": 539,
      "020": 540,
      "3bf": 541,
      "040": 542,
      "0020": 543,
      "024": 544,
      "0a4": 545,
      "994": 546,
      "38f": 547,
      "01f5": 548,
      "##2ba": 549,
      "##be2": 550,
      "0ad": 551,
      "014": 552,
      "00f": 553,
      "6dd": 554,
      "1ee": 555,
      "##e49": 556,
      "##90e": 557,
      "5018": 558,
      "03f": 559,
      "034": 560,
      "897": 561,
      "0ab": 562,
      "##a99": 563,
      "##ef1": 564,
      "0ac": 565,
      "##ff3": 566,
      "##131": 567,
      "01e": 568,
      "##de0": 569,
      "0ae": 570,
      "##603": 571,
      "##9f0": 572,
      "0af": 573,
      "##692": 574,
      "##5b4": 575,
      "92e": 576,
      "094": 577,
      "##591": 578,
      "f5d": 579,
      "017": 580,
      "06c": 581,
      "f5f": 582,
      "##70d": 583,
      "d6b": 584,
      "f5e": 585,
      "0a7": 586,
      "f5c": 587,
      "044": 588,
      "89d": 589,
      "1ab": 590,
      "a6e": 591,
      "42f": 592,
      "f57": 593,
      "300": 594,
      "##5b9": 595,
      "##598": 596,
      "4bc": 597,
      "03b": 598,
      "01d": 599,
      "02e": 600,
      "f54": 601,
      "87e": 602,
      "01b": 603,
      "##f6": 604,
      "##4c6": 605,
      "187": 606,
      "##203": 607,
      "03c": 608,
      "027": 609,
      "##504": 610,
      "06b": 611,
      "##fff": 612,
      "##8e0": 613,
      "##501": 614,
      "454": 615,
      "07f": 616,
      "06f": 617,
      "##7b3": 618,
      "09e": 619,
      "##403": 620,
      "##508": 621,
      "##156": 622,
      "92d": 623,
      "##39a": 624,
      "##be0": 625,
      "##a82": 626,
      "05c": 627,
      "1a4": 628,
      "##c08": 629,
      "22c": 630,
      "##9fd": 631,
      "037": 632,
      "##3e0": 633,
      "##182": 634,
      "##a51": 635,
      "##d08": 636,
      "acc": 637,
      "c8b": 638,
      "084": 639,
      "##eb5": 640,
      "##329": 641,
      "##b01": 642,
      "##585": 643,
      "##908": 644,
      "##601": 645,
      "02f": 646,
      "98b": 647,
      "634": 648,
      "##1a3": 649,
      "cdd": 650,
      "##f01": 651,
      "##1c6": 652,
      "45e": 653,
      "1ac": 654,
      "##223": 655,
      "##701": 656,
      "18b": 657,
      "##293": 658,
      "##58a": 659,
      "##388": 660,
      "##331": 661,
      "58b": 662,
      "##659": 663,
      "18d": 664,
      "##e03": 665,
      "##128": 666,
      "c5f": 667,
      "b9b": 668,
      "##9a6": 669,
      "##df8": 670,
      "a8b": 671,
      "##5b2": 672,
      "02c": 673,
      "537": 674,
      "184": 675,
      "02d": 676,
      "f17": 677,
      "##dfd": 678,
      "18c": 679,
      "18f": 680,
      "##4c3": 681,
      "##d01": 682,
      "614": 683,
      "##a52": 684,
      "22e": 685,
      "##693": 686,
      "49d": 687,
      "254": 688,
      "a6b": 689,
      "##ec6": 690,
      "087": 691,
      "##c01": 692,
      "07c": 693,
      "##4e5": 694,
      "##702": 695,
      "497": 696,
      "06e": 697,
      "35f": 698,
      "##9c6": 699,
      "45c": 700,
      "##689": 701,
      "69d": 702,
      "##2a6": 703,
      "##9f5": 704,
      "227": 705,
      "694": 706,
      "457": 707,
      "##da6": 708,
      "##113": 709,
      "##f08": 710,
      "##286": 711,
      "##5bb": 712,
      "69b": 713,
      "##eb1": 714,
      "31b": 715,
      "##a96": 716,
      "##386": 717,
      "##901": 718,
      "##c0f": 719,
      "##748": 720,
      "45f": 721,
      "b34": 722,
      "##198": 723,
      "7ad": 724,
      "##5b0": 725,
      "b24": 726,
      "##708": 727,
      "##ff8": 728,
      "664": 729,
      "09b": 730,
      "##b08": 731,
      "c1e": 732,
      "19b": 733,
      "##a81": 734,
      "1a7": 735,
      "##38a": 736,
      "##608": 737,
      "##2a1": 738,
      "##4f9": 739,
      "11b": 740,
      "##b03": 741,
      "##eb6": 742,
      "a9b": 743,
      "##eb9": 744,
      "##12a": 745,
      "064": 746,
      "##3dc": 747,
      "##328": 748,
      "12c": 749,
      "3ee": 750,
      "##e01": 751,
      "167": 752,
      "##1a9": 753,
      "aae": 754,
      "224": 755,
      "##899": 756,
      "134": 757,
      "##e08": 758,
      "f27": 759,
      "b3c": 760,
      "##a83": 761,
      "b5e": 762,
      "##4e9": 763,
      "05e": 764,
      "##a88": 765,
      "45d": 766,
      "##74e": 767,
      "1ae": 768,
      "e8b": 769,
      "##ef4": 770,
      "##2bd": 771,
      "##776": 772,
      "##298": 773,
      "324": 774,
      "##299": 775,
      "##5b6": 776,
      "##116": 777,
      "##1a2": 778,
      "##8ef": 779,
      "##503": 780,
      "##50b": 781,
      "##dc6": 782,
      "##502": 783,
      "##28a": 784,
      "17f": 785,
      "##7b2": 786,
      "c97": 787,
      "66b": 788,
      "##506": 789,
      "##a85": 790,
      "##333": 791,
      "66d": 792,
      "##d81": 793,
      "##9a2": 794,
      "##9f8": 795,
      "1ad": 796,
      "##903": 797,
      "edd": 798,
      "##777": 799,
      "##b02": 800,
      "add": 801,
      "##b4c": 802,
      "##d48": 803,
      "65d": 804,
      "06d": 805,
      "##ec3": 806,
      "##b93": 807,
      "##cf2": 808,
      "##b96": 809,
      "##5a6": 810,
      "417": 811,
      "##123": 812,
      "b6b": 813,
      "b67": 814,
      "e7f": 815,
      "##aaa": 816,
      "31e": 817,
      "a3b": 818,
      "a9d": 819,
      "b1e": 820,
      "6a4": 821,
      "##8a6": 822,
      "##553": 823,
      "##226": 824,
      "08d": 825,
      "##231": 826,
      "697": 827,
      "09d": 828,
      "31f": 829,
      "##b49": 830,
      "##c06": 831,
      "154": 832,
      "2ae": 833,
      "##eb8": 834,
      "##1a6": 835,
      "85e": 836,
      "b9e": 837,
      "##607": 838,
      "22d": 839,
      "357": 840,
      "##eb2": 841,
      "##2be": 842,
      "##e04": 843,
      "284": 844,
      "##c02": 845,
      "32c": 846,
      "##be8": 847,
      "964": 848,
      "##251": 849,
      "##2b7": 850,
      "25d": 851,
      "##dc2": 852,
      "344": 853,
      "23b": 854,
      "##bb2": 855,
      "##a58": 856,
      "##e0a": 857,
      "##1a1": 858,
      "aa4": 859,
      "##a86": 860,
      "217": 861,
      "##2b8": 862,
      "##18c": 863,
      "##2b0": 864,
      "##222": 865,
      "##a55": 866,
      "aad": 867,
      "##b48": 868,
      "##d91": 869,
      "##9c9": 870,
      "b64": 871,
      "##1aa": 872,
      "2ee": 873,
      "##904": 874,
      "##1a8": 875,
      "##3a9": 876,
      "##602": 877,
      "12d": 878,
      "##505": 879,
      "##3a8": 880,
      "bbf": 881,
      "##df0": 882,
      "##b4b": 883,
      "aab": 884,
      "65e": 885,
      "##551": 886,
      "##555": 887,
      "26c": 888,
      "##2b9": 889,
      "##d79": 890,
      "##cfb": 891,
      "##f02": 892,
      "##507": 893,
      "a94": 894,
      "38c": 895,
      "##5b3": 896,
      "657": 897,
      "##7b9": 898,
      "##1c0": 899,
      "##ec4": 900,
      "dac": 901,
      "89e": 902,
      "317": 903,
      "32f": 904,
      "c1b": 905,
      "##292": 906,
      "56c": 907,
      "##4f6": 908,
      "##c03": 909,
      "aac": 910,
      "##6a3": 911,
      "##9c4": 912,
      "c17": 913,
      "##e4e": 914,
      "##2bf": 915,
      "##5b5": 916,
      "1af": 917,
      "c6f": 918,
      "1cc": 919,
      "##b05": 920,
      "##2b4": 921,
      "534": 922,
      "##747": 923,
      "##ff0": 924,
      "##229": 925,
      "##50e": 926,
      "a54": 927,
      "29b": 928,
      "##70a": 929,
      "##d40": 930,
      "##184": 931,
      "##5a3": 932,
      "08b": 933,
      "b9d": 934,
      "a8c": 935,
      "##da3": 936,
      "197": 937,
      "e6e": 938,
      "11f": 939,
      "b2d": 940,
      "##604": 941,
      "68f": 942,
      "d34": 943,
      "bac": 944,
      "66f": 945,
      "##b95": 946,
      "##90a": 947,
      "2bf": 948,
      "32d": 949,
      "##596": 950,
      "##389": 951,
      "##2b5": 952,
      "##dfa": 953,
      "b44": 954,
      "63f": 955,
      "494": 956,
      "51b": 957,
      "##336": 958,
      "16c": 959,
      "##111": 960,
      "##187": 961,
      "444": 962,
      "##706": 963,
      "##d0b": 964,
      "##772": 965,
      "16d": 966,
      "##ec2": 967,
      "a24": 968,
      "##ffd": 969,
      "a8d": 970,
      "c8f": 971,
      "##bef": 972,
      "49b": 973,
      "e87": 974,
      "##704": 975,
      "##552": 976,
      "63c": 977,
      "3bc": 978,
      "##de7": 979,
      "297": 980,
      "##4f2": 981,
      "8ab": 982,
      "##b07": 983,
      "##d47": 984,
      "##77b": 985,
      "##1a5": 986,
      "##583": 987,
      "08c": 988,
      "##d03": 989,
      "33f": 990,
      "b5f": 991,
      "##228": 992,
      "##c07": 993,
      "##aa1": 994,
      "##582": 995,
      "abf": 996,
      "a9e": 997,
      "##c04": 998,
      "##6a9": 999,
      "##2bb": 1000,
      "68b": 1001,
      "37c": 1002,
      "##70b": 1003,
      "##906": 1004,
      "3a4": 1005,
      "##683": 1006,
      "097": 1007,
      "49e": 1008,
      "46f": 1009,
      "354": 1010,
      "##c0a": 1011,
      "f1f": 1012,
      "##885": 1013,
      "##dc0": 1014,
      "12e": 1015,
      "##db2": 1016,
      "##352": 1017,
      "89b": 1018,
      "69e": 1019,
      "88d": 1020,
      "88c": 1021,
      "c5e": 1022,
      "464": 1023,
      "##18b": 1024,
      "##3a6": 1025,
      "c9e": 1026,
      "##3e9": 1027,
      "##de2": 1028,
      "b37": 1029,
      "##5b8": 1030,
      "##a53": 1031,
      "a5e": 1032,
      "327": 1033,
      "##d4b": 1034,
      "527": 1035,
      "87f": 1036,
      "##ebd": 1037,
      "##1c7": 1038,
      "e54": 1039,
      "##a8a": 1040,
      "22f": 1041,
      "##bbd": 1042,
      "5cc": 1043,
      "e5d": 1044,
      "6ee": 1045,
      "56b": 1046,
      "##288": 1047,
      "##5ba": 1048,
      "##def": 1049,
      "##5be": 1050,
      "##9c0": 1051,
      "f6e": 1052,
      "##8a3": 1053,
      "93f": 1054,
      "##aa6": 1055,
      "##b77": 1056,
      "##74d": 1057,
      "997": 1058,
      "##1c8": 1059,
      "##681": 1060,
      "##eba": 1061,
      "##606": 1062,
      "##3a2": 1063,
      "314": 1064,
      "63b": 1065,
      "bee": 1066,
      "057": 1067,
      "##ec7": 1068,
      "##3e1": 1069,
      "##8e8": 1070,
      "16e": 1071,
      "b8f": 1072,
      "a87": 1073,
      "##121": 1074,
      "##951": 1075,
      "##605": 1076,
      "##50f": 1077,
      "824": 1078,
      "87c": 1079,
      "##bb5": 1080,
      "##6a6": 1081,
      "##4e3": 1082,
      "43c": 1083,
      "##29a": 1084,
      "c24": 1085,
      "117": 1086,
      "##d04": 1087,
      "aa7": 1088,
      "5bc": 1089,
      "c44": 1090,
      "754": 1091,
      "##e41": 1092,
      "##50c": 1093,
      "##dcc": 1094,
      "##aa3": 1095,
      "##e48": 1096,
      "##d78": 1097,
      "##55a": 1098,
      "##2a3": 1099,
      "a97": 1100,
      "##60b": 1101,
      "e5c": 1102,
      "##7b8": 1103,
      "##77a": 1104,
      "##b4e": 1105,
      "##b0f": 1106,
      "##9f3": 1107,
      "##ecd": 1108,
      "##281": 1109,
      "597": 1110,
      "244": 1111,
      "c6c": 1112,
      "##f04": 1113,
      "53c": 1114,
      "c3b": 1115,
      "##cf0": 1116,
      "##50d": 1117,
      "4ab": 1118,
      "##3e4": 1119,
      "##5b1": 1120,
      "39e": 1121,
      "88b": 1122,
      "##8e9": 1123,
      "##385": 1124,
      "##4fe": 1125,
      "##163": 1126,
      "##905": 1127,
      "85d": 1128,
      "##5bc": 1129,
      "##399": 1130,
      "##4f0": 1131,
      "##291": 1132,
      "##74c": 1133,
      "##136": 1134,
      "c2e": 1135,
      "##2bc": 1136,
      "##3ea": 1137,
      "##dc5": 1138,
      "##628": 1139,
      "##dba": 1140,
      "##3e6": 1141,
      "##d02": 1142,
      "864": 1143,
      "56e": 1144,
      "##df3": 1145,
      "##705": 1146,
      "##a92": 1147,
      "584": 1148,
      "##e7d": 1149,
      "854": 1150,
      "##907": 1151,
      "##625": 1152,
      "##358": 1153,
      "##588": 1154,
      "##a5a": 1155,
      "36b": 1156,
      "##f0a": 1157,
      "aee": 1158,
      "8bc": 1159,
      "##9cc": 1160,
      "15e": 1161,
      "4cc": 1162,
      "27f": 1163,
      "##4c1": 1164,
      "32e": 1165,
      "544": 1166,
      "##dc1": 1167,
      "b1d": 1168,
      "##ffb": 1169,
      "##b0a": 1170,
      "##586": 1171,
      "68c": 1172,
      "e17": 1173,
      "##e06": 1174,
      "##e45": 1175,
      "##296": 1176,
      "##db1": 1177,
      "887": 1178,
      "##ef9": 1179,
      "##ece": 1180,
      "567": 1181,
      "564": 1182,
      "##d05": 1183,
      "3dd": 1184,
      "##b47": 1185,
      "##b06": 1186,
      "66e": 1187,
      "##d52": 1188,
      "##3db": 1189,
      "b5d": 1190,
      "884": 1191,
      "78b": 1192,
      "11e": 1193,
      "2dd": 1194,
      "31d": 1195,
      "784": 1196,
      "78f": 1197,
      "##1c2": 1198,
      "##d0c": 1199,
      "##f0e": 1200,
      "bbc": 1201,
      "##1cb": 1202,
      "##581": 1203,
      "##902": 1204,
      "054": 1205,
      "a84": 1206,
      "96f": 1207,
      "42c": 1208,
      "##395": 1209,
      "##707": 1210,
      "##d4c": 1211,
      "##3aa": 1212,
      "##b41": 1213,
      "##2b1": 1214,
      "##77d": 1215,
      "##ef2": 1216,
      "##8e4": 1217,
      "62f": 1218,
      "b27": 1219,
      "a5f": 1220,
      "##e02": 1221,
      "##e4a": 1222,
      "##325": 1223,
      "##882": 1224,
      "##de3": 1225,
      "91e": 1226,
      "67c": 1227,
      "##e0c": 1228,
      "##4ea": 1229,
      "5ab": 1230,
      "2bc": 1231,
      "c2c": 1232,
      "e14": 1233,
      "abc": 1234,
      "##3d3": 1235,
      "##ec1": 1236,
      "62c": 1237,
      "16b": 1238,
      "b84": 1239,
      "##556": 1240,
      "##626": 1241,
      "##691": 1242,
      "##e09": 1243,
      "85f": 1244,
      "##592": 1245,
      "##40e": 1246,
      "##599": 1247,
      "##8ee": 1248,
      "bcc": 1249,
      "867": 1250,
      "c1d": 1251,
      "##d07": 1252,
      "127": 1253,
      "##dc9": 1254,
      "##df9": 1255,
      "957": 1256,
      "##225": 1257,
      "##695": 1258,
      "##1c1": 1259,
      "##b4f": 1260,
      "f97": 1261,
      "b5c": 1262,
      "33c": 1263,
      "##b45": 1264,
      "71e": 1265,
      "f7c": 1266,
      "##e76": 1267,
      "130": 1268,
      "12f": 1269,
      "237": 1270,
      "##e05": 1271,
      "##153": 1272,
      "7ac": 1273,
      "33b": 1274,
      "##282": 1275,
      "c34": 1276,
      "##658": 1277,
      "71d": 1278,
      "59e": 1279,
      "##655": 1280,
      "644": 1281,
      "35d": 1282,
      "##18a": 1283,
      "114": 1284,
      "8bf": 1285,
      "##f03": 1286,
      "##aa2": 1287,
      "##90f": 1288,
      "##9c2": 1289,
      "##ef5": 1290,
      "##bb3": 1291,
      "b1f": 1292,
      "c37": 1293,
      "##1c4": 1294,
      "##5a1": 1295,
      "e84": 1296,
      "##a95": 1297,
      "##c0b": 1298,
      "594": 1299,
      "##8ea": 1300,
      "##de9": 1301,
      "e64": 1302,
      "4ee": 1303,
      "##cfd": 1304,
      "##682": 1305,
      "##629": 1306,
      "##4f4": 1307,
      "524": 1308,
      "##8e1": 1309,
      "##6a1": 1310,
      "##c09": 1311,
      "a8f": 1312,
      "53b": 1313,
      "##dc3": 1314,
      "##bb9": 1315,
      "437": 1316,
      "984": 1317,
      "##895": 1318,
      "##126": 1319,
      "58d": 1320,
      "124": 1321,
      "##3e7": 1322,
      "##255": 1323,
      "##a9a": 1324,
      "86b": 1325,
      "e6c": 1326,
      "##4e6": 1327,
      "78c": 1328,
      "##4e2": 1329,
      "##e71": 1330,
      "##983": 1331,
      "4af": 1332,
      "##326": 1333,
      "##992": 1334,
      "##f07": 1335,
      "##851": 1336,
      "##1cd": 1337,
      "##e4b": 1338,
      "a67": 1339,
      "86d": 1340,
      "##188": 1341,
      "##db6": 1342,
      "eab": 1343,
      "a5c": 1344,
      "##609": 1345,
      "76b": 1346,
      "367": 1347,
      "##7b5": 1348,
      "08f": 1349,
      "b1b": 1350,
      "##3a5": 1351,
      "c2f": 1352,
      "##886": 1353,
      "c6b": 1354,
      "##f0f": 1355,
      "##9fa": 1356,
      "e1d": 1357,
      "b2f": 1358,
      "86e": 1359,
      "##509": 1360,
      "46d": 1361,
      "##74b": 1362,
      "##3ef": 1363,
      "##c05": 1364,
      "8a4": 1365,
      "##4e7": 1366,
      "##1cc": 1367,
      "##e47": 1368,
      "##d53": 1369,
      "b8b": 1370,
      "##d0a": 1371,
      "##9c3": 1372,
      "##295": 1373,
      "77c": 1374,
      "eee": 1375,
      "##185": 1376,
      "b2c": 1377,
      "##e46": 1378,
      "##4fd": 1379,
      "##f09": 1380,
      "51f": 1381,
      "8a7": 1382,
      "##6a5": 1383,
      "##60a": 1384,
      "##a98": 1385,
      "##323": 1386,
      "##125": 1387,
      "##696": 1388,
      "##8e3": 1389,
      "42e": 1390,
      "05f": 1391,
      "##d83": 1392,
      "##3ec": 1393,
      "##158": 1394,
      "##22a": 1395,
      "264": 1396,
      "1bc": 1397,
      "46e": 1398,
      "337": 1399,
      "##60c": 1400,
      "##8e5": 1401,
      "##9c5": 1402,
      "##8ec": 1403,
      "##b7b": 1404,
      "637": 1405,
      "91f": 1406,
      "8ad": 1407,
      "d8b": 1408,
      "##883": 1409,
      "##df5": 1410,
      "72f": 1411,
      "36f": 1412,
      "917": 1413,
      "d7c": 1414,
      "##bed": 1415,
      "9cc": 1416,
      "##89a": 1417,
      "##256": 1418,
      "e6b": 1419,
      "0bf": 1420,
      "b54": 1421,
      "827": 1422,
      "##ef0": 1423,
      "35c": 1424,
      "d1e": 1425,
      "##593": 1426,
      "##285": 1427,
      "43b": 1428,
      "c6d": 1429,
      "##ef3": 1430,
      "##e07": 1431,
      "4ae": 1432,
      "##183": 1433,
      "##2b2": 1434,
      "e67": 1435,
      "b6c": 1436,
      "##666": 1437,
      "66c": 1438,
      "164": 1439,
      "0dd": 1440,
      "##795": 1441,
      "b6e": 1442,
      "##4c4": 1443,
      "##4ed": 1444,
      "fbf": 1445,
      "##155": 1446,
      "##4c7": 1447,
      "##856": 1448,
      "86f": 1449,
      "b57": 1450,
      "##4ce": 1451,
      "##3e5": 1452,
      "e7c": 1453,
      "##d7a": 1454,
      "91b": 1455,
      "817": 1456,
      "##18e": 1457,
      "##d49": 1458,
      "##773": 1459,
      "28c": 1460,
      "16f": 1461,
      "6a7": 1462,
      "##3e2": 1463,
      "##df2": 1464,
      "##e42": 1465,
      "56f": 1466,
      "684": 1467,
      "71b": 1468,
      "##db5": 1469,
      "757": 1470,
      "##cf9": 1471,
      "##ecb": 1472,
      "##d06": 1473,
      "##d82": 1474,
      "##6a2": 1475,
      "28d": 1476,
      "46c": 1477,
      "##ef8": 1478,
      "##bb1": 1479,
      "##dcd": 1480,
      "##909": 1481,
      "##686": 1482,
      "234": 1483,
      "##b98": 1484,
      "41b": 1485,
      "##a56": 1486,
      "8ac": 1487,
      "##dbd": 1488,
      "05d": 1489,
      "##741": 1490,
      "##be3": 1491,
      "c84": 1492,
      "##9a3": 1493,
      "##df4": 1494,
      "##398": 1495,
      "3ab": 1496,
      "19d": 1497,
      "##70f": 1498,
      "##b46": 1499,
      "##79a": 1500,
      "##70e": 1501,
      "##9f2": 1502,
      "47c": 1503,
      "557": 1504,
      "ea4": 1505,
      "46b": 1506,
      "##8e7": 1507,
      "eae": 1508,
      "95e": 1509,
      "b2e": 1510,
      "c14": 1511,
      "9bc": 1512,
      "7a4": 1513,
      "##b04": 1514,
      "62e": 1515,
      "##d4d": 1516,
      "514": 1517,
      "##18f": 1518,
      "##ffe": 1519,
      "58c": 1520,
      "c64": 1521,
      "##2a2": 1522,
      "##e75": 1523,
      "23c": 1524,
      "##db8": 1525,
      "f6b": 1526,
      "##8a2": 1527,
      "##356": 1528,
      "##b42": 1529,
      "##663": 1530,
      "##cf8": 1531,
      "##7b1": 1532,
      "b94": 1533,
      "##e7a": 1534,
      "a6c": 1535,
      "41e": 1536,
      "35e": 1537,
      "##b0e": 1538,
      "##d73": 1539,
      "##bba": 1540,
      "##743": 1541,
      "##eb3": 1542,
      "##9cb": 1543,
      "77f": 1544,
      "b8d": 1545,
      "e57": 1546,
      "##90d": 1547,
      "##798": 1548,
      "c6e": 1549,
      "48b": 1550,
      "##4fb": 1551,
      "##18d": 1552,
      "##9f1": 1553,
      "##d0f": 1554,
      "##771": 1555,
      "687": 1556,
      "f6f": 1557,
      "##996": 1558,
      "76f": 1559,
      "83f": 1560,
      "##90b": 1561,
      "##cf7": 1562,
      "bae": 1563,
      "65f": 1564,
      "##d09": 1565,
      "9ac": 1566,
      "##631": 1567,
      "##953": 1568,
      "##193": 1569,
      "##be4": 1570,
      "##4e1": 1571,
      "##740": 1572,
      "257": 1573,
      "68d": 1574,
      "##ff7": 1575,
      "434": 1576,
      "787": 1577,
      "##709": 1578,
      "##b91": 1579,
      "##5bd": 1580,
      "b6f": 1581,
      "987": 1582,
      "ddd": 1583,
      "##5a2": 1584,
      "##881": 1585,
      "4a4": 1586,
      "##bb6": 1587,
      "##181": 1588,
      "##892": 1589,
      "##dec": 1590,
      "##4f1": 1591,
      "bad": 1592,
      "394": 1593,
      "56d": 1594,
      "8ae": 1595,
      "fab": 1596,
      "##70c": 1597,
      "##5b7": 1598,
      "##cfc": 1599,
      "##4eb": 1600,
      "98f": 1601,
      "##192": 1602,
      "427": 1603,
      "c94": 1604,
      "##cf4": 1605,
      "##9c7": 1606,
      "0bc": 1607,
      "##221": 1608,
      "9ab": 1609,
      "98c": 1610,
      "##d45": 1611,
      "b6d": 1612,
      "ccc": 1613,
      "##90c": 1614,
      "c1f": 1615,
      "##283": 1616,
      "144": 1617,
      "737": 1618,
      "48c": 1619,
      "##9f9": 1620,
      "d6c": 1621,
      "##9cf": 1622,
      "##e0b": 1623,
      "##f0b": 1624,
      "517": 1625,
      "##4c8": 1626,
      "d1d": 1627,
      "e5e": 1628,
      "##888": 1629,
      "##982": 1630,
      "##c0e": 1631,
      "##e79": 1632,
      "21f": 1633,
      "##3e3": 1634,
      "96b": 1635,
      "8dd": 1636,
      "a1b": 1637,
      "##f05": 1638,
      "##de1": 1639,
      "cab": 1640,
      "##981": 1641,
      "387": 1642,
      "##129": 1643,
      "##2b3": 1644,
      "##b78": 1645,
      "##4c2": 1646,
      "26e": 1647,
      "41f": 1648,
      "1bf": 1649,
      "487": 1650,
      "##e73": 1651,
      "##e4c": 1652,
      "##199": 1653,
      "b3f": 1654,
      "c3f": 1655,
      "##d7b": 1656,
      "##998": 1657,
      "2af": 1658,
      "##efd": 1659,
      "6cc": 1660,
      "a64": 1661,
      "76c": 1662,
      "e6d": 1663,
      "f87": 1664,
      "eac": 1665,
      "##dc4": 1666,
      "##898": 1667,
      "424": 1668,
      "3cc": 1669,
      "58f": 1670,
      "83c": 1671,
      "faf": 1672,
      "##60e": 1673,
      "55e": 1674,
      "##dfb": 1675,
      "##656": 1676,
      "81e": 1677,
      "##595": 1678,
      "##5bf": 1679,
      "5bf": 1680,
      "##ec9": 1681,
      "85c": 1682,
      "c54": 1683,
      "ead": 1684,
      "##778": 1685,
      "21e": 1686,
      "794": 1687,
      "##de6": 1688,
      "##f06": 1689,
      "e6f": 1690,
      "##321": 1691,
      "11d": 1692,
      "##d51": 1693,
      "##3ee": 1694,
      "##749": 1695,
      "##b40": 1696,
      "##b7a": 1697,
      "##4fa": 1698,
      "cbc": 1699,
      "##e43": 1700,
      "##189": 1701,
      "2a7": 1702,
      "61e": 1703,
      "##dea": 1704,
      "e3f": 1705,
      "aaf": 1706,
      "##651": 1707,
      "##cf1": 1708,
      "9af": 1709,
      "daf": 1710,
      "##3d7": 1711,
      "d1f": 1712,
      "##1ce": 1713,
      "##3d8": 1714,
      "6bf": 1715,
      "86c": 1716,
      "3a7": 1717,
      "##b09": 1718,
      "##3d4": 1719,
      "8af": 1720,
      "ba4": 1721,
      "##e78": 1722,
      "##236": 1723,
      "67f": 1724,
      "##cf5": 1725,
      "98d": 1726,
      "59d": 1727,
      "##efe": 1728,
      "13c": 1729,
      "##636": 1730,
      "##3da": 1731,
      "##8e2": 1732,
      "667": 1733,
      "##ffa": 1734,
      "##f0d": 1735,
      "##9fb": 1736,
      "##de8": 1737,
      "52d": 1738,
      "##4c9": 1739,
      "##ec8": 1740,
      "##d43": 1741,
      "b17": 1742,
      "##59a": 1743,
      "734": 1744,
      "##359": 1745,
      "47f": 1746,
      "e37": 1747,
      "1dd": 1748,
      "##8e6": 1749,
      "88f": 1750,
      "ebf": 1751,
      "384": 1752,
      "5ad": 1753,
      "##8eb": 1754,
      "##699": 1755,
      "##efc": 1756,
      "##4cb": 1757,
      "93c": 1758,
      "##74f": 1759,
      "17c": 1760,
      "##25a": 1761,
      "844": 1762,
      "##4fc": 1763,
      "9ad": 1764,
      "f8c": 1765,
      "##de4": 1766,
      "25f": 1767,
      "f34": 1768,
      "##e0f": 1769,
      "##a91": 1770,
      "b8c": 1771,
      "##15a": 1772,
      "7ee": 1773,
      "d3c": 1774,
      "bab": 1775,
      "##dff": 1776,
      "##779": 1777,
      "76d": 1778,
      "##9fe": 1779,
      "##796": 1780,
      "##355": 1781,
      "##1ca": 1782,
      "c9d": 1783,
      "##60f": 1784,
      "f2c": 1785,
      "##9cd": 1786,
      "##852": 1787,
      "##d4a": 1788,
      "##1c5": 1789,
      "##151": 1790,
      "76e": 1791,
      "654": 1792,
      "##cf6": 1793,
      "2ac": 1794,
      "##c0d": 1795,
      "##cf3": 1796,
      "2ab": 1797,
      "e1e": 1798,
      "21b": 1799,
      "##b76": 1800,
      "##b79": 1801,
      "d14": 1802,
      "##3d5": 1803,
      "c3c": 1804,
      "b14": 1805,
      "334": 1806,
      "fad": 1807,
      "82d": 1808,
      "e2c": 1809,
      "a3f": 1810,
      "##8ed": 1811,
      "48f": 1812,
      "9dd": 1813,
      "##d41": 1814,
      "d8f": 1815,
      "e44": 1816,
      "##d7d": 1817,
      "5af": 1818,
      "##3d0": 1819,
      "##8a1": 1820,
      "##dc8": 1821,
      "727": 1822,
      "##be5": 1823,
      "6ad": 1824,
      "21d": 1825,
      "##986": 1826,
      "91d": 1827,
      "##deb": 1828,
      "814": 1829,
      "15f": 1830,
      "7a7": 1831,
      "##85a": 1832,
      "##746": 1833,
      "e8d": 1834,
      "##159": 1835,
      "fa4": 1836,
      "967": 1837,
      "83b": 1838,
      "53f": 1839,
      "##745": 1840,
      "7ae": 1841,
      "194": 1842,
      "78d": 1843,
      "ca4": 1844,
      "##742": 1845,
      "##d46": 1846,
      "a7c": 1847,
      "##d98": 1848,
      "##9ca": 1849,
      "##4cd": 1850,
      "467": 1851,
      "f9d": 1852,
      "59b": 1853,
      "dee": 1854,
      "##2b6": 1855,
      "dad": 1856,
      "##3e8": 1857,
      "79b": 1858,
      "ba7": 1859,
      "f8d": 1860,
      "##d4e": 1861,
      "a2d": 1862,
      "##74a": 1863,
      "##7bd": 1864,
      "##e0e": 1865,
      "f8b": 1866,
      "41d": 1867,
      "##32a": 1868,
      "##b73": 1869,
      "a7f": 1870,
      "a6d": 1871,
      "f7f": 1872,
      "##d75": 1873,
      "3ae": 1874,
      "2cc": 1875,
      "93b": 1876,
      "##b0b": 1877,
      "##9fc": 1878,
      "##152": 1879,
      "13b": 1880,
      "96e": 1881,
      "0cc": 1882,
      "##cfa": 1883,
      "##186": 1884,
      "##b0c": 1885,
      "587": 1886,
      "f2d": 1887,
      "##993": 1888,
      "724": 1889,
      "##382": 1890,
      "e3c": 1891,
      "##da2": 1892,
      "##d93": 1893,
      "##9ce": 1894,
      "d2e": 1895,
      "##19a": 1896,
      "5a4": 1897,
      "##9ff": 1898,
      "717": 1899,
      "6bc": 1900,
      "##653": 1901,
      "f44": 1902,
      "##191": 1903,
      "137": 1904,
      "##623": 1905,
      "##efa": 1906,
      "f6c": 1907,
      "##3a1": 1908,
      "##d0d": 1909,
      "##d9a": 1910,
      "744": 1911,
      "79d": 1912,
      "##b4d": 1913,
      "d67": 1914,
      "##9f4": 1915,
      "43f": 1916,
      "38b": 1917,
      "a5d": 1918,
      "57c": 1919,
      "##7b6": 1920,
      "fee": 1921,
      "##a02": 1922,
      "5ae": 1923,
      "0ee": 1924,
      "##6aa": 1925,
      "##893": 1926,
      "19e": 1927,
      "484": 1928,
      "##9c1": 1929,
      "7bc": 1930,
      "b7c": 1931,
      "##e4d": 1932,
      "c7c": 1933,
      "##60d": 1934,
      "##4c5": 1935,
      "##3d6": 1936,
      "##791": 1937,
      "38d": 1938,
      "d9e": 1939,
      "27c": 1940,
      "##ff5": 1941,
      "##7ba": 1942,
      "fac": 1943,
      "554": 1944,
      "9a7": 1945,
      "294": 1946,
      "ecc": 1947,
      "73c": 1948,
      "##d42": 1949,
      "##4e8": 1950,
      "##351": 1951,
      "36d": 1952,
      "b87": 1953,
      "##ff9": 1954,
      "##792": 1955,
      "##bbb": 1956,
      "39b": 1957,
      "##df6": 1958,
      "d7f": 1959,
      "##69a": 1960,
      "4a7": 1961,
      "##62a": 1962,
      "6af": 1963,
      "##da1": 1964,
      "##4f5": 1965,
      "a2f": 1966,
      "##1c9": 1967,
      "364": 1968,
      "d5c": 1969,
      "##196": 1970,
      "fbc": 1971,
      "857": 1972,
      "##3df": 1973,
      "##688": 1974,
      "937": 1975,
      "##685": 1976,
      "3ac": 1977,
      "25c": 1978,
      "36c": 1979,
      "##3d1": 1980,
      "914": 1981,
      "c9b": 1982,
      "9bf": 1983,
      "b97": 1984,
      "7cc": 1985,
      "##b4a": 1986,
      "##6a8": 1987,
      "f3c": 1988,
      "d9b": 1989,
      "##d0e": 1990,
      "##775": 1991,
      "4ac": 1992,
      "##ffc": 1993,
      "caf": 1994,
      "d84": 1995,
      "b7f": 1996,
      "6ab": 1997,
      "5dd": 1998,
      "e2d": 1999,
      "e9e": 2000,
      "e1f": 2001,
      "267": 2002,
      "d6d": 2003,
      "26b": 2004,
      "a2c": 2005,
      "##be7": 2006,
      "a27": 2007,
      "##d92": 2008,
      "da4": 2009,
      "##3de": 2010,
      "##3eb": 2011,
      "a6f": 2012,
      "##4f3": 2013,
      "##ff4": 2014,
      "f9e": 2015,
      "##db9": 2016,
      "2a4": 2017,
      "52e": 2018,
      "6ac": 2019,
      "##b71": 2020,
      "767": 2021,
      "bdd": 2022,
      "##dcb": 2023,
      "c27": 2024,
      "##35a": 2025,
      "e2e": 2026,
      "c7f": 2027,
      "##3dd": 2028,
      "7ab": 2029,
      "b3b": 2030,
      "##dce": 2031,
      "23f": 2032,
      "25e": 2033,
      "26f": 2034,
      "da7": 2035,
      "067": 2036,
      "##bec": 2037,
      "57f": 2038,
      "##65a": 2039,
      "8ee": 2040,
      "79e": 2041,
      "d6e": 2042,
      "##195": 2043,
      "##253": 2044,
      "97c": 2045,
      "##e0d": 2046,
      "##b92": 2047,
      "28b": 2048,
      "72c": 2049,
      "dbc": 2050,
      "##be1": 2051,
      "65c": 2052,
      "##d76": 2053,
      "627": 2054,
      "62d": 2055,
      "##d86": 2056,
      "c5c": 2057,
      "9a4": 2058,
      "927": 2059,
      "##4ca": 2060,
      "##381": 2061,
      "61b": 2062,
      "##661": 2063,
      "a1d": 2064,
      "##d96": 2065,
      "##dfc": 2066,
      "##88a": 2067,
      "96d": 2068,
      "##891": 2069,
      "##b0d": 2070,
      "92c": 2071,
      "##853": 2072,
      "##b75": 2073,
      "##392": 2074,
      "##df7": 2075,
      "##ef6": 2076,
      "##252": 2077,
      "894": 2078,
      "a57": 2079,
      "##d72": 2080,
      "e34": 2081,
      "3ad": 2082,
      "##99a": 2083,
      "baf": 2084,
      "##f0c": 2085,
      "##698": 2086,
      "##d4f": 2087,
      "924": 2088,
      "a1e": 2089,
      "95f": 2090,
      "a34": 2091,
      "##beb": 2092,
      "d87": 2093,
      "##4f8": 2094,
      "##621": 2095,
      "##ef7": 2096,
      "75c": 2097,
      "4ad": 2098,
      "82c": 2099,
      "##3d9": 2100,
      "7bf": 2101,
      "##d71": 2102,
      "4bf": 2103,
      "214": 2104,
      "f8f": 2105,
      "##952": 2106,
      "##1c3": 2107,
      "##b43": 2108,
      "f24": 2109,
      "36e": 2110,
      "cad": 2111,
      "92f": 2112,
      "##eca": 2113,
      "##793": 2114,
      "##e72": 2115,
      "##dc7": 2116,
      "##353": 2117,
      "##efb": 2118,
      "##de5": 2119,
      "26d": 2120,
      "e27": 2121,
      "dcc": 2122,
      "934": 2123,
      "c2d": 2124,
      "6ae": 2125,
      "8cc": 2126,
      "37f": 2127,
      "f94": 2128,
      "d8d": 2129,
      "13f": 2130,
      "55d": 2131,
      "287": 2132,
      "d2c": 2133,
      "fae": 2134,
      "##ff1": 2135,
      "73b": 2136,
      "e3b": 2137,
      "f3b": 2138,
      "##b7d": 2139,
      "##be6": 2140,
      "f14": 2141,
      "55c": 2142,
      "81b": 2143,
      "51e": 2144,
      "29d": 2145,
      "714": 2146,
      "##3ed": 2147,
      "a44": 2148,
      "##9f7": 2149,
      "39d": 2150,
      "##ec5": 2151,
      "48d": 2152,
      "##161": 2153,
      "d8c": 2154,
      "75f": 2155,
      "82e": 2156,
      "cee": 2157,
      "##68a": 2158,
      "a14": 2159,
      "e5f": 2160,
      "##896": 2161,
      "##995": 2162,
      "397": 2163,
      "f84": 2164,
      "dae": 2165,
      "5a7": 2166,
      "55f": 2167,
      "##383": 2168,
      "e9d": 2169,
      "##cfe": 2170,
      "##dca": 2171,
      "##391": 2172,
      "157": 2173,
      "42d": 2174,
      "##991": 2175,
      "fa7": 2176,
      "72d": 2177,
      "##c0c": 2178,
      "5ac": 2179,
      "##9f6": 2180,
      "##b9a": 2181,
      "2ad": 2182,
      "##dfe": 2183,
      "834": 2184,
      "f67": 2185,
      "##396": 2186,
      "##b72": 2187,
      "617": 2188,
      "944": 2189,
      "99e": 2190,
      "a17": 2191,
      "##3d2": 2192,
      "##bea": 2193,
      "##9a1": 2194,
      "797": 2195,
      "##956": 2196,
      "61d": 2197,
      "e2f": 2198,
      "##dcf": 2199,
      "73f": 2200,
      "d5d": 2201,
      "##db3": 2202,
      "##be9": 2203,
      "##1cf": 2204,
      "7dd": 2205,
      "##d56": 2206,
      "4dd": 2207,
      "15c": 2208,
      "51d": 2209,
      "##999": 2210,
      "764": 2211,
      "c8c": 2212,
      "fcc": 2213,
      "414": 2214,
      "f6d": 2215,
      "61f": 2216,
      "72e": 2217,
      "a3c": 2218,
      "d57": 2219,
      "3af": 2220,
      "##d95": 2221,
      "f1b": 2222,
      "##a93": 2223,
      "d27": 2224,
      "c57": 2225,
      "dbf": 2226,
      "9ae": 2227,
      "cbf": 2228,
      "##ff2": 2229,
      "d37": 2230,
      "d94": 2231,
      "28f": 2232,
      "f9b": 2233,
      "e24": 2234,
      "##ded": 2235,
      "d24": 2236,
      "d97": 2237,
      "c87": 2238,
      "d3b": 2239,
      "d2f": 2240,
      "5ee": 2241,
      "837": 2242,
      "##4f7": 2243,
      "e8f": 2244,
      "f64": 2245,
      "eaf": 2246,
      "82f": 2247,
      "d6f": 2248,
      "d5f": 2249,
      "75e": 2250,
      "dab": 2251,
      "c67": 2252,
      "81f": 2253,
      "d1b": 2254,
      "##393": 2255,
      "e1b": 2256,
      "ea7": 2257,
      "d44": 2258,
      "95c": 2259,
      "f1e": 2260,
      "99b": 2261,
      "d9d": 2262,
      "52c": 2263,
      "##df1": 2264,
      "d64": 2265,
      "##ff6": 2266,
      "e8c": 2267,
      "f37": 2268,
      "cac": 2269,
      "f2f": 2270,
      "fdd": 2271,
      "9ee": 2272,
      "71f": 2273,
      "d5e": 2274,
      "ca7": 2275,
      "f3f": 2276,
      "a37": 2277,
      "52f": 2278,
      "95d": 2279,
      "75d": 2280,
      "e9b": 2281,
      "15d": 2282,
      "f1d": 2283,
      "99d": 2284,
      "a2e": 2285,
      "ebc": 2286,
      "##9c8": 2287,
      "c8d": 2288,
      "d3f": 2289,
      "##3a3": 2290,
      "a1f": 2291,
      "96c": 2292,
      "e97": 2293,
      "7af": 2294,
      "81d": 2295,
      "c5d": 2296,
      "f2e": 2297,
      "e94": 2298,
      "##bb8": 2299,
      "97f": 2300,
      "624": 2301,
      "954": 2302,
      "29e": 2303,
      "d2d": 2304,
      "cae": 2305,
      "##652": 2306,
      "d54": 2307,
      "d17": 2308,
      "##101": 2309,
      "##7e0": 2310,
      "##108": 2311,
      "0300": 2312,
      "##408": 2313,
      "##208": 2314,
      "400": 2315,
      "230": 2316,
      "##a03": 2317,
      "600": 2318,
      "##409": 2319,
      "##a01": 2320,
      "880": 2321,
      "##20c": 2322,
      "##201": 2323,
      "##401": 2324,
      "##a08": 2325,
      "c30": 2326,
      "##a04": 2327,
      "##7e9": 2328,
      "##7e8": 2329,
      "##104": 2330,
      "500": 2331,
      "##20b": 2332,
      "630": 2333,
      "##102": 2334,
      "##f1": 2335,
      "##402": 2336,
      "##204": 2337,
      "b00": 2338,
      "200": 2339,
      "##209": 2340,
      "##7e4": 2341,
      "##406": 2342,
      "330": 2343,
      "##a07": 2344,
      "##20e": 2345,
      "a00": 2346,
      "##7e6": 2347,
      "800": 2348,
      "##106": 2349,
      "a30": 2350,
      "680": 2351,
      "##103": 2352,
      "530": 2353,
      "b80": 2354,
      "280": 2355,
      "##a05": 2356,
      "##fd": 2357,
      "##a06": 2358,
      "##f4": 2359,
      "##10a": 2360,
      "480": 2361,
      "##10f": 2362,
      "a80": 2363,
      "##202": 2364,
      "830": 2365,
      "980": 2366,
      "##a0b": 2367,
      "b30": 2368,
      "780": 2369,
      "##a09": 2370,
      "##10d": 2371,
      "##107": 2372,
      "##109": 2373,
      "c00": 2374,
      "580": 2375,
      "##40a": 2376,
      "e00": 2377,
      "430": 2378,
      "##407": 2379,
      "##a0f": 2380,
      "380": 2381,
      "e80": 2382,
      "730": 2383,
      "##fc": 2384,
      "f80": 2385,
      "##f5": 2386,
      "700": 2387,
      "##a0d": 2388,
      "##fa": 2389,
      "##7e5": 2390,
      "##207": 2391,
      "##205": 2392,
      "##10c": 2393,
      "##fb": 2394,
      "d30": 2395,
      "##fe": 2396,
      "##a0a": 2397,
      "##7e7": 2398,
      "##f2": 2399,
      "##40d": 2400,
      "d80": 2401,
      "e30": 2402,
      "930": 2403,
      "##7e3": 2404,
      "##40f": 2405,
      "##20a": 2406,
      "##a0e": 2407,
      "##7ec": 2408,
      "##40b": 2409,
      "##20d": 2410,
      "##f8": 2411,
      "f30": 2412,
      "##7eb": 2413,
      "##7e1": 2414,
      "d00": 2415,
      "##405": 2416,
      "##10e": 2417,
      "##404": 2418,
      "##20f": 2419,
      "##206": 2420,
      "f00": 2421,
      "##105": 2422,
      "##7ef": 2423,
      "##a0c": 2424,
      "##f3": 2425,
      "##7ea": 2426,
      "##10b": 2427,
      "900": 2428,
      "##f9": 2429,
      "##7e2": 2430,
      "c80": 2431,
      "##7ed": 2432,
      "##40c": 2433,
      "##f7": 2434,
      "0017": 2435,
      "1801": 2436,
      "8018": 2437,
      "050a": 2438,
      "1004": 2439,
      "e010": 2440,
      "0522": 2441,
      "1008": 2442,
      "0889": 2443,
      "1800": 2444,
      "0218": 2445,
      "1003": 2446,
      "003e": 2447,
      "0a00": 2448,
      "3bf8": 2449,
      "353b": 2450,
      "f86e": 2451,
      "4850": 2452,
      "3d99": 2453,
      "fd3d": 2454,
      "994f": 2455,
      "1005": 2456,
      "051a": 2457,
      "0245": 2458,
      "1010": 2459,
      "1020": 2460,
      "0305": 2461,
      "0201": 2462,
      "0800": 2463,
      "dc9b": 2464,
      "9be2": 2465,
      "1802": 2466,
      "e2ba": 2467,
      "0016": 2468,
      "c61e": 2469,
      "6960": 2470,
      "2869": 2471,
      "60b7": 2472,
      "ee49": 2473,
      "1eee": 2474,
      "6e50": 2475,
      "6dd9": 2476,
      "356d": 2477,
      "d90e": 2478,
      "0a0a": 2479,
      "0512": 2480,
      "38f5": 2481,
      "2493": 2482,
      "0049": 2483,
      "7797": 2484,
      "9724": 2485,
      "0a02": 2486,
      "101a": 2487,
      "0e50": 2488,
      "10c1": 2489,
      "0340": 2490,
      "0402": 2491,
      "1007": 2492,
      "0200": 2493,
      "d000": 2494,
      "1080": 2495,
      "8fd6": 2496,
      "4f80": 2497,
      "7a99": 2498,
      "0301": 2499,
      "998f": 2500,
      "0a38": 2501,
      "1030": 2502,
      "0a06": 2503,
      "0a04": 2504,
      "b750": 2505,
      "a010": 2506,
      "0053": 2507,
      "4710": 2508,
      "f010": 2509,
      "001a": 2510,
      "1040": 2511,
      "4ef1": 2512,
      "9350": 2513,
      "0863": 2514,
      "0a05": 2515,
      "0400": 2516,
      "ba50": 2517,
      "0a03": 2518,
      "3050": 2519,
      "0134": 2520,
      "1060": 2521,
      "0a07": 2522,
      "5f30": 2523,
      "d650": 2524,
      "f35f": 2525,
      "eff3": 2526,
      "0132": 2527,
      "b010": 2528,
      "0045": 2529,
      "4950": 2530,
      "0a01": 2531,
      "0a48": 2532,
      "747a": 2533,
      "f4e0": 2534,
      "e074": 2535,
      "dced": 2536,
      "973a": 2537,
      "014e": 2538,
      "4011": 2539,
      "c131": 2540,
      "1803": 2541,
      "7a80": 2542,
      "0087": 2543,
      "0a09": 2544,
      "cc87": 2545,
      "1006": 2546,
      "f650": 2547,
      "0202": 2548,
      "0a97": 2549,
      "0310": 2550,
      "c010": 2551,
      "300c": 2552,
      "0100": 2553,
      "0117": 2554,
      "60f6": 2555,
      "e9f0": 2556,
      "f060": 2557,
      "c692": 2558,
      "0002": 2559,
      "4056": 2560,
      "2b00": 2561,
      "0591": 2562,
      "3300": 2563,
      "1403": 2564,
      "002b": 2565,
      "2036": 2566,
      "1804": 2567,
      "db23": 2568,
      "030c": 2569,
      "2400": 2570,
      "0a0b": 2571,
      "8050": 2572,
      "1d00": 2573,
      "03f7": 2574,
      "0947": 2575,
      "0417": 2576,
      "f710": 2577,
      "0044": 2578,
      "0024": 2579,
      "01f7": 2580,
      "100f": 2581,
      "0043": 2582,
      "d203": 2583,
      "1a6e": 2584,
      "0046": 2585,
      "0042": 2586,
      "89d2": 2587,
      "0de0": 2588,
      "0085": 2589,
      "0304": 2590,
      "2e00": 2591,
      "42f7": 2592,
      "0033": 2593,
      "00b6": 2594,
      "f70d": 2595,
      "1011": 2596,
      "38f6": 2597,
      "f83d": 2598,
      "1015": 2599,
      "0040": 2600,
      "0203": 2601,
      "0c50": 2602,
      "b95b": 2603,
      "0008": 2604,
      "a6eb": 2605,
      "0a08": 2606,
      "000e": 2607,
      "001d": 2608,
      "000a": 2609,
      "00c1": 2610,
      "0312": 2611,
      "0050": 2612,
      "e050": 2613,
      "0598": 2614,
      "1808": 2615,
      "0109": 2616,
      "d335": 2617,
      "0805": 2618,
      "1009": 2619,
      "0235": 2620,
      "0add": 2621,
      "0057": 2622,
      "3c77": 2623,
      "007a": 2624,
      "92ea": 2625,
      "0083": 2626,
      "35b4": 2627,
      "0076": 2628,
      "b40e": 2629,
      "002e": 2630,
      "0403": 2631,
      "4c83": 2632,
      "0ada": 2633,
      "0302": 2634,
      "001e": 2635,
      "0404": 2636,
      "c164": 2637,
      "01e6": 2638,
      "4bc8": 2639,
      "0022": 2640,
      "00b5": 2641,
      "00af": 2642,
      "001f": 2643,
      "008e": 2644,
      "003c": 2645,
      "0014": 2646,
      "00b7": 2647,
      "006f": 2648,
      "4000": 2649,
      "0047": 2650,
      "0035": 2651,
      "0a3c": 2652,
      "0048": 2653,
      "0025": 2654,
      "00d5": 2655,
      "0091": 2656,
      "0054": 2657,
      "1603": 2658,
      "0089": 2659,
      "4500": 2660,
      "1100": 2661,
      "0028": 2662,
      "2000": 2663,
      "8084": 2664,
      "2900": 2665,
      "3400": 2666,
      "0086": 2667,
      "1d15": 2668,
      "00b8": 2669,
      "014a": 2670,
      "003f": 2671,
      "0092": 2672,
      "6000": 2673,
      "004a": 2674,
      "1700": 2675,
      "c700": 2676,
      "1400": 2677,
      "05a4": 2678,
      "e5b9": 2679,
      "100a": 2680,
      "0156": 2681,
      "0401": 2682,
      "2f00": 2683,
      "f500": 2684,
      "3100": 2685,
      "2d00": 2686,
      "6300": 2687,
      "3000": 2688,
      "1a00": 2689,
      "da32": 2690,
      "6700": 2691,
      "5c00": 2692,
      "a4c6": 2693,
      "0065": 2694,
      "8000": 2695,
      "0037": 2696,
      "9d00": 2697,
      "0500": 2698,
      "0e00": 2699,
      "1900": 2700,
      "ed00": 2701,
      "2300": 2702,
      "0b00": 2703,
      "3c00": 2704,
      "6a00": 2705,
      "bc00": 2706,
      "1200": 2707,
      "5900": 2708,
      "ffff": 2709,
      "c400": 2710,
      "0012": 2711,
      "0c00": 2712,
      "0a0c": 2713,
      "1500": 2714,
      "9600": 2715,
      "7e00": 2716,
      "be00": 2717,
      "b500": 2718,
      "6100": 2719,
      "0d00": 2720,
      "f600": 2721,
      "9c00": 2722,
      "0029": 2723,
      "6900": 2724,
      "7d00": 2725,
      "6d00": 2726,
      "3200": 2727,
      "a300": 2728,
      "00c5": 2729,
      "7200": 2730,
      "001c": 2731,
      "0700": 2732,
      "2600": 2733,
      "2c00": 2734,
      "b700": 2735,
      "4f00": 2736,
      "6500": 2737,
      "0055": 2738,
      "8b00": 2739,
      "3d00": 2740,
      "f100": 2741,
      "ba00": 2742,
      "8600": 2743,
      "b300": 2744,
      "e900": 2745,
      "9200": 2746,
      "8e00": 2747,
      "6400": 2748,
      "6f00": 2749,
      "ad00": 2750,
      "fc00": 2751,
      "036d": 2752,
      "d100": 2753,
      "9900": 2754,
      "d600": 2755,
      "039a": 2756,
      "d500": 2757,
      "d700": 2758,
      "ca00": 2759,
      "2200": 2760,
      "6b00": 2761,
      "8500": 2762,
      "5b00": 2763,
      "6c00": 2764,
      "9500": 2765,
      "b000": 2766,
      "3500": 2767,
      "2500": 2768,
      "1300": 2769,
      "3b00": 2770,
      "4900": 2771,
      "bd00": 2772,
      "1e00": 2773,
      "9b00": 2774,
      "a400": 2775,
      "4a00": 2776,
      "ab00": 2777,
      "4700": 2778,
      "df00": 2779,
      "c900": 2780,
      "4400": 2781,
      "cb00": 2782,
      "a500": 2783,
      "e600": 2784,
      "a700": 2785,
      "004d": 2786,
      "f700": 2787,
      "e100": 2788,
      "c100": 2789,
      "bb00": 2790,
      "b600": 2791,
      "6e00": 2792,
      "b900": 2793,
      "5700": 2794,
      "5d00": 2795,
      "1600": 2796,
      "aa00": 2797,
      "1b00": 2798,
      "1a6c": 2799,
      "4c00": 2800,
      "8100": 2801,
      "4600": 2802,
      "9f00": 2803,
      "ac00": 2804,
      "9000": 2805,
      "a000": 2806,
      "a600": 2807,
      "3a00": 2808,
      "5600": 2809,
      "8700": 2810,
      "2a00": 2811,
      "db00": 2812,
      "7b00": 2813,
      "8a00": 2814,
      "7000": 2815,
      "9800": 2816,
      "5500": 2817,
      "7f00": 2818,
      "8300": 2819,
      "2700": 2820,
      "7500": 2821,
      "3600": 2822,
      "7100": 2823,
      "ec00": 2824,
      "5800": 2825,
      "601d": 2826,
      "7400": 2827,
      "5f00": 2828,
      "b100": 2829,
      "5e00": 2830,
      "a100": 2831,
      "bf00": 2832,
      "f800": 2833,
      "ce00": 2834,
      "3e00": 2835,
      "8c00": 2836,
      "a200": 2837,
      "a900": 2838,
      "5a00": 2839,
      "7900": 2840,
      "4d00": 2841,
      "cd00": 2842,
      "0900": 2843,
      "eb00": 2844,
      "8200": 2845,
      "9400": 2846,
      "9300": 2847,
      "0023": 2848,
      "5300": 2849,
      "c200": 2850,
      "4b00": 2851,
      "0f00": 2852,
      "c600": 2853,
      "b200": 2854,
      "6800": 2855,
      "5000": 2856,
      "3f00": 2857,
      "9a00": 2858,
      "7700": 2859,
      "e400": 2860,
      "7800": 2861,
      "cf00": 2862,
      "d800": 2863,
      "b800": 2864,
      "8800": 2865,
      "7c00": 2866,
      "fe00": 2867,
      "f000": 2868,
      "3800": 2869,
      "7300": 2870,
      "4100": 2871,
      "03f5": 2872,
      "e200": 2873,
      "4200": 2874,
      "ea00": 2875,
      "da00": 2876,
      "ff00": 2877,
      "c800": 2878,
      "9100": 2879,
      "cc00": 2880,
      "0600": 2881,
      "e000": 2882,
      "fb00": 2883,
      "0006": 2884,
      "c300": 2885,
      "af00": 2886,
      "022e": 2887,
      "dd00": 2888,
      "8f00": 2889,
      "0422": 2890,
      "9e00": 2891,
      "6600": 2892,
      "8400": 2893,
      "f900": 2894,
      "2800": 2895,
      "d900": 2896,
      "4300": 2897,
      "9700": 2898,
      "1c00": 2899,
      "d400": 2900,
      "c000": 2901,
      "d200": 2902,
      "87e4": 2903,
      "4800": 2904,
      "0080": 2905,
      "fd00": 2906,
      "4e00": 2907,
      "ef00": 2908,
      "d300": 2909,
      "b400": 2910,
      "e300": 2911,
      "f200": 2912,
      "f400": 2913,
      "008a": 2914,
      "e500": 2915,
      "1f00": 2916,
      "de00": 2917,
      "8d00": 2918,
      "a800": 2919,
      "7600": 2920,
      "5100": 2921,
      "ae00": 2922,
      "7a00": 2923,
      "fa00": 2924,
      "e800": 2925,
      "dc00": 2926,
      "6200": 2927,
      "e700": 2928,
      "002c": 2929,
      "5200": 2930,
      "f300": 2931,
      "5400": 2932,
      "c500": 2933,
      "8900": 2934,
      "0aa4": 2935,
      "3700": 2936,
      "ee00": 2937,
      "000b": 2938,
      "3900": 2939,
      "03c7": 2940,
      "1018": 2941,
      "2100": 2942,
      "002a": 2943,
      "007b": 2944,
      "0004": 2945,
      "6098": 2946,
      "0a82": 2947,
      "0013": 2948,
      "001b": 2949,
      "003b": 2950,
      "009e": 2951,
      "0041": 2952,
      "00b3": 2953,
      "0058": 2954,
      "4d80": 2955,
      "04aa": 2956,
      "7603": 2957,
      "1a50": 2958,
      "004e": 2959,
      "7a02": 2960,
      "0208": 2961,
      "60b2": 2962,
      "0088": 2963,
      "0007": 2964,
      "047c": 2965,
      "0214": 2966,
      "0504": 2967,
      "044f": 2968,
      "e182": 2969,
      "005b": 2970,
      "100b": 2971,
      "008b": 2972,
      "012f": 2973,
      "0059": 2974,
      "10ff": 2975,
      "006e": 2976,
      "87e6": 2977,
      "007c": 2978,
      "0abb": 2979,
      "04d7": 2980,
      "0052": 2981,
      "d010": 2982,
      "ea51": 2983,
      "0ab7": 2984,
      "0ac6": 2985,
      "105f": 2986,
      "100c": 2987,
      "6a80": 2988,
      "1810": 2989,
      "0454": 2990,
      "bc50": 2991,
      "004f": 2992,
      "ea50": 2993,
      "007e": 2994,
      "00f9": 2995,
      "004b": 2996,
      "005a": 2997,
      "0021": 2998,
      "02e5": 2999,
      "00a4": 3000,
      "6550": 3001,
      "0026": 3002,
      "004c": 3003,
      "b380": 3004,
      "331f": 3005,
      "01a3": 3006,
      "0034": 3007,
      "1805": 3008,
      "a650": 3009,
      "e250": 3010,
      "d450": 3011,
      "002f": 3012,
      "0003": 3013,
      "00a6": 3014,
      "05b4": 3015,
      "01d6": 3016,
      "0030": 3017,
      "0005": 3018,
      "0074": 3019,
      "2850": 3020,
      "0750": 3021,
      "008c": 3022,
      "e329": 3023,
      "0af4": 3024,
      "5980": 3025,
      "0150": 3026,
      "0039": 3027,
      "1650": 3028,
      "1302": 3029,
      "0531": 3030,
      "0166": 3031,
      "005c": 3032,
      "0735": 3033,
      "201f": 3034,
      "008d": 3035,
      "0027": 3036,
      "8366": 3037,
      "7550": 3038,
      "0061": 3039,
      "005d": 3040,
      "0450": 3041,
      "0090": 3042,
      "2f50": 3043,
      "00eb": 3044,
      "a950": 3045,
      "5650": 3046,
      "008f": 3047,
      "3d50": 3048,
      "0293": 3049,
      "e950": 3050,
      "0019": 3051,
      "0018": 3052,
      "5f50": 3053,
      "0010": 3054,
      "00f4": 3055,
      "1950": 3056,
      "011a": 3057,
      "7650": 3058,
      "0081": 3059,
      "0095": 3060,
      "3f68": 3061,
      "003a": 3062,
      "0051": 3063,
      "6144": 3064,
      "0a62": 3065,
      "6050": 3066,
      "87e5": 3067,
      "7a1a": 3068,
      "03bc": 3069,
      "016a": 3070,
      "0064": 3071,
      "3418": 3072,
      "0056": 3073,
      "0078": 3074,
      "0a80": 3075,
      "0427": 3076,
      "5374": 3077,
      "e409": 3078,
      "2550": 3079,
      "4050": 3080,
      "006d": 3081,
      "1850": 3082,
      "0093": 3083,
      "049f": 3084,
      "6680": 3085,
      "9d50": 3086,
      "8e50": 3087,
      "01ea": 3088,
      "cddb": 3089,
      "0060": 3090,
      "bd1a": 3091,
      "4550": 3092,
      "5ff8": 3093,
      "0068": 3094,
      "7a50": 3095,
      "055f": 3096,
      "009c": 3097,
      "1f5b": 3098,
      "59fd": 3099,
      "0250": 3100,
      "00a0": 3101,
      "006a": 3102,
      "0084": 3103,
      "6250": 3104,
      "005f": 3105,
      "acc5": 3106,
      "0063": 3107,
      "0066": 3108,
      "0320": 3109,
      "007f": 3110,
      "010d": 3111,
      "ec50": 3112,
      "0a32": 3113,
      "0f50": 3114,
      "3b50": 3115,
      "2750": 3116,
      "0072": 3117,
      "058c": 3118,
      "00b0": 3119,
      "a350": 3120,
      "6343": 3121,
      "3250": 3122,
      "009d": 3123,
      "000c": 3124,
      "5617": 3125,
      "a4c3": 3126,
      "00aa": 3127,
      "0a0e": 3128,
      "039c": 3129,
      "9a50": 3130,
      "a452": 3131,
      "0075": 3132,
      "0788": 3133,
      "01f8": 3134,
      "6765": 3135,
      "0adc": 3136,
      "fa50": 3137,
      "f750": 3138,
      "5850": 3139,
      "0079": 3140,
      "00f5": 3141,
      "c693": 3142,
      "0094": 3143,
      "0031": 3144,
      "0077": 3145,
      "5ba8": 3146,
      "1014": 3147,
      "0a4b": 3148,
      "8365": 3149,
      "8350": 3150,
      "006c": 3151,
      "003d": 3152,
      "b150": 3153,
      "5011": 3154,
      "0198": 3155,
      "100d": 3156,
      "9c50": 3157,
      "cc50": 3158,
      "4650": 3159,
      "f850": 3160,
      "0062": 3161,
      "06f1": 3162,
      "011c": 3163,
      "9250": 3164,
      "00a5": 3165,
      "028b": 3166,
      "00bc": 3167,
      "006b": 3168,
      "8f50": 3169,
      "8450": 3170,
      "0073": 3171,
      "5e50": 3172,
      "0808": 3173,
      "005e": 3174,
      "4350": 3175,
      "00fa": 3176,
      "8250": 3177,
      "8650": 3178,
      "0097": 3179,
      "002d": 3180,
      "dfc6": 3181,
      "e8b1": 3182,
      "df50": 3183,
      "b450": 3184,
      "00e8": 3185,
      "0096": 3186,
      "0206": 3187,
      "009b": 3188,
      "da2f": 3189,
      "0444": 3190,
      "00da": 3191,
      "00ae": 3192,
      "b16a": 3193,
      "00f3": 3194,
      "e150": 3195,
      "7350": 3196,
      "0015": 3197,
      "0b50": 3198,
      "00ff": 3199,
      "1301": 3200,
      "f250": 3201,
      "ee50": 3202,
      "1659": 3203,
      "0038": 3204,
      "00fb": 3205,
      "082a": 3206,
      "00b2": 3207,
      "0a50": 3208,
      "d050": 3209,
      "2350": 3210,
      "02a9": 3211,
      "00ed": 3212,
      "000d": 3213,
      "000f": 3214,
      "c0df": 3215,
      "023d": 3216,
      "c050": 3217,
      "06b3": 3218,
      "ef50": 3219,
      "6ce8": 3220,
      "00fe": 3221,
      "bb50": 3222,
      "00a2": 3223,
      "102c": 3224,
      "00fc": 3225,
      "7c50": 3226,
      "9050": 3227,
      "0069": 3228,
      "4750": 3229,
      "0036": 3230,
      "1150": 3231,
      "00a1": 3232,
      "9450": 3233,
      "0aed": 3234,
      "8b50": 3235,
      "1c50": 3236,
      "e450": 3237,
      "2250": 3238,
      "0071": 3239,
      "0308": 3240,
      "00b1": 3241,
      "8c50": 3242,
      "1750": 3243,
      "00a8": 3244,
      "2d50": 3245,
      "8850": 3246,
      "0c45": 3247,
      "da50": 3248,
      "d150": 3249,
      "0067": 3250,
      "00a7": 3251,
      "0102": 3252,
      "d6bb": 3253,
      "2c50": 3254,
      "c650": 3255,
      "0070": 3256,
      "0011": 3257,
      "f050": 3258,
      "00e0": 3259,
      "b223": 3260,
      "00d3": 3261,
      "00b9": 3262,
      "00c0": 3263,
      "5d50": 3264,
      "5050": 3265,
      "a850": 3266,
      "0082": 3267,
      "6350": 3268,
      "00c6": 3269,
      "8950": 3270,
      "5350": 3271,
      "5616": 3272,
      "8550": 3273,
      "00b4": 3274,
      "00e6": 3275,
      "0a59": 3276,
      "00d7": 3277,
      "c950": 3278,
      "00d0": 3279,
      "1b50": 3280,
      "0098": 3281,
      "f550": 3282,
      "17b3": 3283,
      "01b3": 3284,
      "00a3": 3285,
      "00ad": 3286,
      "9f50": 3287,
      "8d50": 3288,
      "5950": 3289,
      "4450": 3290,
      "0032": 3291,
      "00e4": 3292,
      "00ef": 3293,
      "00bf": 3294,
      "009a": 3295,
      "030b": 3296,
      "2950": 3297,
      "cd50": 3298,
      "0099": 3299,
      "9950": 3300,
      "00d2": 3301,
      "5a50": 3302,
      "007d": 3303,
      "ac50": 3304,
      "00ac": 3305,
      "5ba9": 3306,
      "6450": 3307,
      "00a9": 3308,
      "202b": 3309,
      "00bb": 3310,
      "3850": 3311,
      "cf50": 3312,
      "4e50": 3313,
      "00c7": 3314,
      "00c9": 3315,
      "00cd": 3316,
      "a450": 3317,
      "f580": 3318,
      "4c50": 3319,
      "0350": 3320,
      "0009": 3321,
      "00f2": 3322,
      "98b6": 3323,
      "1e50": 3324,
      "aa50": 3325,
      "2050": 3326,
      "0627": 3327,
      "b665": 3328,
      "00db": 3329,
      "1028": 3330,
      "ce50": 3331,
      "7850": 3332,
      "4b50": 3333,
      "00ba": 3334,
      "00e3": 3335,
      "b950": 3336,
      "8750": 3337,
      "0b57": 3338,
      "329b": 3339,
      "3059": 3340,
      "05b9": 3341,
      "00bd": 3342,
      "009f": 3343,
      "021e": 3344,
      "100e": 3345,
      "00fd": 3346,
      "00c8": 3347,
      "00e1": 3348,
      "7450": 3349,
      "12a8": 3350,
      "0138": 3351,
      "300a": 3352,
      "cea1": 3353,
      "01ff": 3354,
      "f350": 3355,
      "00f6": 3356,
      "3a50": 3357,
      "00f7": 3358,
      "9e50": 3359,
      "00ca": 3360,
      "ad50": 3361,
      "ea52": 3362,
      "d550": 3363,
      "021d": 3364,
      "06ce": 3365,
      "00de": 3366,
      "0a4d": 3367,
      "00d8": 3368,
      "00c2": 3369,
      "00e5": 3370,
      "1350": 3371,
      "102a": 3372,
      "9550": 3373,
      "00cf": 3374,
      "d250": 3375,
      "b3cf": 3376,
      "03bb": 3377,
      "0751": 3378,
      "58b5": 3379,
      "02a1": 3380,
      "0585": 3381,
      "00c3": 3382,
      "e7d0": 3383,
      "1250": 3384,
      "c250": 3385,
      "00ab": 3386,
      "00d6": 3387,
      "e7fe": 3388,
      "eb50": 3389,
      "ae50": 3390,
      "00df": 3391,
      "3550": 3392,
      "00cc": 3393,
      "3e50": 3394,
      "c150": 3395,
      "2d5b": 3396,
      "00f1": 3397,
      "be93": 3398,
      "5c50": 3399,
      "6b50": 3400,
      "00dd": 3401,
      "3950": 3402,
      "d850": 3403,
      "7f50": 3404,
      "6750": 3405,
      "056a": 3406,
      "ff50": 3407,
      "7750": 3408,
      "7950": 3409,
      "101f": 3410,
      "e350": 3411,
      "00cb": 3412,
      "4e24": 3413,
      "00e2": 3414,
      "00ea": 3415,
      "00f0": 3416,
      "54f9": 3417,
      "dd50": 3418,
      "00ec": 3419,
      "00ce": 3420,
      "6650": 3421,
      "00e9": 3422,
      "012a": 3423,
      "2a50": 3424,
      "0230": 3425,
      "1450": 3426,
      "00dc": 3427,
      "7f80": 3428,
      "0d50": 3429,
      "00e7": 3430,
      "4250": 3431,
      "b850": 3432,
      "0650": 3433,
      "00c4": 3434,
      "2021": 3435,
      "00f8": 3436,
      "c7d4": 3437,
      "ab50": 3438,
      "b050": 3439,
      "a750": 3440,
      "010a": 3441,
      "29f5": 3442,
      "0a4e": 3443,
      "00d1": 3444,
      "9b80": 3445,
      "1091": 3446,
      "4a50": 3447,
      "5baa": 3448,
      "0299": 3449,
      "9750": 3450,
      "0a1b": 3451,
      "3350": 3452,
      "9b50": 3453,
      "8b80": 3454,
      "4d50": 3455,
      "8150": 3456,
      "00be": 3457,
      "00d9": 3458,
      "c450": 3459,
      "c750": 3460,
      "9850": 3461,
      "187a": 3462,
      "6d50": 3463,
      "8a50": 3464,
      "7250": 3465,
      "3c50": 3466,
      "7d50": 3467,
      "4597": 3468,
      "0a96": 3469,
      "a7b3": 3470,
      "dc50": 3471,
      "0a81": 3472,
      "1345": 3473,
      "d750": 3474,
      "a180": 3475,
      "0550": 3476,
      "5150": 3477,
      "22c0": 3478,
      "00d4": 3479,
      "102d": 3480,
      "cf16": 3481,
      "a250": 3482,
      "2650": 3483,
      "fe50": 3484,
      "e550": 3485,
      "6950": 3486,
      "0845": 3487,
      "00ee": 3488,
      "3450": 3489,
      "b650": 3490,
      "cb50": 3491,
      "7150": 3492,
      "be50": 3493,
      "bd50": 3494,
      "a550": 3495,
      "a150": 3496,
      "d950": 3497,
      "fd50": 3498,
      "f950": 3499,
      "3650": 3500,
      "d350": 3501,
      "ed50": 3502,
      "0850": 3503,
      "4619": 3504,
      "af50": 3505,
      "e20c": 3506,
      "8680": 3507,
      "ca50": 3508,
      "0a0f": 3509,
      "4f50": 3510,
      "6a50": 3511,
      "b350": 3512,
      "2e50": 3513,
      "6f80": 3514,
      "b550": 3515,
      "072e": 3516,
      "e650": 3517,
      "2269": 3518,
      "c850": 3519,
      "0b80": 3520,
      "085f": 3521,
      "b250": 3522,
      "a050": 3523,
      "5580": 3524,
      "0ad3": 3525,
      "1550": 3526,
      "fc50": 3527,
      "0c80": 3528,
      "05e6": 3529,
      "2150": 3530,
      "e850": 3531,
      "7780": 3532,
      "7b50": 3533,
      "7e50": 3534,
      "a6bc": 3535,
      "06c3": 3536,
      "0614": 3537,
      "1c9d": 3538,
      "3d81": 3539,
      "c350": 3540,
      "4780": 3541,
      "5b50": 3542,
      "3750": 3543,
      "037b": 3544,
      "0a46": 3545,
      "3e80": 3546,
      "5750": 3547,
      "d723": 3548,
      "05b2": 3549,
      "eb80": 3550,
      "d33a": 3551,
      "8011": 3552,
      "7eb5": 3553,
      "3150": 3554,
      "0a2a": 3555,
      "0be8": 3556,
      "3380": 3557,
      "10cb": 3558,
      "6850": 3559,
      "ed80": 3560,
      "a780": 3561,
      "8580": 3562,
      "1f50": 3563,
      "5d88": 3564,
      "1180": 3565,
      "0aec": 3566,
      "b680": 3567,
      "066e": 3568,
      "06f6": 3569,
      "a24f": 3570,
      "9150": 3571,
      "c550": 3572,
      "1050": 3573,
      "dc80": 3574,
      "9650": 3575,
      "7050": 3576,
      "0119": 3577,
      "7766": 3578,
      "1b80": 3579,
      "031f": 3580,
      "5550": 3581,
      "fb50": 3582,
      "02af": 3583,
      "bf50": 3584,
      "0c0f": 3585,
      "ca80": 3586,
      "7480": 3587,
      "0a83": 3588,
      "0b93": 3589,
      "01fe": 3590,
      "5250": 3591,
      "e750": 3592,
      "2680": 3593,
      "05c5": 3594,
      "5450": 3595,
      "5880": 3596,
      "2064": 3597,
      "102b": 3598,
      "1d50": 3599,
      "0113": 3600,
      "cec6": 3601,
      "0635": 3602,
      "de50": 3603,
      "f450": 3604,
      "3f50": 3605,
      "010e": 3606,
      "5f80": 3607,
      "0950": 3608,
      "6c50": 3609,
      "6150": 3610,
      "0a35": 3611,
      "0837": 3612,
      "f51a": 3613,
      "8180": 3614,
      "d95b": 3615,
      "1780": 3616,
      "896c": 3617,
      "896f": 3618,
      "7429": 3619,
      "a2ab": 3620,
      "af80": 3621,
      "f15c": 3622,
      "6380": 3623,
      "72bd": 3624,
      "0641": 3625,
      "1101": 3626,
      "b980": 3627,
      "2f80": 3628,
      "4150": 3629,
      "0180": 3630,
      "6f50": 3631,
      "8964": 3632,
      "4f77": 3633,
      "2450": 3634,
      "8367": 3635,
      "201a": 3636,
      "0580": 3637,
      "faa8": 3638,
      "9980": 3639,
      "8280": 3640,
      "10ca": 3641,
      "eb9f": 3642,
      "6980": 3643,
      "8976": 3644,
      "ac80": 3645,
      "2b50": 3646,
      "fb80": 3647,
      "0780": 3648,
      "df80": 3649,
      "3280": 3650,
      "7b80": 3651,
      "0318": 3652,
      "e174": 3653,
      "3a80": 3654,
      "2480": 3655,
      "1a6b": 3656,
      "5180": 3657,
      "b880": 3658,
      "030a": 3659,
      "cc80": 3660,
      "011b": 3661,
      "7180": 3662,
      "e380": 3663,
      "0116": 3664,
      "038a": 3665,
      "9cbf": 3666,
      "087e": 3667,
      "0680": 3668,
      "32aa": 3669,
      "b9a2": 3670,
      "ad80": 3671,
      "4387": 3672,
      "b080": 3673,
      "2280": 3674,
      "442e": 3675,
      "1a80": 3676,
      "c480": 3677,
      "fd80": 3678,
      "f880": 3679,
      "10d0": 3680,
      "a080": 3681,
      "2e26": 3682,
      "2980": 3683,
      "1021": 3684,
      "1280": 3685,
      "5004": 3686,
      "9d80": 3687,
      "1680": 3688,
      "0a54": 3689,
      "4c80": 3690,
      "0ab9": 3691,
      "9480": 3692,
      "895f": 3693,
      "8f80": 3694,
      "c280": 3695,
      "0a1e": 3696,
      "acf2": 3697,
      "f169": 3698,
      "f780": 3699,
      "2a80": 3700,
      "ce80": 3701,
      "d080": 3702,
      "4180": 3703,
      "db80": 3704,
      "080c": 3705,
      "0a22": 3706,
      "4880": 3707,
      "0f80": 3708,
      "9a80": 3709,
      "49ac": 3710,
      "f080": 3711,
      "8963": 3712,
      "2bbc": 3713,
      "ef80": 3714,
      "4980": 3715,
      "b280": 3716,
      "db50": 3717,
      "2380": 3718,
      "b580": 3719,
      "3980": 3720,
      "0807": 3721,
      "073f": 3722,
      "7280": 3723,
      "8979": 3724,
      "0280": 3725,
      "2580": 3726,
      "01fc": 3727,
      "0e80": 3728,
      "01a1": 3729,
      "5480": 3730,
      "1075": 3731,
      "229b": 3732,
      "8969": 3733,
      "3c80": 3734,
      "0380": 3735,
      "069b": 3736,
      "49da": 3737,
      "ae80": 3738,
      "f16a": 3739,
      "01fb": 3740,
      "5d80": 3741,
      "0485": 3742,
      "3b80": 3743,
      "3680": 3744,
      "6480": 3745,
      "1806": 3746,
      "a580": 3747,
      "0ae4": 3748,
      "d580": 3749,
      "0a0d": 3750,
      "7380": 3751,
      "0298": 3752,
      "1019": 3753,
      "017f": 3754,
      "cb80": 3755,
      "f170": 3756,
      "0205": 3757,
      "f16d": 3758,
      "5680": 3759,
      "3d80": 3760,
      "be80": 3761,
      "6880": 3762,
      "4a80": 3763,
      "285d": 3764,
      "25d3": 3765,
      "c380": 3766,
      "1580": 3767,
      "c580": 3768,
      "e980": 3769,
      "f380": 3770,
      "de80": 3771,
      "1226": 3772,
      "0405": 3773,
      "aa80": 3774,
      "f277": 3775,
      "2880": 3776,
      "1e80": 3777,
      "d680": 3778,
      "9f80": 3779,
      "f968": 3780,
      "5780": 3781,
      "d880": 3782,
      "0309": 3783,
      "8c80": 3784,
      "0d80": 3785,
      "6c80": 3786,
      "22a9": 3787,
      "01fd": 3788,
      "06c9": 3789,
      "454e": 3790,
      "1480": 3791,
      "e880": 3792,
      "0a44": 3793,
      "f980": 3794,
      "b780": 3795,
      "229c": 3796,
      "897c": 3797,
      "2080": 3798,
      "0104": 3799,
      "49a5": 3800,
      "2d80": 3801,
      "9780": 3802,
      "8971": 3803,
      "0179": 3804,
      "4080": 3805,
      "06cd": 3806,
      "c970": 3807,
      "4fa9": 3808,
      "4e80": 3809,
      "c780": 3810,
      "3480": 3811,
      "895c": 3812,
      "01f9": 3813,
      "10cf": 3814,
      "0a30": 3815,
      "e780": 3816,
      "8961": 3817,
      "9380": 3818,
      "8966": 3819,
      "c080": 3820,
      "103f": 3821,
      "e480": 3822,
      "6280": 3823,
      "028d": 3824,
      "8780": 3825,
      "f150": 3826,
      "0a2e": 3827,
      "4580": 3828,
      "10d1": 3829,
      "49a9": 3830,
      "10cd": 3831,
      "8968": 3832,
      "2b80": 3833,
      "9880": 3834,
      "0880": 3835,
      "1012": 3836,
      "bf80": 3837,
      "b480": 3838,
      "8480": 3839,
      "4b80": 3840,
      "4faa": 3841,
      "a8b7": 3842,
      "10c9": 3843,
      "10ce": 3844,
      "8974": 3845,
      "8970": 3846,
      "8965": 3847,
      "2c80": 3848,
      "0758": 3849,
      "a280": 3850,
      "0229": 3851,
      "102e": 3852,
      "a880": 3853,
      "896b": 3854,
      "4faf": 3855,
      "22a6": 3856,
      "3d6d": 3857,
      "8380": 3858,
      "6ec2": 3859,
      "e680": 3860,
      "6e80": 3861,
      "ab80": 3862,
      "3580": 3863,
      "da80": 3864,
      "1380": 3865,
      "b79d": 3866,
      "06e0": 3867,
      "bc80": 3868,
      "07e9": 3869,
      "022c": 3870,
      "ba8a": 3871,
      "5119": 3872,
      "ea80": 3873,
      "fe80": 3874,
      "0a47": 3875,
      "0a8c": 3876,
      "6d80": 3877,
      "895d": 3878,
      "8959": 3879,
      "7e80": 3880,
      "2538": 3881,
      "2289": 3882,
      "10c8": 3883,
      "0306": 3884,
      "102f": 3885,
      "6ebf": 3886,
      "49a6": 3887,
      "0e6d": 3888,
      "0a66": 3889,
      "4042": 3890,
      "a899": 3891,
      "6580": 3892,
      "9e80": 3893,
      "8080": 3894,
      "ee80": 3895,
      "7980": 3896,
      "22ac": 3897,
      "06cc": 3898,
      "5c80": 3899,
      "895b": 3900,
      "05c6": 3901,
      "896d": 3902,
      "bc97": 3903,
      "8977": 3904,
      "5080": 3905,
      "dd80": 3906,
      "e42d": 3907,
      "9280": 3908,
      "f16e": 3909,
      "228e": 3910,
      "6180": 3911,
      "ff80": 3912,
      "4280": 3913,
      "014b": 3914,
      "8960": 3915,
      "e080": 3916,
      "1f80": 3917,
      "e180": 3918,
      "9080": 3919,
      "ba8c": 3920,
      "896e": 3921,
      "8d80": 3922,
      "897d": 3923,
      "010b": 3924,
      "0a3f": 3925,
      "5280": 3926,
      "bd80": 3927,
      "5380": 3928,
      "03ff": 3929,
      "49ab": 3930,
      "7c80": 3931,
      "49ad": 3932,
      "1880": 3933,
      "c980": 3934,
      "70f1": 3935,
      "22a5": 3936,
      "9180": 3937,
      "a480": 3938,
      "2e80": 3939,
      "895a": 3940,
      "ba89": 3941,
      "10cc": 3942,
      "22ad": 3943,
      "897b": 3944,
      "8e80": 3945,
      "8975": 3946,
      "6eba": 3947,
      "0a23": 3948,
      "c180": 3949,
      "6003": 3950,
      "cf80": 3951,
      "3180": 3952,
      "01fa": 3953,
      "c7b2": 3954,
      "8978": 3955,
      "f51b": 3956,
      "22a7": 3957,
      "0980": 3958,
      "643b": 3959,
      "3080": 3960,
      "0480": 3961,
      "d722": 3962,
      "a980": 3963,
      "d380": 3964,
      "4380": 3965,
      "8967": 3966,
      "1980": 3967,
      "f16c": 3968,
      "f16b": 3969,
      "0a11": 3970,
      "49aa": 3971,
      "0184": 3972,
      "d352": 3973,
      "0a31": 3974,
      "9580": 3975,
      "b05d": 3976,
      "49a7": 3977,
      "f168": 3978,
      "e545": 3979,
      "9112": 3980,
      "8973": 3981,
      "2180": 3982,
      "0a33": 3983,
      "6eb6": 3984,
      "8a80": 3985,
      "6780": 3986,
      "d180": 3987,
      "4de2": 3988,
      "b20b": 3989,
      "c880": 3990,
      "0a41": 3991,
      "897e": 3992,
      "897a": 3993,
      "6ec0": 3994,
      "0ac2": 3995,
      "49a8": 3996,
      "22a8": 3997,
      "e617": 3998,
      "f171": 3999,
      "8962": 4000,
      "9782": 4001,
      "9680": 4002,
      "06ba": 4003,
      "6b80": 4004,
      "ad6f": 4005,
      "896a": 4006,
      "aae2": 4007,
      "0b49": 4008,
      "f180": 4009,
      "b180": 4010,
      "5ab9": 4011,
      "3f80": 4012,
      "e580": 4013,
      "5c6b": 4014,
      "0ac1": 4015,
      "101d": 4016,
      "fa80": 4017,
      "5e80": 4018,
      "7880": 4019,
      "6ebe": 4020,
      "1e03": 4021,
      "594b": 4022,
      "7080": 4023,
      "f480": 4024,
      "ee34": 4025,
      "f585": 4026,
      "fc80": 4027,
      "f16f": 4028,
      "0a3e": 4029,
      "6080": 4030,
      "22aa": 4031,
      "029d": 4032,
      "0414": 4033,
      "5b80": 4034,
      "8972": 4035,
      "02b8": 4036,
      "0a34": 4037,
      "1aaf": 4038,
      "9334": 4039,
      "7580": 4040,
      "d280": 4041,
      "d735": 4042,
      "0a27": 4043,
      "d780": 4044,
      "f680": 4045,
      "0162": 4046,
      "b71d": 4047,
      "a208": 4048,
      "d980": 4049,
      "ec80": 4050,
      "bc29": 4051,
      "03fd": 4052,
      "0a10": 4053,
      "4fb0": 4054,
      "c78d": 4055,
      "07ab": 4056,
      "0b3e": 4057,
      "895e": 4058,
      "3780": 4059,
      "e776": 4060,
      "ba8e": 4061,
      "101c": 4062,
      "ba87": 4063,
      "0a19": 4064,
      "6eb8": 4065,
      "05af": 4066,
      "6ebb": 4067,
      "4480": 4068,
      "9c80": 4069,
      "0307": 4070,
      "8980": 4071,
      "2234": 4072,
      "1df8": 4073,
      "254c": 4074,
      "6ebd": 4075,
      "7d99": 4076,
      "0723": 4077,
      "0aae": 4078,
      "b630": 4079,
      "4fb4": 4080,
      "058e": 4081,
      "be94": 4082,
      "6ec1": 4083,
      "0118": 4084,
      "228d": 4085,
      "292b": 4086,
      "0a21": 4087,
      "242e": 4088,
      "0fae": 4089,
      "6eb9": 4090,
      "e772": 4091,
      "e6a3": 4092,
      "0a3d": 4093,
      "a680": 4094,
      "1562": 4095,
      "0154": 4096,
      "0df8": 4097,
      "9331": 4098,
      "4680": 4099,
      "9644": 4100,
      "0a17": 4101,
      "4fb1": 4102,
      "66ff": 4103,
      "e280": 4104,
      "9335": 4105,
      "fe1d": 4106,
      "ba8d": 4107,
      "d6bc": 4108,
      "219e": 4109,
      "2287": 4110,
      "023e": 4111,
      "d480": 4112,
      "0a2f": 4113,
      "5128": 4114,
      "96f7": 4115,
      "1c80": 4116,
      "0e66": 4117,
      "a380": 4118,
      "0a42": 4119,
      "0a65": 4120,
      "502c": 4121,
      "92e0": 4122,
      "1a57": 4123,
      "f280": 4124,
      "03f1": 4125,
      "0128": 4126,
      "0e69": 4127,
      "1ab1": 4128,
      "78fe": 4129,
      "0a8e": 4130,
      "10c7": 4131,
      "653d": 4132,
      "b76c": 4133,
      "03fe": 4134,
      "02ba": 4135,
      "228c": 4136,
      "020a": 4137,
      "b724": 4138,
      "1d80": 4139,
      "0af5": 4140,
      "ba86": 4141,
      "2029": 4142,
      "e4ff": 4143,
      "6eb5": 4144,
      "0aa5": 4145,
      "0a5d": 4146,
      "1ab0": 4147,
      "0a40": 4148,
      "b3e1": 4149,
      "0597": 4150,
      "3880": 4151,
      "7d80": 4152,
      "cd80": 4153,
      "26c7": 4154,
      "65bb": 4155,
      "2307": 4156,
      "12a7": 4157,
      "668d": 4158,
      "1ab3": 4159,
      "b71e": 4160,
      "2231": 4161,
      "2780": 4162,
      "0a2d": 4163,
      "829b": 4164,
      "22ab": 4165,
      "0451": 4166,
      "c680": 4167,
      "3e85": 4168,
      "1aa9": 4169,
      "7680": 4170,
      "0a68": 4171,
      "016d": 4172,
      "0e65": 4173,
      "6ec3": 4174,
      "3e17": 4175,
      "0aff": 4176,
      "0e6c": 4177,
      "0133": 4178,
      "8880": 4179,
      "b702": 4180,
      "6ec4": 4181,
      "0204": 4182,
      "2f53": 4183,
      "0e99": 4184,
      "ba80": 4185,
      "f278": 4186,
      "0ab3": 4187,
      "932d": 4188,
      "5a80": 4189,
      "1ab5": 4190,
      "50e2": 4191,
      "3cb8": 4192,
      "b7d4": 4193,
      "6601": 4194,
      "0ae7": 4195,
      "b860": 4196,
      "8512": 4197,
      "0a1d": 4198,
      "037f": 4199,
      "229d": 4200,
      "6647": 4201,
      "516e": 4202,
      "7423": 4203,
      "ba88": 4204,
      "2ae2": 4205,
      "3787": 4206,
      "0441": 4207,
      "06d3": 4208,
      "0a9b": 4209,
      "0a85": 4210,
      "2bbd": 4211,
      "e58b": 4212,
      "b6bc": 4213,
      "b8a6": 4214,
      "e4b9": 4215,
      "5b9c": 4216,
      "e65d": 4217,
      "101b": 4218,
      "d34b": 4219,
      "0219": 4220,
      "99c6": 4221,
      "0a12": 4222,
      "142e": 4223,
      "b55e": 4224,
      "1a60": 4225,
      "077e": 4226,
      "b518": 4227,
      "023a": 4228,
      "4fb5": 4229,
      "0afe": 4230,
      "2286": 4231,
      "2014": 4232,
      "beec": 4233,
      "3a39": 4234,
      "0a3b": 4235,
      "1048": 4236,
      "6eb7": 4237,
      "0209": 4238,
      "2e31": 4239,
      "06a9": 4240,
      "0a6e": 4241,
      "027d": 4242,
      "e6e9": 4243,
      "64e9": 4244,
      "b720": 4245,
      "ba8b": 4246,
      "0a67": 4247,
      "e473": 4248,
      "6ebc": 4249,
      "b748": 4250,
      "f172": 4251,
      "bb80": 4252,
      "bb58": 4253,
      "013e": 4254,
      "228a": 4255,
      "0bb2": 4256,
      "8e27": 4257,
      "70a5": 4258,
      "9330": 4259,
      "4fac": 4260,
      "b81a": 4261,
      "6640": 4262,
      "4fad": 4263,
      "47e8": 4264,
      "b676": 4265,
      "0525": 4266,
      "1ab2": 4267,
      "38c9": 4268,
      "4fb2": 4269,
      "0aba": 4270,
      "b5ea": 4271,
      "e5d1": 4272,
      "1aaa": 4273,
      "5be2": 4274,
      "0430": 4275,
      "83ea": 4276,
      "b054": 4277,
      "0a24": 4278,
      "0a36": 4279,
      "1c9c": 4280,
      "1aae": 4281,
      "2294": 4282,
      "8364": 4283,
      "0a2c": 4284,
      "22e5": 4285,
      "f5d9": 4286,
      "5240": 4287,
      "1024": 4288,
      "304c": 4289,
      "0ab2": 4290,
      "0a1a": 4291,
      "ac99": 4292,
      "b723": 4293,
      "652f": 4294,
      "0112": 4295,
      "8e56": 4296,
      "0224": 4297,
      "2288": 4298,
      "a925": 4299,
      "5b56": 4300,
      "51b4": 4301,
      "023f": 4302,
      "51b0": 4303,
      "4fb3": 4304,
      "b5a4": 4305,
      "0acc": 4306,
      "66b5": 4307,
      "5cc2": 4308,
      "658a": 4309,
      "0432": 4310,
      "953d": 4311,
      "0a13": 4312,
      "0e67": 4313,
      "10d8": 4314,
      "02a7": 4315,
      "bb01": 4316,
      "c6cc": 4317,
      "2011": 4318,
      "9b96": 4319,
      "1da8": 4320,
      "1ecc": 4321,
      "0ad7": 4322,
      "b9b0": 4323,
      "22b5": 4324,
      "0ab8": 4325,
      "0a4a": 4326,
      "222d": 4327,
      "030e": 4328,
      "04a9": 4329,
      "0399": 4330,
      "fd9d": 4331,
      "23b1": 4332,
      "abbe": 4333,
      "221d": 4334,
      "591e": 4335,
      "c433": 4336,
      "07d2": 4337,
      "e0af": 4338,
      "92e1": 4339,
      "0a61": 4340,
      "ea60": 4341,
      "d7a1": 4342,
      "0ace": 4343,
      "1877": 4344,
      "09f3": 4345,
      "0a26": 4346,
      "0d69": 4347,
      "0e6e": 4348,
      "0a9f": 4349,
      "1aad": 4350,
      "1046": 4351,
      "0abf": 4352,
      "0d36": 4353,
      "6cb5": 4354,
      "0ffb": 4355,
      "31bd": 4356,
      "20e4": 4357,
      "0e6a": 4358,
      "69d0": 4359,
      "173e": 4360,
      "0a72": 4361,
      "0a1c": 4362,
      "5eda": 4363,
      "0a1f": 4364,
      "e0ad": 4365,
      "0e1f": 4366,
      "9333": 4367,
      "1b3e": 4368,
      "1051": 4369,
      "5da3": 4370,
      "2235": 4371,
      "932e": 4372,
      "4488": 4373,
      "d895": 4374,
      "0a16": 4375,
      "0ac3": 4376,
      "0aac": 4377,
      "0a29": 4378,
      "101e": 4379,
      "6f48": 4380,
      "9643": 4381,
      "dcb7": 4382,
      "017d": 4383,
      "9d91": 4384,
      "aef9": 4385,
      "0a2b": 4386,
      "0125": 4387,
      "0aa7": 4388,
      "44e6": 4389,
      "feff": 4390,
      "024e": 4391,
      "0acd": 4392,
      "84fe": 4393,
      "07d8": 4394,
      "f5a5": 4395,
      "03f0": 4396,
      "0a25": 4397,
      "5286": 4398,
      "079e": 4399,
      "c1a2": 4400,
      "3dc2": 4401,
      "0a69": 4402,
      "686a": 4403,
      "0524": 4404,
      "7eb6": 4405,
      "153d": 4406,
      "b923": 4407,
      "1807": 4408,
      "08d9": 4409,
      "694a": 4410,
      "6e2e": 4411,
      "0a28": 4412,
      "0ab0": 4413,
      "51fa": 4414,
      "0172": 4415,
      "09e2": 4416,
      "4917": 4417,
      "0a6a": 4418,
      "0a6d": 4419,
      "932f": 4420,
      "65e3": 4421,
      "0a70": 4422,
      "4fab": 4423,
      "b722": 4424,
      "030d": 4425,
      "0a45": 4426,
      "0aad": 4427,
      "2f31": 4428,
      "0c1f": 4429,
      "f5f3": 4430,
      "3b4b": 4431,
      "fe4a": 4432,
      "0274": 4433,
      "0a90": 4434,
      "01d7": 4435,
      "9f9b": 4436,
      "208d": 4437,
      "01d9": 4438,
      "0131": 4439,
      "35fe": 4440,
      "3dbe": 4441,
      "5dfa": 4442,
      "f98d": 4443,
      "024d": 4444,
      "0719": 4445,
      "0122": 4446,
      "0174": 4447,
      "f555": 4448,
      "0ab6": 4449,
      "02ef": 4450,
      "0ade": 4451,
      "0dd1": 4452,
      "0a14": 4453,
      "0146": 4454,
      "977a": 4455,
      "0228": 4456,
      "24f2": 4457,
      "0a37": 4458,
      "0aeb": 4459,
      "0ac0": 4460,
      "1e17": 4461,
      "0a43": 4462,
      "0683": 4463,
      "0a8d": 4464,
      "0af6": 4465,
      "1eb1": 4466,
      "6625": 4467,
      "6a60": 4468,
      "6706": 4469,
      "abbf": 4470,
      "a187": 4471,
      "9cef": 4472,
      "0e68": 4473,
      "0121": 4474,
      "222e": 4475,
      "0ad8": 4476,
      "0ac4": 4477,
      "02e0": 4478,
      "1964": 4479,
      "1a9a": 4480,
      "0a6b": 4481,
      "ac17": 4482,
      "0a39": 4483,
      "922e": 4484,
      "0123": 4485,
      "0251": 4486,
      "b71f": 4487,
      "45e3": 4488,
      "f50e": 4489,
      "a876": 4490,
      "1822": 4491,
      "204f": 4492,
      "0319": 4493,
      "66ad": 4494,
      "0979": 4495,
      "1a01": 4496,
      "a269": 4497,
      "1108": 4498,
      "03ac": 4499,
      "0a64": 4500,
      "4062": 4501,
      "04ee": 4502,
      "012c": 4503,
      "b7e0": 4504,
      "07f7": 4505,
      "2371": 4506,
      "b78e": 4507,
      "0135": 4508,
      "38cd": 4509,
      "f617": 4510,
      "afd0": 4511,
      "eb88": 4512,
      "4010": 4513,
      "0207": 4514,
      "b726": 4515,
      "d789": 4516,
      "17fd": 4517,
      "4a8f": 4518,
      "b71b": 4519,
      "0806": 4520,
      "f5ce": 4521,
      "c53f": 4522,
      "020c": 4523,
      "2358": 4524,
      "1102": 4525,
      "0238": 4526,
      "ea38": 4527,
      "0a7d": 4528,
      "3c76": 4529,
      "013d": 4530,
      "312e": 4531,
      "2224": 4532,
      "01c8": 4533,
      "f5d4": 4534,
      "0b6e": 4535,
      "0fe9": 4536,
      "b79f": 4537,
      "0a9e": 4538,
      "059e": 4539,
      "ec40": 4540,
      "f5c0": 4541,
      "0a78": 4542,
      "025d": 4543,
      "f5e0": 4544,
      "103c": 4545,
      "0311": 4546,
      "0a79": 4547,
      "0833": 4548,
      "0aca": 4549,
      "1027": 4550,
      "f118": 4551,
      "3d78": 4552,
      "2165": 4553,
      "f5b0": 4554,
      "1aac": 4555,
      "f5e7": 4556,
      "1017": 4557,
      "01df": 4558,
      "e8ef": 4559,
      "02ae": 4560,
      "9332": 4561,
      "0acb": 4562,
      "f5d7": 4563,
      "c1b6": 4564,
      "f5de": 4565,
      "09e5": 4566,
      "1e60": 4567,
      "0361": 4568,
      "7c03": 4569,
      "ef04": 4570,
      "8286": 4571,
      "0173": 4572,
      "8002": 4573,
      "0aaf": 4574,
      "1d52": 4575,
      "f58d": 4576,
      "228b": 4577,
      "dd40": 4578,
      "0a9c": 4579,
      "4fae": 4580,
      "02a6": 4581,
      "2039": 4582,
      "e0ae": 4583,
      "0141": 4584,
      "6575": 4585,
      "d6b8": 4586,
      "f581": 4587,
      "ad17": 4588,
      "d98e": 4589,
      "46fc": 4590,
      "85ed": 4591,
      "0a6f": 4592,
      "31ed": 4593,
      "0c08": 4594,
      "01eb": 4595,
      "f5d2": 4596,
      "0335": 4597,
      "1d66": 4598,
      "0170": 4599,
      "0810": 4600,
      "1a77": 4601,
      "3523": 4602,
      "f5c9": 4603,
      "b1a7": 4604,
      "d6b4": 4605,
      "11c7": 4606,
      "eb95": 4607,
      "92de": 4608,
      "f58a": 4609,
      "4501": 4610,
      "2c11": 4611,
      "6d08": 4612,
      "6553": 4613,
      "0ef4": 4614,
      "0e70": 4615,
      "07c9": 4616,
      "5c28": 4617,
      "0a20": 4618,
      "f5ae": 4619,
      "f5c6": 4620,
      "70e0": 4621,
      "f5e3": 4622,
      "f5aa": 4623,
      "1013": 4624,
      "6c1d": 4625,
      "1b3d": 4626,
      "6002": 4627,
      "2293": 4628,
      "0142": 4629,
      "0a7f": 4630,
      "f501": 4631,
      "056b": 4632,
      "0a58": 4633,
      "0e6b": 4634,
      "62f8": 4635,
      "0317": 4636,
      "1820": 4637,
      "f5ad": 4638,
      "f5e8": 4639,
      "6695": 4640,
      "b5b6": 4641,
      "f517": 4642,
      "f5f8": 4643,
      "1a46": 4644,
      "1f21": 4645,
      "5b5c": 4646,
      "2230": 4647,
      "03fb": 4648,
      "0139": 4649,
      "18ff": 4650,
      "7c28": 4651,
      "0932": 4652,
      "f5fd": 4653,
      "03b1": 4654,
      "310d": 4655,
      "80af": 4656,
      "0a73": 4657,
      "ec3b": 4658,
      "1029": 4659,
      "f5a0": 4660,
      "0af1": 4661,
      "f5fa": 4662,
      "0c06": 4663,
      "7417": 4664,
      "030f": 4665,
      "a301": 4666,
      "8c6e": 4667,
      "0a55": 4668,
      "f5b3": 4669,
      "0ab1": 4670,
      "f5ff": 4671,
      "f582": 4672,
      "6262": 4673,
      "088d": 4674,
      "0a6c": 4675,
      "4fa8": 4676,
      "9607": 4677,
      "02c1": 4678,
      "b71c": 4679,
      "0217": 4680,
      "0a8b": 4681,
      "231e": 4682,
      "618c": 4683,
      "e3f6": 4684,
      "f5da": 4685,
      "f5ab": 4686,
      "ada3": 4687,
      "8e17": 4688,
      "203f": 4689,
      "0a5c": 4690,
      "9b99": 4691,
      "f5d0": 4692,
      "9670": 4693,
      "0c09": 4694,
      "05a3": 4695,
      "0a57": 4696,
      "6b96": 4697,
      "92e2": 4698,
      "f5a6": 4699,
      "3472": 4700,
      "f59f": 4701,
      "2267": 4702,
      "8177": 4703,
      "fd9e": 4704,
      "880b": 4705,
      "02df": 4706,
      "f52d": 4707,
      "f58b": 4708,
      "07e4": 4709,
      "1f5c": 4710,
      "0a3a": 4711,
      "6935": 4712,
      "1ab4": 4713,
      "527c": 4714,
      "0315": 4715,
      "d51a": 4716,
      "f596": 4717,
      "f50c": 4718,
      "0e6f": 4719,
      "018f": 4720,
      "2266": 4721,
      "7e58": 4722,
      "aa60": 4723,
      "1d0b": 4724,
      "bc2e": 4725,
      "6c5a": 4726,
      "7d65": 4727,
      "0268": 4728,
      "0af8": 4729,
      "2233": 4730,
      "f57e": 4731,
      "0736": 4732,
      "f584": 4733,
      "053f": 4734,
      "ab87": 4735,
      "11c6": 4736,
      "3473": 4737,
      "b363": 4738,
      "0426": 4739,
      "2331": 4740,
      "1016": 4741,
      "0ac5": 4742,
      "f5fb": 4743,
      "b725": 4744,
      "29af": 4745,
      "f5f2": 4746,
      "f55a": 4747,
      "2232": 4748,
      "f5d3": 4749,
      "f5dc": 4750,
      "018b": 4751,
      "f57a": 4752,
      "f57b": 4753,
      "45b4": 4754,
      "f5a1": 4755,
      "416f": 4756,
      "f5f7": 4757,
      "71e0": 4758,
      "a9b1": 4759,
      "6d0c": 4760,
      "975f": 4761,
      "4533": 4762,
      "0ad5": 4763,
      "dac9": 4764,
      "1d7a": 4765,
      "0a87": 4766,
      "f5fc": 4767,
      "1abd": 4768,
      "162d": 4769,
      "f548": 4770,
      "0c13": 4771,
      "2335": 4772,
      "1022": 4773,
      "eb9c": 4774,
      "8269": 4775,
      "0239": 4776,
      "d7a0": 4777,
      "0a9d": 4778,
      "ab0f": 4779,
      "c06e": 4780,
      "1ef4": 4781,
      "22b7": 4782,
      "0ac7": 4783,
      "7feb": 4784,
      "e73b": 4785,
      "0107": 4786,
      "b5aa": 4787,
      "9567": 4788,
      "f5ef": 4789,
      "c6fd": 4790,
      "fd28": 4791,
      "74c6": 4792,
      "996e": 4793,
      "911a": 4794,
      "d6b9": 4795,
      "f57d": 4796,
      "01bd": 4797,
      "09dd": 4798,
      "f5f0": 4799,
      "22ba": 4800,
      "d768": 4801,
      "0237": 4802,
      "8da6": 4803,
      "ba5b": 4804,
      "f508": 4805,
      "4033": 4806,
      "093f": 4807,
      "5cb6": 4808,
      "85e0": 4809,
      "fcd0": 4810,
      "f58f": 4811,
      "f5e1": 4812,
      "0a76": 4813,
      "f5bd": 4814,
      "1096": 4815,
      "f5cf": 4816,
      "9406": 4817,
      "d5ae": 4818,
      "e2a0": 4819,
      "0aa1": 4820,
      "b91c": 4821,
      "bdb7": 4822,
      "d6b7": 4823,
      "87d8": 4824,
      "f5db": 4825,
      "24c1": 4826,
      "a8ef": 4827,
      "baa1": 4828,
      "016f": 4829,
      "628a": 4830,
      "478f": 4831,
      "0ba6": 4832,
      "c178": 4833,
      "1dc1": 4834,
      "027f": 4835,
      "0aab": 4836,
      "a9d4": 4837,
      "f5ba": 4838,
      "1821": 4839,
      "2a17": 4840,
      "0ac9": 4841,
      "81c1": 4842,
      "0316": 4843,
      "0637": 4844,
      "f5dd": 4845,
      "0314": 4846,
      "3038": 4847,
      "264f": 4848,
      "8224": 4849,
      "65de": 4850,
      "4a3b": 4851,
      "0a52": 4852,
      "f576": 4853,
      "d6b2": 4854,
      "f573": 4855,
      "f5b8": 4856,
      "6a5f": 4857,
      "0171": 4858,
      "0ae5": 4859,
      "6508": 4860,
      "f5d1": 4861,
      "f543": 4862,
      "4053": 4863,
      "01f3": 4864,
      "78e0": 4865,
      "f510": 4866,
      "b31f": 4867,
      "4443": 4868,
      "aaec": 4869,
      "9d01": 4870,
      "01e7": 4871,
      "0bd5": 4872,
      "03ab": 4873,
      "7790": 4874,
      "09ea": 4875,
      "379a": 4876,
      "f583": 4877,
      "3a1a": 4878,
      "b5fd": 4879,
      "7549": 4880,
      "f5bc": 4881,
      "b997": 4882,
      "104c": 4883,
      "f5c2": 4884,
      "f57f": 4885,
      "0aa9": 4886,
      "0111": 4887,
      "08ba": 4888,
      "b084": 4889,
      "e84b": 4890,
      "83e0": 4891,
      "3417": 4892,
      "8a62": 4893,
      "665c": 4894,
      "f5e9": 4895,
      "9f17": 4896,
      "f59c": 4897,
      "a917": 4898,
      "226c": 4899,
      "07c3": 4900,
      "0a18": 4901,
      "f7ac": 4902,
      "28e0": 4903,
      "f586": 4904,
      "90f6": 4905,
      "12bb": 4906,
      "f5b1": 4907,
      "3517": 4908,
      "f5d5": 4909,
      "156a": 4910,
      "232c": 4911,
      "c014": 4912,
      "0fb3": 4913,
      "6d25": 4914,
      "0329": 4915,
      "efe0": 4916,
      "0abd": 4917,
      "f7c0": 4918,
      "fe59": 4919,
      "f56a": 4920,
      "f5bf": 4921,
      "8ea6": 4922,
      "024b": 4923,
      "417b": 4924,
      "ade0": 4925,
      "549c": 4926,
      "f5e4": 4927,
      "d4f6": 4928,
      "0aee": 4929,
      "d6b3": 4930,
      "0ef5": 4931,
      "22be": 4932,
      "f5b4": 4933,
      "c0e0": 4934,
      "2265": 4935,
      "016b": 4936,
      "33ec": 4937,
      "f58e": 4938,
      "4892": 4939,
      "f5c1": 4940,
      "23b7": 4941,
      "b78b": 4942,
      "f5eb": 4943,
      "0cee": 4944,
      "f59b": 4945,
      "a8e8": 4946,
      "f5a8": 4947,
      "f5ed": 4948,
      "23ac": 4949,
      "a5fb": 4950,
      "3b41": 4951,
      "f5fe": 4952,
      "0a5b": 4953,
      "6df0": 4954,
      "f589": 4955,
      "f592": 4956,
      "f5a7": 4957,
      "019b": 4958,
      "d6b5": 4959,
      "3d07": 4960,
      "f5d6": 4961,
      "d49c": 4962,
      "35f7": 4963,
      "6854": 4964,
      "1e64": 4965,
      "0a89": 4966,
      "2f71": 4967,
      "f5af": 4968,
      "02d5": 4969,
      "0a51": 4970,
      "a048": 4971,
      "09e6": 4972,
      "021f": 4973,
      "49a4": 4974,
      "032b": 4975,
      "1a89": 4976,
      "b848": 4977,
      "0e9d": 4978,
      "2328": 4979,
      "1f81": 4980,
      "897f": 4981,
      "b9bf": 4982,
      "018d": 4983,
      "f5c7": 4984,
      "d6b1": 4985,
      "1734": 4986,
      "502f": 4987,
      "c5f0": 4988,
      "2aea": 4989,
      "4367": 4990,
      "05c0": 4991,
      "f504": 4992,
      "b9c9": 4993,
      "f554": 4994,
      "999b": 4995,
      "f5e5": 4996,
      "0a95": 4997,
      "0110": 4998,
      "f588": 4999,
      "9c76": 5000,
      "d89f": 5001,
      "0ae0": 5002,
      "f572": 5003,
      "c5f6": 5004,
      "0aaa": 5005,
      "adf3": 5006,
      "aa3d": 5007,
      "bb0b": 5008,
      "2368": 5009,
      "f60f": 5010,
      "12a9": 5011,
      "09c5": 5012,
      "8328": 5013,
      "6990": 5014,
      "0220": 5015,
      "12ad": 5016,
      "b101": 5017,
      "42c4": 5018,
      "0ac8": 5019,
      "3bc9": 5020,
      "1d58": 5021,
      "f8e0": 5022,
      "f52b": 5023,
      "0a49": 5024,
      "f5cd": 5025,
      "02a8": 5026,
      "2274": 5027,
      "37cf": 5028,
      "0c0a": 5029,
      "462f": 5030,
      "341e": 5031,
      "5d87": 5032,
      "4517": 5033,
      "0115": 5034,
      "01f6": 5035,
      "c2e0": 5036,
      "1748": 5037,
      "f558": 5038,
      "f59a": 5039,
      "92df": 5040,
      "22c2": 5041,
      "5bab": 5042,
      "229a": 5043,
      "7b05": 5044,
      "3524": 5045,
      "1a63": 5046,
      "d7f9": 5047,
      "f5be": 5048,
      "f58c": 5049,
      "c1e2": 5050,
      "32cb": 5051,
      "e145": 5052,
      "a603": 5053,
      "5da4": 5054,
      "7477": 5055,
      "1a07": 5056,
      "c0a1": 5057,
      "f597": 5058,
      "1a45": 5059,
      "281d": 5060,
      "b9ae": 5061,
      "f512": 5062,
      "689d": 5063,
      "04d9": 5064,
      "8a7a": 5065,
      "0328": 5066,
      "01f0": 5067,
      "50de": 5068,
      "021c": 5069,
      "f55f": 5070,
      "0226": 5071,
      "153c": 5072,
      "2bed": 5073,
      "0b3f": 5074,
      "7e8d": 5075,
      "9b9b": 5076,
      "0860": 5077,
      "0181": 5078,
      "9bb6": 5079,
      "0420": 5080,
      "f56f": 5081,
      "f590": 5082,
      "0afa": 5083,
      "0ad2": 5084,
      "02f4": 5085,
      "0a56": 5086,
      "f538": 5087,
      "0175": 5088,
      "3a17": 5089,
      "1327": 5090,
      "0ae2": 5091,
      "f5f9": 5092,
      "1a03": 5093,
      "cb19": 5094,
      "0501": 5095,
      "1e13": 5096,
      "3527": 5097,
      "0ab4": 5098,
      "6506": 5099,
      "1b03": 5100,
      "208e": 5101,
      "b4e0": 5102,
      "014f": 5103,
      "f5d8": 5104,
      "65df": 5105,
      "f5a2": 5106,
      "8017": 5107,
      "d8fc": 5108,
      "f577": 5109,
      "a6bb": 5110,
      "f50b": 5111,
      "011e": 5112,
      "b721": 5113,
      "1d9d": 5114,
      "07ff": 5115,
      "1717": 5116,
      "f565": 5117,
      "4178": 5118,
      "22bc": 5119,
      "5e94": 5120,
      "0a4c": 5121,
      "ee35": 5122,
      "f579": 5123,
      "bf9b": 5124,
      "339f": 5125,
      "02f1": 5126,
      "f5b5": 5127,
      "2e13": 5128,
      "f560": 5129,
      "7a89": 5130,
      "49df": 5131,
      "2277": 5132,
      "0188": 5133,
      "f5ac": 5134,
      "250c": 5135,
      "180a": 5136,
      "f6ed": 5137,
      "a4fa": 5138,
      "f5cc": 5139,
      "b9bb": 5140,
      "6ccf": 5141,
      "69bb": 5142,
      "540f": 5143,
      "2732": 5144,
      "d6b6": 5145,
      "f5ca": 5146,
      "1025": 5147,
      "5108": 5148,
      "f569": 5149,
      "f594": 5150,
      "92e3": 5151,
      "b3d6": 5152,
      "1817": 5153,
      "ada5": 5154,
      "b9a9": 5155,
      "1679": 5156,
      "2767": 5157,
      "029b": 5158,
      "0ae9": 5159,
      "0aa8": 5160,
      "3dbd": 5161,
      "01b2": 5162,
      "0222": 5163,
      "204d": 5164,
      "7777": 5165,
      "30e0": 5166,
      "d017": 5167,
      "c8b9": 5168,
      "b477": 5169,
      "f53c": 5170,
      "826f": 5171,
      "b243": 5172,
      "d46a": 5173,
      "f537": 5174,
      "3d79": 5175,
      "fd4b": 5176,
      "1d69": 5177,
      "086d": 5178,
      "4502": 5179,
      "0aea": 5180,
      "f5ec": 5181,
      "78b6": 5182,
      "22d5": 5183,
      "2eef": 5184,
      "0727": 5185,
      "f578": 5186,
      "4bc7": 5187,
      "98b1": 5188,
      "0e17": 5189,
      "66d3": 5190,
      "40e0": 5191,
      "f5e2": 5192,
      "0c07": 5193,
      "f506": 5194,
      "f57c": 5195,
      "0126": 5196,
      "3e11": 5197,
      "0a75": 5198,
      "09e9": 5199,
      "d469": 5200,
      "1a17": 5201,
      "3117": 5202,
      "03fc": 5203,
      "faf7": 5204,
      "1826": 5205,
      "f5ee": 5206,
      "f505": 5207,
      "6eae": 5208,
      "3a60": 5209,
      "0a60": 5210,
      "f527": 5211,
      "d6b0": 5212,
      "07fd": 5213,
      "3123": 5214,
      "e4e0": 5215,
      "18da": 5216,
      "4e18": 5217,
      "f5f1": 5218,
      "018a": 5219,
      "e7d9": 5220,
      "a134": 5221,
      "180b": 5222,
      "1cfb": 5223,
      "0adf": 5224,
      "8808": 5225,
      "bf17": 5226,
      "5c1d": 5227,
      "8e86": 5228,
      "0a84": 5229,
      "0270": 5230,
      "aa17": 5231,
      "b9e0": 5232,
      "f567": 5233,
      "18ee": 5234,
      "b017": 5235,
      "b154": 5236,
      "777b": 5237,
      "b18c": 5238,
      "0221": 5239,
      "f559": 5240,
      "f5f5": 5241,
      "66c5": 5242,
      "2eb2": 5243,
      "0388": 5244,
      "e0b0": 5245,
      "9b1d": 5246,
      "c266": 5247,
      "f5a4": 5248,
      "7867": 5249,
      "011f": 5250,
      "02d4": 5251,
      "ede0": 5252,
      "ce1b": 5253,
      "3106": 5254,
      "b8ec": 5255,
      "273b": 5256,
      "a774": 5257,
      "7b88": 5258,
      "32f8": 5259,
      "01c6": 5260,
      "f5bb": 5261,
      "829f": 5262,
      "bc9b": 5263,
      "f599": 5264,
      "ed5e": 5265,
      "8d49": 5266,
      "6f23": 5267,
      "328f": 5268,
      "12bc": 5269,
      "f5f6": 5270,
      "377d": 5271,
      "11b5": 5272,
      "6dc5": 5273,
      "aa83": 5274,
      "bf48": 5275,
      "085b": 5276,
      "0258": 5277,
      "1875": 5278,
      "2336": 5279,
      "c204": 5280,
      "abd3": 5281,
      "180c": 5282,
      "92dc": 5283,
      "68a3": 5284,
      "9945": 5285,
      "f503": 5286,
      "f516": 5287,
      "f5c4": 5288,
      "f593": 5289,
      "cd0f": 5290,
      "f531": 5291,
      "296c": 5292,
      "1a02": 5293,
      "4104": 5294,
      "5e41": 5295,
      "b7b5": 5296,
      "db56": 5297,
      "f535": 5298,
      "f519": 5299,
      "883c": 5300,
      "0ab5": 5301,
      "0856": 5302,
      "8f17": 5303,
      "22a4": 5304,
      "4702": 5305,
      "f591": 5306,
      "aa59": 5307,
      "bebc": 5308,
      "c317": 5309,
      "0abe": 5310,
      "07f4": 5311,
      "1908": 5312,
      "a4ee": 5313,
      "f5df": 5314,
      "ba85": 5315,
      "ba8f": 5316,
      "0409": 5317,
      "92dd": 5318,
      "b451": 5319,
      "3522": 5320,
      "f5c3": 5321,
      "c445": 5322,
      "0a92": 5323,
      "dba4": 5324,
      "de24": 5325,
      "f59d": 5326,
      "0803": 5327,
      "1026": 5328,
      "3ce4": 5329,
      "1b26": 5330,
      "5d35": 5331,
      "f528": 5332,
      "1917": 5333,
      "02a3": 5334,
      "8917": 5335,
      "f587": 5336,
      "0a7b": 5337,
      "fecd": 5338,
      "ef17": 5339,
      "50d0": 5340,
      "270a": 5341,
      "f56c": 5342,
      "3408": 5343,
      "a717": 5344,
      "78a3": 5345,
      "f562": 5346,
      "3617": 5347,
      "f5c5": 5348,
      "07fe": 5349,
      "f513": 5350,
      "5926": 5351,
      "a948": 5352,
      "9113": 5353,
      "f50f": 5354,
      "f540": 5355,
      "0973": 5356,
      "f556": 5357,
      "ef46": 5358,
      "f53f": 5359,
      "44dd": 5360,
      "92e6": 5361,
      "17f8": 5362,
      "f55c": 5363,
      "5317": 5364,
      "0a74": 5365,
      "7a43": 5366,
      "3501": 5367,
      "9d7b": 5368,
      "f552": 5369,
      "2827": 5370,
      "f542": 5371,
      "320e": 5372,
      "f5a9": 5373,
      "31e0": 5374,
      "8a5a": 5375,
      "0ad1": 5376,
      "f544": 5377,
      "02a5": 5378,
      "22b8": 5379,
      "b72f": 5380,
      "0211": 5381,
      "0afd": 5382,
      "f5f4": 5383,
      "a6e5": 5384,
      "bbf6": 5385,
      "0a9a": 5386,
      "014d": 5387,
      "7b8b": 5388,
      "025f": 5389,
      "f515": 5390,
      "c5e8": 5391,
      "088e": 5392,
      "0adb": 5393,
      "6572": 5394,
      "d519": 5395,
      "1547": 5396,
      "7808": 5397,
      "50ec": 5398,
      "b417": 5399,
      "a8bc": 5400,
      "8408": 5401,
      "103b": 5402,
      "4899": 5403,
      "f502": 5404,
      "eb8e": 5405,
      "f575": 5406,
      "87e7": 5407,
      "20a5": 5408,
      "6e32": 5409,
      "708c": 5410,
      "f51d": 5411,
      "f55d": 5412,
      "2c02": 5413,
      "8ea4": 5414,
      "059b": 5415,
      "671f": 5416,
      "961a": 5417,
      "0ae6": 5418,
      "09f0": 5419,
      "0a15": 5420,
      "6a1c": 5421,
      "6317": 5422,
      "30cc": 5423,
      "9b24": 5424,
      "09a7": 5425,
      "b345": 5426,
      "cce3": 5427,
      "0515": 5428,
      "0af2": 5429,
      "3f34": 5430,
      "795a": 5431,
      "bbbd": 5432,
      "f533": 5433,
      "cdd0": 5434,
      "0b47": 5435,
      "6a96": 5436,
      "5bc1": 5437,
      "d8b9": 5438,
      "5062": 5439,
      "b817": 5440,
      "c3c6": 5441,
      "f5b6": 5442,
      "9d8e": 5443,
      "3293": 5444,
      "3d91": 5445,
      "4417": 5446,
      "0247": 5447,
      "0851": 5448,
      "6066": 5449,
      "6832": 5450,
      "7aaf": 5451,
      "b9ad": 5452,
      "07e8": 5453,
      "0817": 5454,
      "015b": 5455,
      "3047": 5456,
      "8cde": 5457,
      "3d34": 5458,
      "1836": 5459,
      "06be": 5460,
      "e9c9": 5461,
      "1c84": 5462,
      "688c": 5463,
      "0afb": 5464,
      "bf02": 5465,
      "049d": 5466,
      "3d59": 5467,
      "2017": 5468,
      "351b": 5469,
      "f546": 5470,
      "444d": 5471,
      "8b37": 5472,
      "fc01": 5473,
      "3723": 5474,
      "20b7": 5475,
      "769b": 5476,
      "2e77": 5477,
      "01b1": 5478,
      "02fa": 5479,
      "b689": 5480,
      "f595": 5481,
      "1d3c": 5482,
      "f534": 5483,
      "2324": 5484,
      "a335": 5485,
      "f54e": 5486,
      "f59e": 5487,
      "e815": 5488,
      "228f": 5489,
      "12ba": 5490,
      "fcd7": 5491,
      "3a5e": 5492,
      "ddf9": 5493,
      "bedf": 5494,
      "f557": 5495,
      "2dfd": 5496,
      "0517": 5497,
      "f51e": 5498,
      "6117": 5499,
      "50cd": 5500,
      "e6ce": 5501,
      "cce5": 5502,
      "f55e": 5503,
      "1a35": 5504,
      "451d": 5505,
      "f5cb": 5506,
      "49e5": 5507,
      "3153": 5508,
      "ef6e": 5509,
      "9364": 5510,
      "f5c8": 5511,
      "059d": 5512,
      "10ad": 5513,
      "0868": 5514,
      "13a9": 5515,
      "41a8": 5516,
      "06c5": 5517,
      "91e0": 5518,
      "0a88": 5519,
      "f5b7": 5520,
      "873b": 5521,
      "04af": 5522,
      "ab17": 5523,
      "feb1": 5524,
      "04b5": 5525,
      "3799": 5526,
      "858d": 5527,
      "aa43": 5528,
      "ed79": 5529,
      "f5e6": 5530,
      "5347": 5531,
      "0ec8": 5532,
      "c4c8": 5533,
      "1c17": 5534,
      "448a": 5535,
      "ed08": 5536,
      "c1ef": 5537,
      "6507": 5538,
      "5717": 5539,
      "3d13": 5540,
      "f167": 5541,
      "033f": 5542,
      "7861": 5543,
      "c955": 5544,
      "229e": 5545,
      "c367": 5546,
      "513c": 5547,
      "0aa3": 5548,
      "5417": 5549,
      "4b5b": 5550,
      "9258": 5551,
      "8717": 5552,
      "0294": 5553,
      "6e90": 5554,
      "f564": 5555,
      "f532": 5556,
      "42a7": 5557,
      "0120": 5558,
      "0182": 5559,
      "f56d": 5560,
      "0617": 5561,
      "b9bc": 5562,
      "90e0": 5563,
      "2417": 5564,
      "675b": 5565,
      "f54a": 5566,
      "2093": 5567,
      "6f17": 5568,
      "3d77": 5569,
      "8d3f": 5570,
      "9119": 5571,
      "0244": 5572,
      "f574": 5573,
      "0161": 5574,
      "9c6e": 5575,
      "8d03": 5576,
      "f5b2": 5577,
      "f3e4": 5578,
      "0fe1": 5579,
      "585d": 5580,
      "9117": 5581,
      "01e0": 5582,
      "0ad9": 5583,
      "93fb": 5584,
      "1809": 5585,
      "1a05": 5586,
      "471e": 5587,
      "f536": 5588,
      "a965": 5589,
      "d217": 5590,
      "02b5": 5591,
      "b5e0": 5592,
      "79f8": 5593,
      "f52f": 5594,
      "259c": 5595,
      "bcc9": 5596,
      "5fe0": 5597,
      "77be": 5598,
      "a9a8": 5599,
      "489c": 5600,
      "c07c": 5601,
      "98ac": 5602,
      "3cf0": 5603,
      "e668": 5604,
      "1341": 5605,
      "f598": 5606,
      "0103": 5607,
      "0830": 5608,
      "352f": 5609,
      "3a5f": 5610,
      "4abd": 5611,
      "854d": 5612,
      "4507": 5613,
      "7903": 5614,
      "d0a1": 5615,
      "b517": 5616,
      "b949": 5617,
      "2395": 5618,
      "55a3": 5619,
      "4569": 5620,
      "85a7": 5621,
      "2323": 5622,
      "4508": 5623,
      "f5a3": 5624,
      "7d17": 5625,
      "057c": 5626,
      "dba8": 5627,
      "1b17": 5628,
      "0989": 5629,
      "0394": 5630,
      "09a6": 5631,
      "5048": 5632,
      "60b0": 5633,
      "f566": 5634,
      "0c34": 5635,
      "351a": 5636,
      "f524": 5637,
      "0955": 5638,
      "87d7": 5639,
      "6917": 5640,
      "66d8": 5641,
      "12b9": 5642,
      "f530": 5643,
      "f52a": 5644,
      "bb08": 5645,
      "07ee": 5646,
      "0158": 5647,
      "f549": 5648,
      "3e77": 5649,
      "0917": 5650,
      "86f3": 5651,
      "0a53": 5652,
      "1677": 5653,
      "3c8d": 5654,
      "1428": 5655,
      "d451": 5656,
      "03c0": 5657,
      "c245": 5658,
      "d008": 5659,
      "69ba": 5660,
      "6e83": 5661,
      "0b17": 5662,
      "daca": 5663,
      "5bba": 5664,
      "dba7": 5665,
      "0828": 5666,
      "61ab": 5667,
      "09d9": 5668,
      "b922": 5669,
      "5ad1": 5670,
      "0596": 5671,
      "1719": 5672,
      "0a63": 5673,
      "c637": 5674,
      "f547": 5675,
      "77b9": 5676,
      "849d": 5677,
      "d62d": 5678,
      "022d": 5679,
      "f514": 5680,
      "f529": 5681,
      "0a7c": 5682,
      "b9e7": 5683,
      "b00b": 5684,
      "9b4b": 5685,
      "0360": 5686,
      "180e": 5687,
      "95e0": 5688,
      "4001": 5689,
      "9e17": 5690,
      "7b86": 5691,
      "695c": 5692,
      "2bfe": 5693,
      "f1fa": 5694,
      "e629": 5695,
      "0fec": 5696,
      "2d31": 5697,
      "b4e5": 5698,
      "07de": 5699,
      "2917": 5700,
      "0a4f": 5701,
      "887a": 5702,
      "f51f": 5703,
      "b362": 5704,
      "0278": 5705,
      "1678": 5706,
      "796c": 5707,
      "1a2b": 5708,
      "9ccc": 5709,
      "c223": 5710,
      "7017": 5711,
      "f520": 5712,
      "b19c": 5713,
      "a1a4": 5714,
      "0a8a": 5715,
      "f51c": 5716,
      "0af3": 5717,
      "086b": 5718,
      "0267": 5719,
      "328b": 5720,
      "f545": 5721,
      "32c7": 5722,
      "1a04": 5723,
      "7617": 5724,
      "c2c7": 5725,
      "0eb1": 5726,
      "4efe": 5727,
      "eb94": 5728,
      "3217": 5729,
      "b9d5": 5730,
      "7bef": 5731,
      "2fa6": 5732,
      "7c4b": 5733,
      "f55b": 5734,
      "9a8d": 5735,
      "210f": 5736,
      "fe17": 5737,
      "02f7": 5738,
      "07cb": 5739,
      "5481": 5740,
      "4534": 5741,
      "8617": 5742,
      "68f4": 5743,
      "f525": 5744,
      "6f38": 5745,
      "012d": 5746,
      "b49d": 5747,
      "ab86": 5748,
      "1a2a": 5749,
      "0a71": 5750,
      "3b42": 5751,
      "6904": 5752,
      "93e7": 5753,
      "3ca4": 5754,
      "ce5a": 5755,
      "0259": 5756,
      "f52c": 5757,
      "d6c1": 5758,
      "5be4": 5759,
      "f4e3": 5760,
      "06f2": 5761,
      "6951": 5762,
      "1a4d": 5763,
      "3fe9": 5764,
      "0cef": 5765,
      "bc75": 5766,
      "4a17": 5767,
      "221e": 5768,
      "c24e": 5769,
      "2b78": 5770,
      "2e5e": 5771,
      "f568": 5772,
      "19ae": 5773,
      "1517": 5774,
      "92e7": 5775,
      "eb01": 5776,
      "0b3b": 5777,
      "22c3": 5778,
      "5848": 5779,
      "0386": 5780,
      "c7e0": 5781,
      "c013": 5782,
      "8b17": 5783,
      "6ba4": 5784,
      "47e0": 5785,
      "6d48": 5786,
      "f6b3": 5787,
      "f9e0": 5788,
      "f50a": 5789,
      "0c17": 5790,
      "4472": 5791,
      "8d15": 5792,
      "6a69": 5793,
      "1ac4": 5794,
      "1303": 5795,
      "1a55": 5796,
      "029c": 5797,
      "18b0": 5798,
      "3547": 5799,
      "9b9c": 5800,
      "f117": 5801,
      "0be0": 5802,
      "abe0": 5803,
      "f551": 5804,
      "f50d": 5805,
      "304a": 5806,
      "bc6a": 5807,
      "026f": 5808,
      "99ab": 5809,
      "1a49": 5810,
      "d1e0": 5811,
      "f511": 5812,
      "564e": 5813,
      "0c44": 5814,
      "04c0": 5815,
      "7a17": 5816,
      "01b0": 5817,
      "2f7b": 5818,
      "8d5f": 5819,
      "162c": 5820,
      "3476": 5821,
      "5817": 5822,
      "f54b": 5823,
      "f56e": 5824,
      "65d3": 5825,
      "5ea0": 5826,
      "f1f6": 5827,
      "8217": 5828,
      "06e8": 5829,
      "8eb5": 5830,
      "50e4": 5831,
      "9c24": 5832,
      "c4e0": 5833,
      "2ed9": 5834,
      "a9a9": 5835,
      "2211": 5836,
      "6e28": 5837,
      "ce92": 5838,
      "6954": 5839,
      "0f83": 5840,
      "64e0": 5841,
      "87d1": 5842,
      "a56c": 5843,
      "8eb8": 5844,
      "ae9f": 5845,
      "0313": 5846,
      "169e": 5847,
      "0ae3": 5848,
      "3dd2": 5849,
      "d9a9": 5850,
      "9817": 5851,
      "0a91": 5852,
      "4329": 5853,
      "75bb": 5854,
      "2d17": 5855,
      "09af": 5856,
      "290a": 5857,
      "4e1e": 5858,
      "12ac": 5859,
      "9b07": 5860,
      "ace5": 5861,
      "511d": 5862,
      "6f32": 5863,
      "0ce0": 5864,
      "0ced": 5865,
      "b9ba": 5866,
      "4577": 5867,
      "4f17": 5868,
      "4e68": 5869,
      "6674": 5870,
      "18ea": 5871,
      "3dbc": 5872,
      "9821": 5873,
      "0573": 5874,
      "189b": 5875,
      "d317": 5876,
      "c363": 5877,
      "2e17": 5878,
      "3526": 5879,
      "f561": 5880,
      "b364": 5881,
      "18cb": 5882,
      "4008": 5883,
      "f5b9": 5884,
      "50c0": 5885,
      "107f": 5886,
      "2b57": 5887,
      "2a2d": 5888,
      "f541": 5889,
      "cee6": 5890,
      "22bb": 5891,
      "27e0": 5892,
      "0489": 5893,
      "5edd": 5894,
      "1aa8": 5895,
      "6634": 5896,
      "220e": 5897,
      "3208": 5898,
      "c3ad": 5899,
      "88da": 5900,
      "509b": 5901,
      "f7dd": 5902,
      "6717": 5903,
      "3d7c": 5904,
      "c384": 5905,
      "69bc": 5906,
      "09b3": 5907,
      "18e0": 5908,
      "1db1": 5909,
      "77e0": 5910,
      "c8e0": 5911,
      "e017": 5912,
      "4512": 5913,
      "fff0": 5914,
      "452e": 5915,
      "1235": 5916,
      "83f0": 5917,
      "3e76": 5918,
      "fced": 5919,
      "349c": 5920,
      "3d17": 5921,
      "bac8": 5922,
      "6d47": 5923,
      "0730": 5924,
      "c5f4": 5925,
      "69e8": 5926,
      "f417": 5927,
      "083f": 5928,
      "f53e": 5929,
      "e0ac": 5930,
      "1531": 5931,
      "0176": 5932,
      "297c": 5933,
      "70f0": 5934,
      "349e": 5935,
      "2717": 5936,
      "1a25": 5937,
      "2ec7": 5938,
      "6f08": 5939,
      "cc17": 5940,
      "bb17": 5941,
      "6682": 5942,
      "50a0": 5943,
      "3017": 5944,
      "6a17": 5945,
      "6617": 5946,
      "a5e0": 5947,
      "50fa": 5948,
      "3045": 5949,
      "af1c": 5950,
      "5e37": 5951,
      "3dbb": 5952,
      "021b": 5953,
      "0a7e": 5954,
      "09e8": 5955,
      "92db": 5956,
      "b739": 5957,
      "db17": 5958,
      "c923": 5959,
      "f6fd": 5960,
      "9508": 5961,
      "f0e0": 5962,
      "6e64": 5963,
      "4ebb": 5964,
      "1835": 5965,
      "459c": 5966,
      "04e5": 5967,
      "02b2": 5968,
      "4b03": 5969,
      "9be0": 5970,
      "b835": 5971,
      "12c0": 5972,
      "2f01": 5973,
      "ebf4": 5974,
      "3108": 5975,
      "f3e0": 5976,
      "0fb0": 5977,
      "a4d0": 5978,
      "328c": 5979,
      "8117": 5980,
      "53c6": 5981,
      "41e0": 5982,
      "d4ec": 5983,
      "7825": 5984,
      "7776": 5985,
      "7789": 5986,
      "da9b": 5987,
      "0169": 5988,
      "f619": 5989,
      "2dc2": 5990,
      "9de0": 5991,
      "ec17": 5992,
      "d453": 5993,
      "6b97": 5994,
      "dd17": 5995,
      "488d": 5996,
      "031e": 5997,
      "6a4c": 5998,
      "aee0": 5999,
      "2708": 6000,
      "10d2": 6001,
      "efa6": 6002,
      "1289": 6003,
      "a26a": 6004,
      "7cd7": 6005,
      "be68": 6006,
      "0717": 6007,
      "0af0": 6008,
      "09e3": 6009,
      "46ea": 6010,
      "03a2": 6011,
      "2025": 6012,
      "0867": 6013,
      "1a3d": 6014,
      "2330": 6015,
      "c8b5": 6016,
      "3d16": 6017,
      "033e": 6018,
      "226e": 6019,
      "3c08": 6020,
      "b917": 6021,
      "192f": 6022,
      "3207": 6023,
      "3239": 6024,
      "9259": 6025,
      "722d": 6026,
      "0408": 6027,
      "31cd": 6028,
      "b3e0": 6029,
      "6eb4": 6030,
      "6417": 6031,
      "0213": 6032,
      "b365": 6033,
      "2ef8": 6034,
      "f553": 6035,
      "04b7": 6036,
      "de17": 6037,
      "9317": 6038,
      "09b1": 6039,
      "1388": 6040,
      "3389": 6041,
      "072a": 6042,
      "1ab6": 6043,
      "e67d": 6044,
      "c08b": 6045,
      "f570": 6046,
      "12bd": 6047,
      "1a06": 6048,
      "8eb6": 6049,
      "eb79": 6050,
      "e417": 6051,
      "28ab": 6052,
      "ace0": 6053,
      "1ec6": 6054,
      "f5ea": 6055,
      "227c": 6056,
      "0592": 6057,
      "7be0": 6058,
      "2f36": 6059,
      "2429": 6060,
      "07dd": 6061,
      "a8c0": 6062,
      "ed01": 6063,
      "63e0": 6064,
      "a017": 6065,
      "ffe2": 6066,
      "7c9d": 6067,
      "2e66": 6068,
      "be17": 6069,
      "4717": 6070,
      "ad54": 6071,
      "188c": 6072,
      "06c4": 6073,
      "4532": 6074,
      "01ed": 6075,
      "b77b": 6076,
      "013a": 6077,
      "017b": 6078,
      "0a7a": 6079,
      "01bc": 6080,
      "4272": 6081,
      "44e9": 6082,
      "c030": 6083,
      "9c22": 6084,
      "2e97": 6085,
      "3308": 6086,
      "0503": 6087,
      "4503": 6088,
      "9108": 6089,
      "5e2e": 6090,
      "222f": 6091,
      "2334": 6092,
      "0243": 6093,
      "02c6": 6094,
      "7c95": 6095,
      "4e17": 6096,
      "6910": 6097,
      "281c": 6098,
      "8642": 6099,
      "0326": 6100,
      "f522": 6101,
      "f539": 6102,
      "762f": 6103,
      "0236": 6104,
      "1cd3": 6105,
      "596e": 6106,
      "031b": 6107,
      "4617": 6108,
      "4542": 6109,
      "91ef": 6110,
      "9b17": 6111,
      "f571": 6112,
      "0266": 6113,
      "b566": 6114,
      "7338": 6115,
      "094e": 6116,
      "e503": 6117,
      "6f71": 6118,
      "9b60": 6119,
      "db7e": 6120,
      "352d": 6121,
      "e817": 6122,
      "c6f4": 6123,
      "fa28": 6124,
      "c5e7": 6125,
      "7501": 6126,
      "1ee0": 6127,
      "1a42": 6128,
      "23d3": 6129,
      "2201": 6130,
      "b533": 6131,
      "67c9": 6132,
      "2faa": 6133,
      "dfad": 6134,
      "ef4c": 6135,
      "653c": 6136,
      "3a35": 6137,
      "1ace": 6138,
      "89e5": 6139,
      "2f08": 6140,
      "65b6": 6141,
      "2c55": 6142,
      "7782": 6143,
      "015e": 6144,
      "435d": 6145,
      "12e0": 6146,
      "e275": 6147,
      "2a83": 6148,
      "343e": 6149,
      "44ff": 6150,
      "f53b": 6151,
      "c217": 6152,
      "2327": 6153,
      "0aef": 6154,
      "0ff7": 6155,
      "2333": 6156,
      "974d": 6157,
      "8fe0": 6158,
      "0f68": 6159,
      "6f39": 6160,
      "be24": 6161,
      "6517": 6162,
      "07f5": 6163,
      "92d6": 6164,
      "c5f1": 6165,
      "0a86": 6166,
      "081c": 6167,
      "b584": 6168,
      "c66d": 6169,
      "162e": 6170,
      "ee17": 6171,
      "089b": 6172,
      "92d4": 6173,
      "b5f5": 6174,
      "34fc": 6175,
      "6f01": 6176,
      "8b87": 6177,
      "f54f": 6178,
      "7601": 6179,
      "608a": 6180,
      "2c17": 6181,
      "9b6e": 6182,
      "b5ac": 6183,
      "b1db": 6184,
      "0288": 6185,
      "7331": 6186,
      "3e74": 6187,
      "a797": 6188,
      "db87": 6189,
      "f53d": 6190,
      "032c": 6191,
      "3e04": 6192,
      "4885": 6193,
      "2f17": 6194,
      "87a6": 6195,
      "6817": 6196,
      "45e0": 6197,
      "06e9": 6198,
      "1b28": 6199,
      "ea17": 6200,
      "0fad": 6201,
      "181d": 6202,
      "f563": 6203,
      "67cc": 6204,
      "350b": 6205,
      "6701": 6206,
      "c035": 6207,
      "171a": 6208,
      "9b87": 6209,
      "f61d": 6210,
      "b617": 6211,
      "017e": 6212,
      "320b": 6213,
      "2f35": 6214,
      "99a7": 6215,
      "1617": 6216,
      "0f08": 6217,
      "509c": 6218,
      "ae17": 6219,
      "69dc": 6220,
      "1cc7": 6221,
      "c02b": 6222,
      "8cb4": 6223,
      "4c46": 6224,
      "6e59": 6225,
      "47a2": 6226,
      "8639": 6227,
      "0271": 6228,
      "f601": 6229,
      "673d": 6230,
      "f523": 6231,
      "2553": 6232,
      "4fc0": 6233,
      "8e3c": 6234,
      "f56b": 6235,
      "f526": 6236,
      "0801": 6237,
      "5017": 6238,
      "9617": 6239,
      "65e0": 6240,
      "af17": 6241,
      "af1e": 6242,
      "05aa": 6243,
      "ac34": 6244,
      "f45b": 6245,
      "3b17": 6246,
      "da37": 6247,
      "0abc": 6248,
      "0a98": 6249,
      "3402": 6250,
      "b2be": 6251,
      "1069": 6252,
      "afa9": 6253,
      "c717": 6254,
      "bbb4": 6255,
      "d222": 6256,
      "4f71": 6257,
      "34d7": 6258,
      "d134": 6259,
      "c443": 6260,
      "acfb": 6261,
      "6017": 6262,
      "b78a": 6263,
      "777f": 6264,
      "5b35": 6265,
      "7817": 6266,
      "2117": 6267,
      "c017": 6268,
      "1fbe": 6269,
      "9c2f": 6270,
      "479e": 6271,
      "872a": 6272,
      "453b": 6273,
      "806a": 6274,
      "ae9c": 6275,
      "8b33": 6276,
      "084c": 6277,
      "71e7": 6278,
      "6a01": 6279,
      "a417": 6280,
      "0227": 6281,
      "d569": 6282,
      "3317": 6283,
      "0183": 6284,
      "73e0": 6285,
      "031c": 6286,
      "689b": 6287,
      "61e8": 6288,
      "0aa6": 6289,
      "12b6": 6290,
      "64fb": 6291,
      "890a": 6292,
      "d43b": 6293,
      "6297": 6294,
      "1635": 6295,
      "0333": 6296,
      "0193": 6297,
      "f521": 6298,
      "b9ac": 6299,
      "c34c": 6300,
      "3ea4": 6301,
      "d917": 6302,
      "19b0": 6303,
      "167a": 6304,
      "98e0": 6305,
      "b432": 6306,
      "ce17": 6307,
      "1aab": 6308,
      "d817": 6309,
      "0190": 6310,
      "b244": 6311,
      "f608": 6312,
      "0a94": 6313,
      "08a5": 6314,
      "45c6": 6315,
      "f301": 6316,
      "08e1": 6317,
      "2de0": 6318,
      "2eb0": 6319,
      "0137": 6320,
      "087a": 6321,
      "ae69": 6322,
      "0964": 6323,
      "c3b6": 6324,
      "a7e0": 6325,
      "b310": 6326,
      "a3ad": 6327,
      "88e0": 6328,
      "60d3": 6329,
      "bfca": 6330,
      "0528": 6331,
      "b55b": 6332,
      "3a30": 6333,
      "3d75": 6334,
      "62b7": 6335,
      "af0e": 6336,
      "60c1": 6337,
      "b476": 6338,
      "1434": 6339,
      "2d6c": 6340,
      "45ce": 6341,
      "b9c5": 6342,
      "4d5e": 6343,
      "e217": 6344,
      "f6eb": 6345,
      "3291": 6346,
      "6f93": 6347,
      "fc17": 6348,
      "1819": 6349,
      "e21b": 6350,
      "7317": 6351,
      "0144": 6352,
      "6bc7": 6353,
      "75e0": 6354,
      "0a99": 6355,
      "3203": 6356,
      "afcc": 6357,
      "d454": 6358,
      "2b17": 6359,
      "027c": 6360,
      "1626": 6361,
      "eb21": 6362,
      "0620": 6363,
      "7489": 6364,
      "4620": 6365,
      "09e4": 6366,
      "1847": 6367,
      "a306": 6368,
      "0508": 6369,
      "5b17": 6370,
      "1701": 6371,
      "cf24": 6372,
      "dc4d": 6373,
      "56c3": 6374,
      "0fff": 6375,
      "02b0": 6376,
      "2eb1": 6377,
      "64ea": 6378,
      "8e0f": 6379,
      "7f2c": 6380,
      "013c": 6381,
      "07b5": 6382,
      "23db": 6383,
      "7717": 6384,
      "dd3f": 6385,
      "3532": 6386,
      "c3a0": 6387,
      "b1ab": 6388,
      "0ad6": 6389,
      "f54c": 6390,
      "a9e0": 6391,
      "5408": 6392,
      "508c": 6393,
      "70f9": 6394,
      "9c28": 6395,
      "6e17": 6396,
      "c910": 6397,
      "0129": 6398,
      "8417": 6399,
      "2ed0": 6400,
      "4b56": 6401,
      "a833": 6402,
      "a168": 6403,
      "07ec": 6404,
      "2a09": 6405,
      "3187": 6406,
      "6c08": 6407,
      "fc85": 6408,
      "6568": 6409,
      "3bb5": 6410,
      "71c6": 6411,
      "f60a": 6412,
      "5066": 6413,
      "4017": 6414,
      "70cf": 6415,
      "3a2d": 6416,
      "1ab9": 6417,
      "1841": 6418,
      "a908": 6419,
      "1862": 6420,
      "022b": 6421,
      "f518": 6422,
      "231f": 6423,
      "02fd": 6424,
      "875b": 6425,
      "2167": 6426,
      "1ac1": 6427,
      "f801": 6428,
      "0c02": 6429,
      "02b7": 6430,
      "07e0": 6431,
      "0535": 6432,
      "83d3": 6433,
      "a881": 6434,
      "8f51": 6435,
      "aea0": 6436,
      "d1ac": 6437,
      "1a48": 6438,
      "4e45": 6439,
      "b401": 6440,
      "f60b": 6441,
      "eb17": 6442,
      "016e": 6443,
      "025b": 6444,
      "456e": 6445,
      "45fd": 6446,
      "89be": 6447,
      "88bd": 6448,
      "1104": 6449,
      "3d08": 6450,
      "2ce6": 6451,
      "7e17": 6452,
      "5e17": 6453,
      "bb1f": 6454,
      "6109": 6455,
      "7e35": 6456,
      "fb17": 6457,
      "fa17": 6458,
      "31ac": 6459,
      "c8b2": 6460,
      "a5ea": 6461,
      "2609": 6462,
      "2fe0": 6463,
      "dca0": 6464,
      "0106": 6465,
      "24e0": 6466,
      "f6ee": 6467,
      "7877": 6468,
      "f388": 6469,
      "80e6": 6470,
      "1d17": 6471,
      "1abb": 6472,
      "154c": 6473,
      "56f7": 6474,
      "1be0": 6475,
      "2c01": 6476,
      "2466": 6477,
      "777c": 6478,
      "5917": 6479,
      "09e7": 6480,
      "784e": 6481,
      "ba0d": 6482,
      "8066": 6483,
      "2028": 6484,
      "1031": 6485,
      "0458": 6486,
      "743b": 6487,
      "ab8f": 6488,
      "2d30": 6489,
      "7517": 6490,
      "184b": 6491,
      "18c7": 6492,
      "a008": 6493,
      "1299": 6494,
      "12bf": 6495,
      "777d": 6496,
      "80cc": 6497,
      "c860": 6498,
      "cbfe": 6499,
      "43e5": 6500,
      "a3d8": 6501,
      "f7e0": 6502,
      "8f21": 6503,
      "796d": 6504,
      "0804": 6505,
      "1a70": 6506,
      "68e0": 6507,
      "d9f5": 6508,
      "0f1c": 6509,
      "44dc": 6510,
      "7719": 6511,
      "dd39": 6512,
      "083d": 6513,
      "1a20": 6514,
      "22ae": 6515,
      "3211": 6516,
      "0af7": 6517,
      "92d9": 6518,
      "67e0": 6519,
      "7f17": 6520,
      "188e": 6521,
      "b954": 6522,
      "01ee": 6523,
      "9551": 6524,
      "8059": 6525,
      "1079": 6526,
      "2e67": 6527,
      "9d1a": 6528,
      "d812": 6529,
      "6974": 6530,
      "7c6a": 6531,
      "8ea9": 6532,
      "87da": 6533,
      "2831": 6534,
      "b8fc": 6535,
      "7778": 6536,
      "a4ed": 6537,
      "be5c": 6538,
      "dba3": 6539,
      "7da9": 6540,
      "5217": 6541,
      "01a7": 6542,
      "232d": 6543,
      "b346": 6544,
      "ff01": 6545,
      "3525": 6546,
      "1317": 6547,
      "18dc": 6548,
      "48b4": 6549,
      "a642": 6550,
      "7108": 6551,
      "b7a9": 6552,
      "8b89": 6553,
      "0346": 6554,
      "31f7": 6555,
      "5272": 6556,
      "cdb5": 6557,
      "bfee": 6558,
      "07d1": 6559,
      "019f": 6560,
      "0ae8": 6561,
      "56b5": 6562,
      "8bc4": 6563,
      "12be": 6564,
      "3dc3": 6565,
      "9b2c": 6566,
      "fd27": 6567,
      "696f": 6568,
      "ba23": 6569,
      "b2dc": 6570,
      "bb0a": 6571,
      "1fe0": 6572,
      "026c": 6573,
      "e917": 6574,
      "a117": 6575,
      "2dd3": 6576,
      "93e2": 6577,
      "ec9d": 6578,
      "d452": 6579,
      "0433": 6580,
      "e72e": 6581,
      "ad16": 6582,
      "6be0": 6583,
      "b408": 6584,
      "308d": 6585,
      "0290": 6586,
      "669b": 6587,
      "4117": 6588,
      "3e01": 6589,
      "0812": 6590,
      "7217": 6591,
      "a808": 6592,
      "22bf": 6593,
      "4e89": 6594,
      "881d": 6595,
      "4505": 6596,
      "3435": 6597,
      "e87a": 6598,
      "2223": 6599,
      "b58a": 6600,
      "b155": 6601,
      "3f7a": 6602,
      "9f2d": 6603,
      "6c17": 6604,
      "bd17": 6605,
      "3337": 6606,
      "56b2": 6607,
      "76f6": 6608,
      "dddc": 6609,
      "e008": 6610,
      "448b": 6611,
      "d47a": 6612,
      "9b9d": 6613,
      "4579": 6614,
      "2846": 6615,
      "2203": 6616,
      "2c03": 6617,
      "1a08": 6618,
      "1066": 6619,
      "60e0": 6620,
      "1417": 6621,
      "0e90": 6622,
      "01f2": 6623,
      "034a": 6624,
      "02fb": 6625,
      "11b2": 6626,
      "01a9": 6627,
      "4886": 6628,
      "ada6": 6629,
      "7c74": 6630,
      "3a61": 6631,
      "e5ce": 6632,
      "2bc0": 6633,
      "0fab": 6634,
      "078f": 6635,
      "ab31": 6636,
      "eb82": 6637,
      "7b33": 6638,
      "015d": 6639,
      "e117": 6640,
      "1872": 6641,
      "23c6": 6642,
      "05a6": 6643,
      "0ec7": 6644,
      "3f7c": 6645,
      "6e13": 6646,
      "aa1d": 6647,
      "5410": 6648,
      "63c1": 6649,
      "9b93": 6650,
      "9e0a": 6651,
      "a4c2": 6652,
      "2733": 6653,
      "ab88": 6654,
      "8d3c": 6655,
      "2317": 6656,
      "768f": 6657,
      "6b95": 6658,
      "3d88": 6659,
      "1813": 6660,
      "3530": 6661,
      "0148": 6662,
      "09b0": 6663,
      "8ab2": 6664,
      "f6fc": 6665,
      "fd08": 6666,
      "181c": 6667,
      "0330": 6668,
      "513b": 6669,
      "89b7": 6670,
      "32bf": 6671,
      "48ee": 6672,
      "bc8b": 6673,
      "dd10": 6674,
      "1920": 6675,
      "013b": 6676,
      "9b02": 6677,
      "50ef": 6678,
      "0468": 6679,
      "2734": 6680,
      "185d": 6681,
      "1a2d": 6682,
      "fbe0": 6683,
      "ffdf": 6684,
      "9c35": 6685,
      "679c": 6686,
      "a88c": 6687,
      "45c7": 6688,
      "3a42": 6689,
      "0256": 6690,
      "79f2": 6691,
      "ff17": 6692,
      "6c52": 6693,
      "5bdc": 6694,
      "bba5": 6695,
      "621c": 6696,
      "6dd7": 6697,
      "0b08": 6698,
      "23da": 6699,
      "71a9": 6700,
      "73ec": 6701,
      "ba09": 6702,
      "edb8": 6703,
      "e356": 6704,
      "80c4": 6705,
      "3e98": 6706,
      "eea5": 6707,
      "073b": 6708,
      "ab11": 6709,
      "02aa": 6710,
      "c8b6": 6711,
      "69dd": 6712,
      "71ee": 6713,
      "2c08": 6714,
      "cef1": 6715,
      "4edb": 6716,
      "6b11": 6717,
      "1232": 6718,
      "e120": 6719,
      "7ad5": 6720,
      "15e9": 6721,
      "f6f0": 6722,
      "b686": 6723,
      "d059": 6724,
      "cca2": 6725,
      "5ceb": 6726,
      "033a": 6727,
      "5517": 6728,
      "621b": 6729,
      "b317": 6730,
      "b242": 6731,
      "6303": 6732,
      "2801": 6733,
      "a906": 6734,
      "07aa": 6735,
      "0532": 6736,
      "7d35": 6737,
      "02a0": 6738,
      "0257": 6739,
      "4544": 6740,
      "18c9": 6741,
      "2e08": 6742,
      "8d40": 6743,
      "9e06": 6744,
      "bb05": 6745,
      "806d": 6746,
      "5ce0": 6747,
      "129b": 6748,
      "12c1": 6749,
      "e1fd": 6750,
      "0ec9": 6751,
      "12b4": 6752,
      "8203": 6753,
      "93e0": 6754,
      "7027": 6755,
      "0fd2": 6756,
      "1f17": 6757,
      "8c3d": 6758,
      "b89d": 6759,
      "03e9": 6760,
      "3d4d": 6761,
      "b222": 6762,
      "603c": 6763,
      "4f62": 6764,
      "6e3d": 6765,
      "1a18": 6766,
      "a508": 6767,
      "3f17": 6768,
      "4c17": 6769,
      "8517": 6770,
      "aa13": 6771,
      "221c": 6772,
      "2332": 6773,
      "45f6": 6774,
      "09bb": 6775,
      "224c": 6776,
      "0281": 6777,
      "9135": 6778,
      "45e6": 6779,
      "d345": 6780,
      "0bce": 6781,
      "0b7c": 6782,
      "6217": 6783,
      "0665": 6784,
      "b68e": 6785,
      "1ac7": 6786,
      "18b4": 6787,
      "2807": 6788,
      "3808": 6789,
      "6c66": 6790,
      "3c17": 6791,
      "67a6": 6792,
      "5b58": 6793,
      "c3b1": 6794,
      "a6c7": 6795,
      "cc84": 6796,
      "3493": 6797,
      "eb8a": 6798,
      "0210": 6799,
      "aad0": 6800,
      "777e": 6801,
      "0a8f": 6802,
      "1290": 6803,
      "7117": 6804,
      "0a77": 6805,
      "2eee": 6806,
      "6c71": 6807,
      "14e0": 6808,
      "4de7": 6809,
      "edaf": 6810,
      "483a": 6811,
      "2517": 6812,
      "f1f9": 6813,
      "6808": 6814,
      "480a": 6815,
      "0908": 6816,
      "0195": 6817,
      "3398": 6818,
      "870b": 6819,
      "1c12": 6820,
      "4510": 6821,
      "388e": 6822,
      "621d": 6823,
      "0167": 6824,
      "01b9": 6825,
      "7ad8": 6826,
      "1544": 6827,
      "8a04": 6828,
      "aa04": 6829,
      "24b7": 6830,
      "5d17": 6831,
      "4548": 6832,
      "8eb0": 6833,
      "abdc": 6834,
      "2d35": 6835,
      "b289": 6836,
      "26c6": 6837,
      "03dc": 6838,
      "1dba": 6839,
      "1dc9": 6840,
      "4506": 6841,
      "908b": 6842,
      "afe0": 6843,
      "5c70": 6844,
      "c434": 6845,
      "9d17": 6846,
      "1857": 6847,
      "b56a": 6848,
      "9539": 6849,
      "223b": 6850,
      "1201": 6851,
      "320c": 6852,
      "54e2": 6853,
      "9dba": 6854,
      "d0a0": 6855,
      "9c17": 6856,
      "0529": 6857,
      "454d": 6858,
      "1023": 6859,
      "1b88": 6860,
      "4365": 6861,
      "a61a": 6862,
      "0840": 6863,
      "5575": 6864,
      "03e0": 6865,
      "1dc2": 6866,
      "1a58": 6867,
      "e50a": 6868,
      "9c9d": 6869,
      "5a17": 6870,
      "21e0": 6871,
      "1747": 6872,
      "9b9a": 6873,
      "b899": 6874,
      "b74e": 6875,
      "c028": 6876,
      "021a": 6877,
      "2a26": 6878,
      "ca17": 6879,
      "12ae": 6880,
      "0802": 6881,
      "45dc": 6882,
      "f509": 6883,
      "c0e2": 6884,
      "87d9": 6885,
      "3d36": 6886,
      "b932": 6887,
      "5348": 6888,
      "c9d0": 6889,
      "02a2": 6890,
      "6c06": 6891,
      "93e5": 6892,
      "3f7b": 6893,
      "7e82": 6894,
      "5d1b": 6895,
      "6008": 6896,
      "1901": 6897,
      "aa86": 6898,
      "4fc6": 6899,
      "6a97": 6900,
      "0130": 6901,
      "012b": 6902,
      "d117": 6903,
      "18bc": 6904,
      "2321": 6905,
      "e03c": 6906,
      "1970": 6907,
      "8247": 6908,
      "04fb": 6909,
      "4605": 6910,
      "a07a": 6911,
      "b452": 6912,
      "186c": 6913,
      "1cc8": 6914,
      "c3b5": 6915,
      "0b02": 6916,
      "e076": 6917,
      "d0b7": 6918,
      "347a": 6919,
      "028c": 6920,
      "c96f": 6921,
      "c817": 6922,
      "18b1": 6923,
      "7ad6": 6924,
      "f1f5": 6925,
      "4801": 6926,
      "250b": 6927,
      "8f5c": 6928,
      "1818": 6929,
      "0216": 6930,
      "1963": 6931,
      "ba28": 6932,
      "1217": 6933,
      "037e": 6934,
      "15e0": 6935,
      "0aa2": 6936,
      "bcbb": 6937,
      "67ac": 6938,
      "1a27": 6939,
      "daf0": 6940,
      "92b0": 6941,
      "9209": 6942,
      "cf17": 6943,
      "c495": 6944,
      "bb39": 6945,
      "6369": 6946,
      "617f": 6947,
      "349d": 6948,
      "0bd6": 6949,
      "edad": 6950,
      "88af": 6951,
      "ba17": 6952,
      "92e5": 6953,
      "06d6": 6954,
      "2444": 6955,
      "c6cf": 6956,
      "2a01": 6957,
      "5403": 6958,
      "9bb2": 6959,
      "50ae": 6960,
      "746c": 6961,
      "a424": 6962,
      "a217": 6963,
      "4bc9": 6964,
      "c8ba": 6965,
      "b344": 6966,
      "6274": 6967,
      "018c": 6968,
      "9017": 6969,
      "0f17": 6970,
      "122d": 6971,
      "c115": 6972,
      "08b3": 6973,
      "3292": 6974,
      "6905": 6975,
      "91c2": 6976,
      "a285": 6977,
      "3e70": 6978,
      "0dbe": 6979,
      "230a": 6980,
      "2552": 6981,
      "3908": 6982,
      "9e71": 6983,
      "efaa": 6984,
      "341d": 6985,
      "352e": 6986,
      "8a59": 6987,
      "0553": 6988,
      "02bc": 6989,
      "0159": 6990,
      "6552": 6991,
      "202e": 6992,
      "f02d": 6993,
      "5fb8": 6994,
      "9fbe": 6995,
      "dc17": 6996,
      "010c": 6997,
      "c71e": 6998,
      "bb81": 6999,
      "8d70": 7000,
      "033d": 7001,
      "18bd": 7002,
      "c978": 7003,
      "a2df": 7004,
      "01cd": 7005,
      "8192": 7006,
      "0edf": 7007,
      "de65": 7008,
      "b738": 7009,
      "0147": 7010,
      "69d7": 7011,
      "a9bf": 7012,
      "304b": 7013,
      "9c21": 7014,
      "2e2e": 7015,
      "2b5e": 7016,
      "e717": 7017,
      "c517": 7018,
      "71ab": 7019,
      "66d4": 7020,
      "1103": 7021,
      "3c01": 7022,
      "6683": 7023,
      "fce0": 7024,
      "3ede": 7025,
      "095a": 7026,
      "b120": 7027,
      "1a0a": 7028,
      "7692": 7029,
      "be7d": 7030,
      "2a88": 7031,
      "b608": 7032,
      "cf13": 7033,
      "8e21": 7034,
      "1d68": 7035,
      "0825": 7036,
      "fa33": 7037,
      "42f6": 7038,
      "6973": 7039,
      "85fa": 7040,
      "b2f0": 7041,
      "0e09": 7042,
      "8fac": 7043,
      "9cdc": 7044,
      "176d": 7045,
      "183b": 7046,
      "1a36": 7047,
      "49b4": 7048,
      "88ef": 7049,
      "8ce0": 7050,
      "6b3b": 7051,
      "7004": 7052,
      "a336": 7053,
      "c1a9": 7054,
      "30c9": 7055,
      "7054": 7056,
      "84b7": 7057,
      "4d17": 7058,
      "8a6e": 7059,
      "f6ef": 7060,
      "91d9": 7061,
      "e808": 7062,
      "0d08": 7063,
      "058a": 7064,
      "ec94": 7065,
      "945e": 7066,
      "152d": 7067,
      "6dd6": 7068,
      "03b0": 7069,
      "0505": 7070,
      "0b46": 7071,
      "8a08": 7072,
      "c90f": 7073,
      "ec0a": 7074,
      "0fac": 7075,
      "2e68": 7076,
      "0869": 7077,
      "d524": 7078,
      "016c": 7079,
      "f61e": 7080,
      "9169": 7081,
      "0272": 7082,
      "337e": 7083,
      "3102": 7084,
      "c3a8": 7085,
      "f507": 7086,
      "5060": 7087,
      "ffbe": 7088,
      "6e40": 7089,
      "dba6": 7090,
      "7b17": 7091,
      "186d": 7092,
      "0390": 7093,
      "f62e": 7094,
      "064b": 7095,
      "6708": 7096,
      "703b": 7097,
      "b76b": 7098,
      "8dbf": 7099,
      "ed17": 7100,
      "ddac": 7101,
      "8a17": 7102,
      "2709": 7103,
      "328a": 7104,
      "04ae": 7105,
      "1e94": 7106,
      "a934": 7107,
      "2275": 7108,
      "2bff": 7109,
      "a6c6": 7110,
      "ffe0": 7111,
      "449c": 7112,
      "6b34": 7113,
      "859f": 7114,
      "e5ab": 7115,
      "080b": 7116,
      "16d8": 7117,
      "c4e5": 7118,
      "eb77": 7119,
      "bfbf": 7120,
      "8c17": 7121,
      "4ca1": 7122,
      "a437": 7123,
      "6728": 7124,
      "9a17": 7125,
      "f317": 7126,
      "06c2": 7127,
      "18e9": 7128,
      "b7e1": 7129,
      "806c": 7130,
      "9fe0": 7131,
      "949d": 7132,
      "7b3a": 7133,
      "1814": 7134,
      "386d": 7135,
      "0b40": 7136,
      "2292": 7137,
      "3e0c": 7138,
      "a9cc": 7139,
      "eda8": 7140,
      "01f1": 7141,
      "65e5": 7142,
      "104d": 7143,
      "af1d": 7144,
      "1fb9": 7145,
      "0ceb": 7146,
      "7774": 7147,
      "12c4": 7148,
      "08c0": 7149,
      "fee0": 7150,
      "9b4c": 7151,
      "c02f": 7152,
      "6f4e": 7153,
      "3420": 7154,
      "4770": 7155,
      "436f": 7156,
      "53a7": 7157,
      "1638": 7158,
      "26e0": 7159,
      "3107": 7160,
      "be01": 7161,
      "409c": 7162,
      "288e": 7163,
      "3e4e": 7164,
      "8908": 7165,
      "047a": 7166,
      "edac": 7167,
      "0194": 7168,
      "15e1": 7169,
      "cad6": 7170,
      "3953": 7171,
      "570b": 7172,
      "8188": 7173,
      "bdcb": 7174,
      "508e": 7175,
      "dd11": 7176,
      "7822": 7177,
      "040a": 7178,
      "acc7": 7179,
      "02c8": 7180,
      "bab9": 7181,
      "bd4c": 7182,
      "ebe0": 7183,
      "b03d": 7184,
      "6c56": 7185,
      "9e66": 7186,
      "bbb0": 7187,
      "dd24": 7188,
      "0884": 7189,
      "09d3": 7190,
      "5385": 7191,
      "70f2": 7192,
      "1a68": 7193,
      "a517": 7194,
      "a317": 7195,
      "217e": 7196,
      "b806": 7197,
      "bbe0": 7198,
      "c136": 7199,
      "b4b1": 7200,
      "6b17": 7201,
      "3d8a": 7202,
      "9d19": 7203,
      "258b": 7204,
      "d166": 7205,
      "4540": 7206,
      "2a53": 7207,
      "2202": 7208,
      "3a03": 7209,
      "cd4c": 7210,
      "05a8": 7211,
      "25ad": 7212,
      "2a1c": 7213,
      "0843": 7214,
      "a3b8": 7215,
      "0191": 7216,
      "2702": 7217,
      "50f8": 7218,
      "5f69": 7219,
      "dba5": 7220,
      "0836": 7221,
      "1138": 7222,
      "01be": 7223,
      "c8fd": 7224,
      "16b5": 7225,
      "12b1": 7226,
      "f017": 7227,
      "4ca0": 7228,
      "0434": 7229,
      "77dc": 7230,
      "3751": 7231,
      "f866": 7232,
      "281b": 7233,
      "a817": 7234,
      "b21c": 7235,
      "4194": 7236,
      "0afc": 7237,
      "8067": 7238,
      "271d": 7239,
      "abb0": 7240,
      "c5f5": 7241,
      "c8fe": 7242,
      "22b4": 7243,
      "3101": 7244,
      "e0e0": 7245,
      "4fe0": 7246,
      "2428": 7247,
      "0ba4": 7248,
      "188d": 7249,
      "c68f": 7250,
      "23b9": 7251,
      "8ae0": 7252,
      "eceb": 7253,
      "01ec": 7254,
      "88cc": 7255,
      "2325": 7256,
      "5035": 7257,
      "2da8": 7258,
      "8d34": 7259,
      "eda9": 7260,
      "3519": 7261,
      "6934": 7262,
      "452b": 7263,
      "0af9": 7264,
      "43c0": 7265,
      "584f": 7266,
      "a5c0": 7267,
      "2a7e": 7268,
      "4551": 7269,
      "b798": 7270,
      "6f35": 7271,
      "0127": 7272,
      "336a": 7273,
      "07f9": 7274,
      "f2de": 7275,
      "0295": 7276,
      "91c6": 7277,
      "8014": 7278,
      "c0f6": 7279,
      "2f34": 7280,
      "9f55": 7281,
      "2c9c": 7282,
      "2e8f": 7283,
      "515c": 7284,
      "7578": 7285,
      "81e0": 7286,
      "3b45": 7287,
      "b35a": 7288,
      "d073": 7289,
      "90e4": 7290,
      "34e0": 7291,
      "2e95": 7292,
      "adad": 7293,
      "8d17": 7294,
      "02f9": 7295,
      "2977": 7296,
      "c9e1": 7297,
      "230f": 7298,
      "24eb": 7299,
      "8063": 7300,
      "8056": 7301,
      "bc17": 7302,
      "042f": 7303,
      "1532": 7304,
      "ba7d": 7305,
      "2128": 7306,
      "6d4a": 7307,
      "ad83": 7308,
      "edc6": 7309,
      "ccd4": 7310,
      "2cbd": 7311,
      "85a5": 7312,
      "1514": 7313,
      "3238": 7314,
      "d635": 7315,
      "3e79": 7316,
      "4dfd": 7317,
      "e908": 7318,
      "403d": 7319,
      "be56": 7320,
      "edb0": 7321,
      "1535": 7322,
      "1203": 7323,
      "65bc": 7324,
      "ab01": 7325,
      "e508": 7326,
      "0e64": 7327,
      "ad5f": 7328,
      "c117": 7329,
      "184f": 7330,
      "3ee0": 7331,
      "9579": 7332,
      "0bef": 7333,
      "bf0e": 7334,
      "e08c": 7335,
      "2f46": 7336,
      "1db0": 7337,
      "2819": 7338,
      "e816": 7339,
      "2322": 7340,
      "5117": 7341,
      "2d7a": 7342,
      "479a": 7343,
      "ca04": 7344,
      "5f95": 7345,
      "0c35": 7346,
      "7cb4": 7347,
      "04b9": 7348,
      "0479": 7349,
      "6e67": 7350,
      "f717": 7351,
      "8d6d": 7352,
      "31af": 7353,
      "66f9": 7354,
      "16e0": 7355,
      "5a40": 7356,
      "2701": 7357,
      "67b8": 7358,
      "970d": 7359,
      "9251": 7360,
      "a8ed": 7361,
      "ddaf": 7362,
      "c81a": 7363,
      "5510": 7364,
      "1abe": 7365,
      "c8bb": 7366,
      "02b4": 7367,
      "0189": 7368,
      "2f0a": 7369,
      "3b01": 7370,
      "8b01": 7371,
      "b501": 7372,
      "c607": 7373,
      "bce0": 7374,
      "6c30": 7375,
      "028e": 7376,
      "a617": 7377,
      "3270": 7378,
      "63b0": 7379,
      "82fd": 7380,
      "0b01": 7381,
      "01ce": 7382,
      "20a1": 7383,
      "2f37": 7384,
      "ef48": 7385,
      "1eac": 7386,
      "8714": 7387,
      "ada0": 7388,
      "652e": 7389,
      "253f": 7390,
      "3a32": 7391,
      "da17": 7392,
      "3447": 7393,
      "3301": 7394,
      "71c0": 7395,
      "7090": 7396,
      "c49c": 7397,
      "c75f": 7398,
      "0254": 7399,
      "3a64": 7400,
      "5387": 7401,
      "85df": 7402,
      "2ffe": 7403,
      "8747": 7404,
      "e777": 7405,
      "1081": 7406,
      "57d7": 7407,
      "a89b": 7408,
      "040b": 7409,
      "87e8": 7410,
      "22ce": 7411,
      "45fb": 7412,
      "19b3": 7413,
      "addc": 7414,
      "93c2": 7415,
      "01a6": 7416,
      "674d": 7417,
      "a108": 7418,
      "5fb6": 7419,
      "5492": 7420,
      "1e55": 7421,
      "b73e": 7422,
      "3a65": 7423,
      "1abf": 7424,
      "1848": 7425,
      "8641": 7426,
      "784c": 7427,
      "c303": 7428,
      "3531": 7429,
      "d835": 7430,
      "668c": 7431,
      "68b7": 7432,
      "0a5a": 7433,
      "3e41": 7434,
      "4908": 7435,
      "9703": 7436,
      "d8e0": 7437,
      "8f32": 7438,
      "df17": 7439,
      "046f": 7440,
      "4432": 7441,
      "4485": 7442,
      "dd1b": 7443,
      "31ab": 7444,
      "c2fc": 7445,
      "c27e": 7446,
      "2d08": 7447,
      "2f02": 7448,
      "43e0": 7449,
      "5086": 7450,
      "a4ec": 7451,
      "fd35": 7452,
      "cd17": 7453,
      "856c": 7454,
      "22eb": 7455,
      "6db1": 7456,
      "974c": 7457,
      "9d4c": 7458,
      "2494": 7459,
      "743f": 7460,
      "1e65": 7461,
      "79a5": 7462,
      "981e": 7463,
      "85a8": 7464,
      "f54d": 7465,
      "22ed": 7466,
      "4972": 7467,
      "7bcf": 7468,
      "22b9": 7469,
      "45bb": 7470,
      "8de0": 7471,
      "ad01": 7472,
      "ff53": 7473,
      "5c15": 7474,
      "7c17": 7475,
      "b55c": 7476,
      "3a2f": 7477,
      "7559": 7478,
      "a169": 7479,
      "2548": 7480,
      "c9e0": 7481,
      "e301": 7482,
      "6501": 7483,
      "af14": 7484,
      "3f4e": 7485,
      "3e7c": 7486,
      "4e65": 7487,
      "0165": 7488,
      "3ee7": 7489,
      "22dc": 7490,
      "8141": 7491,
      "7248": 7492,
      "79d5": 7493,
      "03a9": 7494,
      "6ffd": 7495,
      "8e4e": 7496,
      "f908": 7497,
      "0490": 7498,
      "06f9": 7499,
      "76c1": 7500,
      "0283": 7501,
      "b601": 7502,
      "b776": 7503,
      "304f": 7504,
      "9c9e": 7505,
      "6cae": 7506,
      "0b6d": 7507,
      "5d8a": 7508,
      "7d63": 7509,
      "b29d": 7510,
      "c1a4": 7511,
      "0240": 7512,
      "aa42": 7513,
      "1de0": 7514,
      "31c6": 7515,
      "42a6": 7516,
      "9688": 7517,
      "6c53": 7518,
      "1c77": 7519,
      "010f": 7520,
      "2e9b": 7521,
      "ada9": 7522,
      "a516": 7523,
      "3354": 7524,
      "232b": 7525,
      "c8b3": 7526,
      "aae0": 7527,
      "bac0": 7528,
      "7f1c": 7529,
      "ac9c": 7530,
      "488e": 7531,
      "b217": 7532,
      "12c3": 7533,
      "0286": 7534,
      "1032": 7535,
      "b0cc": 7536,
      "348b": 7537,
      "9e2d": 7538,
      "9b5c": 7539,
      "2712": 7540,
      "a81e": 7541,
      "e56f": 7542,
      "8279": 7543,
      "8903": 7544,
      "9d06": 7545,
      "a907": 7546,
      "2053": 7547,
      "8c44": 7548,
      "44de": 7549,
      "8eb7": 7550,
      "dedf": 7551,
      "6dac": 7552,
      "1aa5": 7553,
      "d517": 7554,
      "7951": 7555,
      "cc08": 7556,
      "8069": 7557,
      "c07a": 7558,
      "704d": 7559,
      "147a": 7560,
      "d49d": 7561,
      "ee20": 7562,
      "0246": 7563,
      "02dc": 7564,
      "09bf": 7565,
      "b00e": 7566,
      "e4f6": 7567,
      "5085": 7568,
      "40fb": 7569,
      "d4e0": 7570,
      "7e81": 7571,
      "87aa": 7572,
      "6d8e": 7573,
      "b6a7": 7574,
      "2617": 7575,
      "180d": 7576,
      "1add": 7577,
      "36b2": 7578,
      "0ef2": 7579,
      "5b01": 7580,
      "7779": 7581,
      "ad08": 7582,
      "bc4f": 7583,
      "c4da": 7584,
      "3521": 7585,
      "0242": 7586,
      "0145": 7587,
      "7ad4": 7588,
      "3eb5": 7589,
      "8a81": 7590,
      "acf9": 7591,
      "dc08": 7592,
      "c76b": 7593,
      "c617": 7594,
      "69b3": 7595,
      "5c0a": 7596,
      "8cf9": 7597,
      "c58a": 7598,
      "3c7a": 7599,
      "1861": 7600,
      "0261": 7601,
      "b801": 7602,
      "03a6": 7603,
      "4504": 7604,
      "6408": 7605,
      "b336": 7606,
      "4799": 7607,
      "7a61": 7608,
      "01f4": 7609,
      "62dd": 7610,
      "9808": 7611,
      "ba0e": 7612,
      "dd43": 7613,
      "4b39": 7614,
      "456c": 7615,
      "2a2c": 7616,
      "040e": 7617,
      "0ad0": 7618,
      "4372": 7619,
      "bb02": 7620,
      "c9fb": 7621,
      "1ea0": 7622,
      "7e5e": 7623,
      "1718": 7624,
      "0815": 7625,
      "025c": 7626,
      "0332": 7627,
      "6a68": 7628,
      "2220": 7629,
      "87ef": 7630,
      "2247": 7631,
      "2326": 7632,
      "79c4": 7633,
      "aeb2": 7634,
      "dce0": 7635,
      "6ea6": 7636,
      "2e9a": 7637,
      "3817": 7638,
      "8317": 7639,
      "a63d": 7640,
      "1117": 7641,
      "c377": 7642,
      "75c4": 7643,
      "1604": 7644,
      "232a": 7645,
      "2d9a": 7646,
      "48e0": 7647,
      "b771": 7648,
      "f208": 7649,
      "50bd": 7650,
      "bcb6": 7651,
      "47ad": 7652,
      "1a9d": 7653,
      "225c": 7654,
      "7210": 7655,
      "11bc": 7656,
      "a9b0": 7657,
      "b5c6": 7658,
      "0c52": 7659,
      "05ab": 7660,
      "edb7": 7661,
      "3535": 7662,
      "4558": 7663,
      "b22d": 7664,
      "1840": 7665,
      "3ee6": 7666,
      "b1dc": 7667,
      "4b7b": 7668,
      "c111": 7669,
      "1a14": 7670,
      "9862": 7671,
      "63ad": 7672,
      "6ee7": 7673,
      "7185": 7674,
      "8707": 7675,
      "8d71": 7676,
      "304d": 7677,
      "2d64": 7678,
      "9917": 7679,
      "1230": 7680,
      "01c0": 7681,
      "3e03": 7682,
      "3eb6": 7683,
      "674e": 7684,
      "9ef1": 7685,
      "a388": 7686,
      "a4f9": 7687,
      "5074": 7688,
      "0b61": 7689,
      "497b": 7690,
      "d9e2": 7691,
      "1689": 7692,
      "c8ec": 7693,
      "7093": 7694,
      "0b66": 7695,
      "e29e": 7696,
      "3dd0": 7697,
      "c34e": 7698,
      "0199": 7699,
      "3d82": 7700,
      "4203": 7701,
      "a1a2": 7702,
      "3717": 7703,
      "0265": 7704,
      "1a2f": 7705,
      "222c": 7706,
      "0871": 7707,
      "2fff": 7708,
      "4de0": 7709,
      "49f8": 7710,
      "474f": 7711,
      "7d08": 7712,
      "607a": 7713,
      "b456": 7714,
      "bea8": 7715,
      "025e": 7716,
      "6927": 7717,
      "22a0": 7718,
      "e697": 7719,
      "56b0": 7720,
      "164c": 7721,
      "5201": 7722,
      "5fa0": 7723,
      "049b": 7724,
      "645e": 7725,
      "94ab": 7726,
      "7b56": 7727,
      "032e": 7728,
      "c8bc": 7729,
      "497c": 7730,
      "b376": 7731,
      "2be0": 7732,
      "50e0": 7733,
      "70e7": 7734,
      "2d33": 7735,
      "1823": 7736,
      "4935": 7737,
      "6a66": 7738,
      "125c": 7739,
      "b442": 7740,
      "687f": 7741,
      "8803": 7742,
      "1db2": 7743,
      "8f01": 7744,
      "af01": 7745,
      "9f6d": 7746,
      "bc12": 7747,
      "2c2b": 7748,
      "22e4": 7749,
      "12de": 7750,
      "43b0": 7751,
      "33e0": 7752,
      "34f6": 7753,
      "4701": 7754,
      "450b": 7755,
      "53ee": 7756,
      "6a85": 7757,
      "50ca": 7758,
      "0464": 7759,
      "94d0": 7760,
      "99aa": 7761,
      "d88f": 7762,
      "063a": 7763,
      "024c": 7764,
      "45e4": 7765,
      "45b3": 7766,
      "7748": 7767,
      "eda6": 7768,
      "b767": 7769,
      "cd9c": 7770,
      "d617": 7771,
      "3bff": 7772,
      "18d0": 7773,
      "3443": 7774,
      "b5d0": 7775,
      "abc6": 7776,
      "cbcc": 7777,
      "0903": 7778,
      "0655": 7779,
      "8eb9": 7780,
      "adc3": 7781,
      "b389": 7782,
      "ac4f": 7783,
      "346c": 7784,
      "447a": 7785,
      "6732": 7786,
      "3b15": 7787,
      "e5ac": 7788,
      "da21": 7789,
      "b366": 7790,
      "3001": 7791,
      "18b2": 7792,
      "bbfc": 7793,
      "68e8": 7794,
      "8eb2": 7795,
      "50a9": 7796,
      "3035": 7797,
      "ca6d": 7798,
      "2214": 7799,
      "a9d0": 7800,
      "737f": 7801,
      "2e09": 7802,
      "9dfd": 7803,
      "8c74": 7804,
      "915f": 7805,
      "41b7": 7806,
      "79ed": 7807,
      "63dc": 7808,
      "6a03": 7809,
      "fdfd": 7810,
      "f2b0": 7811,
      "d717": 7812,
      "2774": 7813,
      "ba3d": 7814,
      "d215": 7815,
      "f620": 7816,
      "02c4": 7817,
      "28c0": 7818,
      "9bc0": 7819,
      "08e8": 7820,
      "2295": 7821,
      "e501": 7822,
      "6c92": 7823,
      "04ad": 7824,
      "8e19": 7825,
      "9717": 7826,
      "977f": 7827,
      "87ad": 7828,
      "7b87": 7829,
      "0813": 7830,
      "3917": 7831,
      "22c6": 7832,
      "68dc": 7833,
      "6885": 7834,
      "858a": 7835,
      "9cfd": 7836,
      "a8e3": 7837,
      "dbe0": 7838,
      "f408": 7839,
      "40ef": 7840,
      "706d": 7841,
      "7fe1": 7842,
      "0cd6": 7843,
      "98ae": 7844,
      "232f": 7845,
      "7542": 7846,
      "0325": 7847,
      "8123": 7848,
      "a905": 7849,
      "50fb": 7850,
      "9f6a": 7851,
      "ffbc": 7852,
      "dfb0": 7853,
      "bc54": 7854,
      "bc1b": 7855,
      "54c0": 7856,
      "37a0": 7857,
      "b99e": 7858,
      "7863": 7859,
      "55a5": 7860,
      "1ac9": 7861,
      "b2fe": 7862,
      "d1f2": 7863,
      "f8da": 7864,
      "a374": 7865,
      "31c4": 7866,
      "74e5": 7867,
      "10a8": 7868,
      "30f4": 7869,
      "c0aa": 7870,
      "dfda": 7871,
      "9c20": 7872,
      "1816": 7873,
      "b447": 7874,
      "01aa": 7875,
      "450e": 7876,
      "9c0b": 7877,
      "9cf6": 7878,
      "2f70": 7879,
      "6f4f": 7880,
      "9744": 7881,
      "0b3c": 7882,
      "9b28": 7883,
      "6b64": 7884,
      "d969": 7885,
      "9517": 7886,
      "1873": 7887,
      "6947": 7888,
      "c8fc": 7889,
      "18a5": 7890,
      "1a37": 7891,
      "6554": 7892,
      "3634": 7893,
      "b8fb": 7894,
      "39e0": 7895,
      "2101": 7896,
      "63db": 7897,
      "85bb": 7898,
      "c501": 7899,
      "74bc": 7900,
      "f49c": 7901,
      "54e0": 7902,
      "edbb": 7903,
      "b361": 7904,
      "0377": 7905,
      "a540": 7906,
      "2345": 7907,
      "6602": 7908,
      "b701": 7909,
      "cff3": 7910,
      "248d": 7911,
      "9b5e": 7912,
      "488c": 7913,
      "4531": 7914,
      "aa2e": 7915,
      "4a23": 7916,
      "c8b7": 7917,
      "45f0": 7918,
      "2eed": 7919,
      "0b48": 7920,
      "2908": 7921,
      "5070": 7922,
      "2042": 7923,
      "3467": 7924,
      "1e89": 7925,
      "171b": 7926,
      "89aa": 7927,
      "0633": 7928,
      "0291": 7929,
      "ede9": 7930,
      "5c2a": 7931,
      "beff": 7932,
      "87d4": 7933,
      "2a22": 7934,
      "337d": 7935,
      "72f9": 7936,
      "d808": 7937,
      "1aa6": 7938,
      "3508": 7939,
      "7c07": 7940,
      "7f0f": 7941,
      "85b0": 7942,
      "bb49": 7943,
      "506a": 7944,
      "e09c": 7945,
      "5420": 7946,
      "8e3b": 7947,
      "7e2a": 7948,
      "453d": 7949,
      "4523": 7950,
      "98ab": 7951,
      "31ad": 7952,
      "b117": 7953,
      "b67c": 7954,
      "244a": 7955,
      "0b0a": 7956,
      "69fc": 7957,
      "77b8": 7958,
      "1035": 7959,
      "5f17": 7960,
      "bedd": 7961,
      "093a": 7962,
      "4217": 7963,
      "16c6": 7964,
      "8802": 7965,
      "a582": 7966,
      "07bf": 7967,
      "0a5f": 7968,
      "1a64": 7969,
      "f61b": 7970,
      "76ab": 7971,
      "46f0": 7972,
      "7ac5": 7973,
      "0151": 7974,
      "4588": 7975,
      "20e0": 7976,
      "60ad": 7977,
      "0f25": 7978,
      "8eaa": 7979,
      "eb2c": 7980,
      "7b85": 7981,
      "0322": 7982,
      "4514": 7983,
      "4535": 7984,
      "0248": 7985,
      "03cc": 7986,
      "2dd2": 7987,
      "3201": 7988,
      "41a9": 7989,
      "bb0f": 7990,
      "505e": 7991,
      "0f9e": 7992,
      "8c5e": 7993,
      "342d": 7994,
      "082f": 7995,
      "0406": 7996,
      "edde": 7997,
      "aab7": 7998,
      "11e0": 7999,
      "ead0": 8000,
      "5802": 8001,
      "1883": 8002,
      "1a0b": 8003,
      "7d98": 8004,
      "3048": 8005,
      "b0e0": 8006,
      "f0b4": 8007,
      "2cff": 8008,
      "be33": 8009,
      "086a": 8010,
      "185e": 8011,
      "b51b": 8012,
      "3a24": 8013,
      "532e": 8014,
      "0848": 8015,
      "69b1": 8016,
      "6a46": 8017,
      "e1e0": 8018,
      "96e9": 8019,
      "19f0": 8020,
      "1a83": 8021,
      "3e75": 8022,
      "c2b7": 8023,
      "ede3": 8024,
      "6021": 8025,
      "ff32": 8026,
      "f917": 8027,
      "d89b": 8028,
      "6a65": 8029,
      "b332": 8030,
      "1a47": 8031,
      "16eb": 8032,
      "0701": 8033,
      "2683": 8034,
      "4c01": 8035,
      "7998": 8036,
      "e689": 8037,
      "8ce4": 8038,
      "4c9c": 8039,
      "0734": 8040,
      "2d28": 8041,
      "b5a0": 8042,
      "0606": 8043,
      "3229": 8044,
      "aa19": 8045,
      "631e": 8046,
      "87e0": 8047,
      "d301": 8048,
      "090c": 8049,
      "12b8": 8050,
      "3eb3": 8051,
      "34f5": 8052,
      "b0bc": 8053,
      "ccae": 8054,
      "1714": 8055,
      "112d": 8056,
      "05c1": 8057,
      "084d": 8058,
      "18dd": 8059,
      "45de": 8060,
      "e7f8": 8061,
      "2176": 8062,
      "684f": 8063,
      "900a": 8064,
      "09a3": 8065,
      "ade7": 8066,
      "bde0": 8067,
      "c705": 8068,
      "2047": 8069,
      "6435": 8070,
      "3e30": 8071,
      "e72f": 8072,
      "f53a": 8073,
      "b35e": 8074,
      "169d": 8075,
      "c3b9": 8076,
      "59d2": 8077,
      "5801": 8078,
      "0185": 8079,
      "1a88": 8080,
      "3204": 8081,
      "4796": 8082,
      "5022": 8083,
      "2ce0": 8084,
      "189d": 8085,
      "3a2b": 8086,
      "03d4": 8087,
      "46a9": 8088,
      "6d4b": 8089,
      "d097": 8090,
      "4ca6": 8091,
      "07a0": 8092,
      "186f": 8093,
      "4516": 8094,
      "552b": 8095,
      "3266": 8096,
      "2135": 8097,
      "07fb": 8098,
      "33dc": 8099,
      "bb06": 8100,
      "ce41": 8101,
      "d796": 8102,
      "103a": 8103,
      "308e": 8104,
      "2fdc": 8105,
      "3fb2": 8106,
      "ecff": 8107,
      "2e58": 8108,
      "4786": 8109,
      "3b2d": 8110,
      "fb33": 8111,
      "eda0": 8112,
      "0854": 8113,
      "09ac": 8114,
      "788d": 8115,
      "3a5c": 8116,
      "726d": 8117,
      "1ae4": 8118,
      "b1e3": 8119,
      "5446": 8120,
      "4901": 8121,
      "5bb1": 8122,
      "61c6": 8123,
      "c3e0": 8124,
      "2c12": 8125,
      "8bdb": 8126,
      "8935": 8127,
      "6aaf": 8128,
      "9a61": 8129,
      "826d": 8130,
      "0342": 8131,
      "017a": 8132,
      "05e0": 8133,
      "3179": 8134,
      "c2ca": 8135,
      "0dfd": 8136,
      "1c08": 8137,
      "24e5": 8138,
      "670d": 8139,
      "b628": 8140,
      "50a4": 8141,
      "6fe6": 8142,
      "bc9d": 8143,
      "b4b8": 8144,
      "e4d7": 8145,
      "0b2d": 8146,
      "ad5e": 8147,
      "1938": 8148,
      "68be": 8149,
      "0ffa": 8150,
      "3689": 8151,
      "6705": 8152,
      "f49d": 8153,
      "edab": 8154,
      "e936": 8155,
      "45c0": 8156,
      "aa45": 8157,
      "22f3": 8158,
      "c0cb": 8159,
      "4f86": 8160,
      "ccdc": 8161,
      "ac7e": 8162,
      "ee22": 8163,
      "07a8": 8164,
      "4511": 8165,
      "18f1": 8166,
      "a006": 8167,
      "6cb0": 8168,
      "6c95": 8169,
      "349b": 8170,
      "1e16": 8171,
      "9d35": 8172,
      "5dab": 8173,
      "082b": 8174,
      "8915": 8175,
      "b91d": 8176,
      "1a32": 8177,
      "451e": 8178,
      "859b": 8179,
      "e814": 8180,
      "a9bb": 8181,
      "b6f1": 8182,
      "1f01": 8183,
      "650d": 8184,
      "85a6": 8185,
      "b108": 8186,
      "b05c": 8187,
      "f08c": 8188,
      "c65c": 8189,
      "811d": 8190,
      "b7ff": 8191,
      "5ee0": 8192,
      "2302": 8193,
      "2e01": 8194,
      "249b": 8195,
      "07bc": 8196,
      "0b69": 8197,
      "bbdd": 8198,
      "a857": 8199,
      "238c": 8200,
      "45ef": 8201,
      "2547": 8202,
      "c1e8": 8203,
      "63f5": 8204,
      "23e0": 8205,
      "3e36": 8206,
      "07ac": 8207,
      "2daa": 8208,
      "855d": 8209,
      "1135": 8210,
      "98c0": 8211,
      "45b2": 8212,
      "58e4": 8213,
      "ab46": 8214,
      "c401": 8215,
      "da03": 8216,
      "fd04": 8217,
      "90f0": 8218,
      "1fa5": 8219,
      "5411": 8220,
      "a4dc": 8221,
      "051e": 8222,
      "9516": 8223,
      "8235": 8224,
      "2164": 8225,
      "18f9": 8226,
      "18fb": 8227,
      "79c0": 8228,
      "ac9d": 8229,
      "34a9": 8230,
      "6e70": 8231,
      "0212": 8232,
      "0262": 8233,
      "3a31": 8234,
      "41a0": 8235,
      "0177": 8236,
      "1cc0": 8237,
      "c001": 8238,
      "0626": 8239,
      "2df8": 8240,
      "5901": 8241,
      "5325": 8242,
      "0c16": 8243,
      "6c29": 8244,
      "048b": 8245,
      "0e54": 8246,
      "9b88": 8247,
      "c78e": 8248,
      "8d13": 8249,
      "0d34": 8250,
      "1884": 8251,
      "561a": 8252,
      "49e0": 8253,
      "b6ed": 8254,
      "34cb": 8255,
      "5388": 8256,
      "7904": 8257,
      "a70d": 8258,
      "a4c9": 8259,
      "bbb3": 8260,
      "fb76": 8261,
      "1a9b": 8262,
      "8536": 8263,
      "2842": 8264,
      "eee0": 8265,
      "93c5": 8266,
      "09f5": 8267,
      "3503": 8268,
      "69f0": 8269,
      "ab03": 8270,
      "b4e2": 8271,
      "d60b": 8272,
      "5014": 8273,
      "a49b": 8274,
      "4b7f": 8275,
      "886b": 8276,
      "226a": 8277,
      "8218": 8278,
      "8665": 8279,
      "7624": 8280,
      "b9dc": 8281,
      "46d5": 8282,
      "1501": 8283,
      "5886": 8284,
      "6b7a": 8285,
      "b604": 8286,
      "b88a": 8287,
      "508f": 8288,
      "67d0": 8289,
      "cb17": 8290,
      "a936": 8291,
      "1110": 8292,
      "09e0": 8293,
      "a8b9": 8294,
      "2549": 8295,
      "31f0": 8296,
      "5345": 8297,
      "76b0": 8298,
      "0d7d": 8299,
      "0396": 8300,
      "18e8": 8301,
      "65b8": 8302,
      "adc6": 8303,
      "aaa6": 8304,
      "bc01": 8305,
      "4c8d": 8306,
      "a7dc": 8307,
      "5921": 8308,
      "119c": 8309,
      "01d3": 8310,
      "a8ba": 8311,
      "400e": 8312,
      "b008": 8313,
      "02b9": 8314,
      "3bb9": 8315,
      "9ec7": 8316,
      "c12a": 8317,
      "50f1": 8318,
      "749d": 8319,
      "9bad": 8320,
      "3935": 8321,
      "8894": 8322,
      "6a29": 8323,
      "3212": 8324,
      "826c": 8325,
      "6635": 8326,
      "c8b8": 8327,
      "05b0": 8328,
      "1401": 8329,
      "818b": 8330,
      "bd0a": 8331,
      "50ad": 8332,
      "a020": 8333,
      "aeb0": 8334,
      "ab33": 8335,
      "351c": 8336,
      "696b": 8337,
      "596f": 8338,
      "3290": 8339,
      "019d": 8340,
      "f635": 8341,
      "320f": 8342,
      "4d47": 8343,
      "d3e0": 8344,
      "e20d": 8345,
      "fd53": 8346,
      "1041": 8347,
      "c02c": 8348,
      "f4dc": 8349,
      "2ea9": 8350,
      "8ebc": 8351,
      "47a8": 8352,
      "fd26": 8353,
      "8dee": 8354,
      "6813": 8355,
      "65ad": 8356,
      "9946": 8357,
      "1a44": 8358,
      "02c0": 8359,
      "08d1": 8360,
      "3ef6": 8361,
      "6e49": 8362,
      "7c08": 8363,
      "f4e5": 8364,
      "1f20": 8365,
      "1ce0": 8366,
      "5cbe": 8367,
      "947a": 8368,
      "67af": 8369,
      "1812": 8370,
      "1a6f": 8371,
      "baa9": 8372,
      "816e": 8373,
      "16c1": 8374,
      "2d01": 8375,
      "3dc6": 8376,
      "5ffe": 8377,
      "59fc": 8378,
      "0fe8": 8379,
      "dcb9": 8380,
      "549d": 8381,
      "6e89": 8382,
      "57ab": 8383,
      "57ac": 8384,
      "7b31": 8385,
      "1a62": 8386,
      "5568": 8387,
      "c8b4": 8388,
      "b649": 8389,
      "01a8": 8390,
      "1408": 8391,
      "422f": 8392,
      "f616": 8393,
      "1ac8": 8394,
      "487a": 8395,
      "1742": 8396,
      "ae7a": 8397,
      "b3dc": 8398,
      "c1c6": 8399,
      "af65": 8400,
      "bf74": 8401,
      "8ed6": 8402,
      "1e10": 8403,
      "e934": 8404,
      "7211": 8405,
      "154f": 8406,
      "0ffc": 8407,
      "64f6": 8408,
      "8c0f": 8409,
      "8b9a": 8410,
      "9158": 8411,
      "a7e6": 8412,
      "30dc": 8413,
      "34bd": 8414,
      "4478": 8415,
      "2eae": 8416,
      "5e1a": 8417,
      "1727": 8418,
      "015f": 8419,
      "766a": 8420,
      "06e7": 8421,
      "f6c6": 8422,
      "f4e9": 8423,
      "9045": 8424,
      "2f21": 8425,
      "47ac": 8426,
      "0b67": 8427,
      "bd15": 8428,
      "6dd8": 8429,
      "f97c": 8430,
      "13c0": 8431,
      "1899": 8432,
      "6b71": 8433,
      "7701": 8434,
      "8689": 8435,
      "a628": 8436,
      "ac0d": 8437,
      "b50a": 8438,
      "f111": 8439,
      "7066": 8440,
      "6418": 8441,
      "9417": 8442,
      "0ebc": 8443,
      "ae96": 8444,
      "776a": 8445,
      "2b87": 8446,
      "ad5c": 8447,
      "8d35": 8448,
      "1838": 8449,
      "f632": 8450,
      "18c5": 8451,
      "68c5": 8452,
      "eaea": 8453,
      "4552": 8454,
      "777a": 8455,
      "9c9c": 8456,
      "ac16": 8457,
      "6c48": 8458,
      "6d17": 8459,
      "03a0": 8460,
      "688e": 8461,
      "e813": 8462,
      "c619": 8463,
      "11a4": 8464,
      "3008": 8465,
      "4545": 8466,
      "cdd8": 8467,
      "7ad7": 8468,
      "95ed": 8469,
      "a1e0": 8470,
      "3331": 8471,
      "7775": 8472,
      "2031": 8473,
      "8f3d": 8474,
      "7ce3": 8475,
      "6463": 8476,
      "db85": 8477,
      "ddb0": 8478,
      "c95f": 8479,
      "1a87": 8480,
      "366e": 8481,
      "69b8": 8482,
      "c5e0": 8483,
      "8245": 8484,
      "0b09": 8485,
      "1741": 8486,
      "18ed": 8487,
      "1033": 8488,
      "9f69": 8489,
      "cc34": 8490,
      "572c": 8491,
      "1a31": 8492,
      "ea6a": 8493,
      "07f6": 8494,
      "22e3": 8495,
      "2279": 8496,
      "d87a": 8497,
      "3de0": 8498,
      "3ec6": 8499,
      "4b91": 8500,
      "ef9b": 8501,
      "a4ef": 8502,
      "aea6": 8503,
      "77bc": 8504,
      "0d8a": 8505,
      "033b": 8506,
      "666b": 8507,
      "18cc": 8508,
      "31b3": 8509,
      "b1e0": 8510,
      "b2d8": 8511,
      "4301": 8512,
      "0cf7": 8513,
      "1708": 8514,
      "2df5": 8515,
      "45a1": 8516,
      "6de7": 8517,
      "7ec1": 8518,
      "a9c0": 8519,
      "d601": 8520,
      "5052": 8521,
      "a4dd": 8522,
      "ce77": 8523,
      "db9b": 8524,
      "2817": 8525,
      "1a3c": 8526,
      "3214": 8527,
      "d2a0": 8528,
      "4546": 8529,
      "69db": 8530,
      "46e0": 8531,
      "3dcd": 8532,
      "7773": 8533,
      "ef67": 8534,
      "ae65": 8535,
      "ee27": 8536,
      "6d1e": 8537,
      "288c": 8538,
      "2825": 8539,
      "e517": 8540,
      "16d7": 8541,
      "5270": 8542,
      "5873": 8543,
      "119a": 8544,
      "5c08": 8545,
      "6209": 8546,
      "8be0": 8547,
      "20a6": 8548,
      "7087": 8549,
      "bf8f": 8550,
      "bcd4": 8551,
      "b41e": 8552,
      "c41b": 8553,
      "99a0": 8554,
      "3958": 8555,
      "322b": 8556,
      "a11b": 8557,
      "c5fd": 8558,
      "aa74": 8559,
      "67f3": 8560,
      "a2d1": 8561,
      "0e03": 8562,
      "26a1": 8563,
      "5e46": 8564,
      "7591": 8565,
      "ba52": 8566,
      "e231": 8567,
      "407a": 8568,
      "fc8e": 8569,
      "649c": 8570,
      "3d1e": 8571,
      "a919": 8572,
      "32a0": 8573,
      "020e": 8574,
      "0143": 8575,
      "68f6": 8576,
      "63f4": 8577,
      "e876": 8578,
      "997d": 8579,
      "7345": 8580,
      "0eba": 8581,
      "4e47": 8582,
      "6f0f": 8583,
      "dde0": 8584,
      "3046": 8585,
      "6f25": 8586,
      "2c23": 8587,
      "149d": 8588,
      "6760": 8589,
      "1815": 8590,
      "57c6": 8591,
      "7802": 8592,
      "a18e": 8593,
      "ba02": 8594,
      "ffbf": 8595,
      "bc73": 8596,
      "3419": 8597,
      "345a": 8598,
      "4469": 8599,
      "6420": 8600,
      "0233": 8601,
      "692b": 8602,
      "a9a7": 8603,
      "7ae0": 8604,
      "0358": 8605,
      "4386": 8606,
      "f108": 8607,
      "5e14": 8608,
      "0bd9": 8609,
      "12a4": 8610,
      "38f1": 8611,
      "017c": 8612,
      "494d": 8613,
      "87c9": 8614,
      "c444": 8615,
      "5008": 8616,
      "0656": 8617,
      "52b4": 8618,
      "6681": 8619,
      "9df3": 8620,
      "e406": 8621,
      "f605": 8622,
      "f745": 8623,
      "406d": 8624,
      "f07a": 8625,
      "8f2c": 8626,
      "f466": 8627,
      "9d58": 8628,
      "f52e": 8629,
      "2aaf": 8630,
      "323e": 8631,
      "b39e": 8632,
      "76ac": 8633,
      "1abc": 8634,
      "e7fd": 8635,
      "86e0": 8636,
      "d8b0": 8637,
      "caf9": 8638,
      "d577": 8639,
      "1b4b": 8640,
      "79c6": 8641,
      "b908": 8642,
      "9c1b": 8643,
      "ac7a": 8644,
      "8c41": 8645,
      "85af": 8646,
      "c35f": 8647,
      "1871": 8648,
      "65d6": 8649,
      "8678": 8650,
      "f7fd": 8651,
      "4007": 8652,
      "c30b": 8653,
      "3401": 8654,
      "50a6": 8655,
      "50c3": 8656,
      "b0d2": 8657,
      "f469": 8658,
      "058f": 8659,
      "1a94": 8660,
      "92da": 8661,
      "1ac6": 8662,
      "1845": 8663,
      "08c8": 8664,
      "59ea": 8665,
      "ba48": 8666,
      "0901": 8667,
      "0776": 8668,
      "3be0": 8669,
      "8886": 8670,
      "b153": 8671,
      "b048": 8672,
      "9ce0": 8673,
      "0bb0": 8674,
      "ad1c": 8675,
      "7db0": 8676,
      "6833": 8677,
      "0344": 8678,
      "c1e1": 8679,
      "31f8": 8680,
      "59d7": 8681,
      "0321": 8682,
      "0186": 8683,
      "3109": 8684,
      "4295": 8685,
      "6d01": 8686,
      "620b": 8687,
      "a4e7": 8688,
      "e495": 8689,
      "6721": 8690,
      "378f": 8691,
      "7b2b": 8692,
      "6b87": 8693,
      "ad55": 8694,
      "089c": 8695,
      "6530": 8696,
      "95aa": 8697,
      "3a27": 8698,
      "2219": 8699,
      "3335": 8700,
      "c35b": 8701,
      "062e": 8702,
      "4578": 8703,
      "5cc1": 8704,
      "32ee": 8705,
      "ccc0": 8706,
      "48c3": 8707,
      "d578": 8708,
      "6e42": 8709,
      "9c08": 8710,
      "502d": 8711,
      "679e": 8712,
      "cb3f": 8713,
      "ad62": 8714,
      "a51a": 8715,
      "8248": 8716,
      "727a": 8717,
      "8008": 8718,
      "1389": 8719,
      "6a53": 8720,
      "9603": 8721,
      "9704": 8722,
      "bdc9": 8723,
      "4068": 8724,
      "048f": 8725,
      "442c": 8726,
      "379c": 8727,
      "b22f": 8728,
      "c25c": 8729,
      "6338": 8730,
      "02cc": 8731,
      "694b": 8732,
      "3577": 8733,
      "ac01": 8734,
      "f603": 8735,
      "8064": 8736,
      "208b": 8737,
      "e05a": 8738,
      "d0ed": 8739,
      "f7aa": 8740,
      "5b8f": 8741,
      "2d8a": 8742,
      "cdb4": 8743,
      "027a": 8744,
      "454f": 8745,
      "1ac0": 8746,
      "1ae5": 8747,
      "3241": 8748,
      "87f3": 8749,
      "86bc": 8750,
      "0398": 8751,
      "2251": 8752,
      "5605": 8753,
      "6b48": 8754,
      "a585": 8755,
      "5047": 8756,
      "bea4": 8757,
      "a770": 8758,
      "189c": 8759,
      "0284": 8760,
      "688d": 8761,
      "989b": 8762,
      "6a3f": 8763,
      "4a5e": 8764,
      "5265": 8765,
      "3242": 8766,
      "6ee5": 8767,
      "09cc": 8768,
      "5a02": 8769,
      "6386": 8770,
      "93aa": 8771,
      "aa03": 8772,
      "0ed0": 8773,
      "6789": 8774,
      "ab2b": 8775,
      "3727": 8776,
      "adab": 8777,
      "09ab": 8778,
      "0338": 8779,
      "4559": 8780,
      "322d": 8781,
      "21ad": 8782,
      "58b4": 8783,
      "b371": 8784,
      "caf3": 8785,
      "c8d3": 8786,
      "18eb": 8787,
      "aece": 8788,
      "c4c3": 8789,
      "eb0a": 8790,
      "0e93": 8791,
      "4e3d": 8792,
      "ae9b": 8793,
      "07a5": 8794,
      "18a8": 8795,
      "023c": 8796,
      "e55b": 8797,
      "a8b0": 8798,
      "33c2": 8799,
      "b17a": 8800,
      "9908": 8801,
      "d06f": 8802,
      "0e35": 8803,
      "0bd7": 8804,
      "dba2": 8805,
      "6d87": 8806,
      "02ac": 8807,
      "b23b": 8808,
      "318a": 8809,
      "4f02": 8810,
      "5508": 8811,
      "6a51": 8812,
      "5098": 8813,
      "9cec": 8814,
      "bc7a": 8815,
      "5cd9": 8816,
      "046c": 8817,
      "e88d": 8818,
      "3264": 8819,
      "5267": 8820,
      "5139": 8821,
      "29ba": 8822,
      "1249": 8823,
      "b8d9": 8824,
      "737b": 8825,
      "bb4f": 8826,
      "9738": 8827,
      "2d1c": 8828,
      "453e": 8829,
      "b8f0": 8830,
      "6874": 8831,
      "019a": 8832,
      "5eb9": 8833,
      "770f": 8834,
      "c8a6": 8835,
      "d20e": 8836,
      "50f3": 8837,
      "afdb": 8838,
      "9cda": 8839,
      "bc6f": 8840,
      "6c36": 8841,
      "44a0": 8842,
      "87de": 8843,
      "353d": 8844,
      "a935": 8845,
      "1a84": 8846,
      "2320": 8847,
      "866c": 8848,
      "b87a": 8849,
      "18e7": 8850,
      "2501": 8851,
      "6a55": 8852,
      "860b": 8853,
      "f701": 8854,
      "af3c": 8855,
      "34a4": 8856,
      "74a3": 8857,
      "c41a": 8858,
      "1b90": 8859,
      "0d33": 8860,
      "c88c": 8861,
      "d53c": 8862,
      "a535": 8863,
      "3a1b": 8864,
      "497f": 8865,
      "46b7": 8866,
      "6547": 8867,
      "b301": 8868,
      "2d78": 8869,
      "2f0d": 8870,
      "af1b": 8871,
      "0cdc": 8872,
      "0cda": 8873,
      "0435": 8874,
      "d417": 8875,
      "d4dc": 8876,
      "2e96": 8877,
      "1a67": 8878,
      "938b": 8879,
      "02e3": 8880,
      "c6f9": 8881,
      "c5cd": 8882,
      "1116": 8883,
      "3a02": 8884,
      "6a0f": 8885,
      "60f3": 8886,
      "3fea": 8887,
      "9c27": 8888,
      "8c9c": 8889,
      "5c49": 8890,
      "eba9": 8891,
      "f817": 8892,
      "3916": 8893,
      "0376": 8894,
      "22e9": 8895,
      "1977": 8896,
      "c6de": 8897,
      "e2d5": 8898,
      "da77": 8899,
      "0255": 8900,
      "2d52": 8901,
      "3206": 8902,
      "4107": 8903,
      "30d8": 8904,
      "2f40": 8905,
      "bf6a": 8906,
      "7c14": 8907,
      "0aa0": 8908,
      "922d": 8909,
      "4335": 8910,
      "c3ac": 8911,
      "0249": 8912,
      "b9e1": 8913,
      "bacf": 8914,
      "5bf5": 8915,
      "6af5": 8916,
      "174b": 8917,
      "17e0": 8918,
      "258a": 8919,
      "3efd": 8920,
      "6f0a": 8921,
      "8dc0": 8922,
      "94f2": 8923,
      "9e05": 8924,
      "a5b5": 8925,
      "b8e0": 8926,
      "7f62": 8927,
      "749c": 8928,
      "b98f": 8929,
      "b58b": 8930,
      "a88d": 8931,
      "552f": 8932,
      "18d7": 8933,
      "add5": 8934,
      "2002": 8935,
      "708d": 8936,
      "6f37": 8937,
      "d49b": 8938,
      "3e5e": 8939,
      "17a3": 8940,
      "8d6f": 8941,
      "6d97": 8942,
      "aa69": 8943,
      "9217": 8944,
      "366d": 8945,
      "66b1": 8946,
      "5271": 8947,
      "4a70": 8948,
      "4509": 8949,
      "54e3": 8950,
      "9a0e": 8951,
      "50ee": 8952,
      "ffaa": 8953,
      "cce2": 8954,
      "bcda": 8955,
      "6c42": 8956,
      "5c17": 8957,
      "7470": 8958,
      "479d": 8959,
      "4bdc": 8960,
      "0260": 8961,
      "3a5d": 8962,
      "2a19": 8963,
      "d120": 8964,
      "45c2": 8965,
      "66b7": 8966,
      "e1d0": 8967,
      "028a": 8968,
      "53e0": 8969,
      "640b": 8970,
      "c10a": 8971,
      "db7b": 8972,
      "f7e8": 8973,
      "308c": 8974,
      "c023": 8975,
      "bcdb": 8976,
      "9d36": 8977,
      "6d64": 8978,
      "18ac": 8979,
      "492a": 8980,
      "1914": 8981,
      "8817": 8982,
      "223d": 8983,
      "a16c": 8984,
      "1adb": 8985,
      "aee1": 8986,
      "16f0": 8987,
      "bad3": 8988,
      "7a74": 8989,
      "2802": 8990,
      "2689": 8991,
      "3eb2": 8992,
      "35a1": 8993,
      "d101": 8994,
      "9c26": 8995,
      "4c45": 8996,
      "f47a": 8997,
      "3e33": 8998,
      "ce1e": 8999,
      "77a5": 9000,
      "bb87": 9001,
      "3d30": 9002,
      "cd11": 9003,
      "b51e": 9004,
      "6a38": 9005,
      "6346": 9006,
      "4977": 9007,
      "bad0": 9008,
      "e6d6": 9009,
      "08e0": 9010,
      "69fd": 9011,
      "71c4": 9012,
      "9cfc": 9013,
      "a708": 9014,
      "db4c": 9015,
      "9f13": 9016,
      "2eaf": 9017,
      "59a0": 9018,
      "011d": 9019,
      "8654": 9020,
      "0ae1": 9021,
      "aa47": 9022,
      "450f": 9023,
      "95b2": 9024,
      "a1a3": 9025,
      "b902": 9026,
      "6964": 9027,
      "0114": 9028,
      "c697": 9029,
      "4974": 9030,
      "edd6": 9031,
      "a64d": 9032,
      "da74": 9033,
      "077b": 9034,
      "0136": 9035,
      "1f09": 9036,
      "2e78": 9037,
      "890f": 9038,
      "f606": 9039,
      "ae13": 9040,
      "c535": 9041,
      "aa38": 9042,
      "03b3": 9043,
      "07fc": 9044,
      "18b5": 9045,
      "ca4a": 9046,
      "0ee0": 9047,
      "0e0a": 9048,
      "18a2": 9049,
      "91aa": 9050,
      "507a": 9051,
      "20fe": 9052,
      "6cd8": 9053,
      "1c9b": 9054,
      "6720": 9055,
      "7aac": 9056,
      "e317": 9057,
      "e870": 9058,
      "87fd": 9059,
      "39fd": 9060,
      "b07a": 9061,
      "f029": 9062,
      "7488": 9063,
      "ae89": 9064,
      "d719": 9065,
      "89ad": 9066,
      "891d": 9067,
      "0241": 9068,
      "01ba": 9069,
      "1870": 9070,
      "18c8": 9071,
      "31b5": 9072,
      "71dc": 9073,
      "86bf": 9074,
      "2285": 9075,
      "45a6": 9076,
      "6a52": 9077,
      "e0cc": 9078,
      "70ac": 9079,
      "2fc0": 9080,
      "2fb3": 9081,
      "04a0": 9082,
      "b455": 9083,
      "b7ac": 9084,
      "8d8a": 9085,
      "bbf7": 9086,
      "bace": 9087,
      "3147": 9088,
      "88be": 9089,
      "25e0": 9090,
      "230e": 9091,
      "8301": 9092,
      "0b06": 9093,
      "1a86": 9094,
      "91a1": 9095,
      "a8e0": 9096,
      "bd08": 9097,
      "807a": 9098,
      "2087": 9099,
      "cc7a": 9100,
      "d427": 9101,
      "9e63": 9102,
      "1b11": 9103,
      "3d9d": 9104,
      "f823": 9105,
      "688f": 9106,
      "5aa0": 9107,
      "c68d": 9108,
      "4808": 9109,
      "3eba": 9110,
      "3ef5": 9111,
      "3791": 9112,
      "974e": 9113,
      "9395": 9114,
      "bef2": 9115,
      "10e4": 9116,
      "b08b": 9117,
      "c08d": 9118,
      "4e66": 9119,
      "9bee": 9120,
      "0820": 9121,
      "0269": 9122,
      "3a16": 9123,
      "e29f": 9124,
      "01a4": 9125,
      "313d": 9126,
      "aadf": 9127,
      "12d3": 9128,
      "bee4": 9129,
      "15eb": 9130,
      "2eb8": 9131,
      "450a": 9132,
      "63d2": 9133,
      "8902": 9134,
      "8a07": 9135,
      "10e0": 9136,
      "bc6b": 9137,
      "2eac": 9138,
      "4b88": 9139,
      "1d34": 9140,
      "02ab": 9141,
      "3a20": 9142,
      "06af": 9143,
      "e68c": 9144,
      "edd3": 9145,
      "357c": 9146,
      "4647": 9147,
      "21f1": 9148,
      "d1f0": 9149,
      "2d03": 9150,
      "2e06": 9151,
      "5f09": 9152,
      "89fa": 9153,
      "a60e": 9154,
      "b508": 9155,
      "b996": 9156,
      "cf01": 9157,
      "e283": 9158,
      "5092": 9159,
      "5fc3": 9160,
      "2f3b": 9161,
      "cfe2": 9162,
      "6edb": 9163,
      "5b6c": 9164,
      "c71a": 9165,
      "db86": 9166,
      "1b30": 9167,
      "9d69": 9168,
      "0215": 9169,
      "d665": 9170,
      "18f6": 9171,
      "63f8": 9172,
      "3aec": 9173,
      "c008": 9174,
      "01a2": 9175,
      "44e7": 9176,
      "7de0": 9177,
      "9ef3": 9178,
      "e8e0": 9179,
      "509d": 9180,
      "7047": 9181,
      "b717": 9182,
      "1769": 9183,
      "edae": 9184,
      "03a4": 9185,
      "05ce": 9186,
      "18b7": 9187,
      "1a71": 9188,
      "08e2": 9189,
      "b8e4": 9190,
      "1fdc": 9191,
      "bf53": 9192,
      "cce1": 9193,
      "6c67": 9194,
      "049c": 9195,
      "ee39": 9196,
      "bb74": 9197,
      "1859": 9198,
      "8194": 9199,
      "12cc": 9200,
      "324c": 9201,
      "400b": 9202,
      "015a": 9203,
      "1dfd": 9204,
      "11a9": 9205,
      "17ed": 9206,
      "2b0a": 9207,
      "6703": 9208,
      "7386": 9209,
      "71a6": 9210,
      "adfa": 9211,
      "ab07": 9212,
      "2cb3": 9213,
      "f491": 9214,
      "6e39": 9215,
      "2e61": 9216,
      "0339": 9217,
      "8884": 9218,
      "752f": 9219,
      "b35f": 9220,
      "361b": 9221,
      "81ad": 9222,
      "3249": 9223,
      "56c5": 9224,
      "47c0": 9225,
      "cbcb": 9226,
      "2cc0": 9227,
      "0e08": 9228,
      "8b77": 9229,
      "ef01": 9230,
      "8058": 9231,
      "d0a5": 9232,
      "3ed0": 9233,
      "8ea8": 9234,
      "3567": 9235,
      "c917": 9236,
      "a835": 9237,
      "ba35": 9238,
      "3265": 9239,
      "c122": 9240,
      "18d4": 9241,
      "b249": 9242,
      "1ae0": 9243,
      "5142": 9244,
      "5aef": 9245,
      "1b92": 9246,
      "5501": 9247,
      "6b01": 9248,
      "b2bd": 9249,
      "ba03": 9250,
      "5036": 9251,
      "2f38": 9252,
      "cfc2": 9253,
      "5c34": 9254,
      "1e88": 9255,
      "8724": 9256,
      "2b28": 9257,
      "e725": 9258,
      "899b": 9259,
      "1a30": 9260,
      "1a23": 9261,
      "45aa": 9262,
      "03b8": 9263,
      "45ca": 9264,
      "f1f7": 9265,
      "8001": 9266,
      "7d04": 9267,
      "ab08": 9268,
      "ada2": 9269,
      "10fe": 9270,
      "8f58": 9271,
      "5f28": 9272,
      "bf25": 9273,
      "7f4e": 9274,
      "d32c": 9275,
      "7377": 9276,
      "2808": 9277,
      "12a6": 9278,
      "1dfc": 9279,
      "1a0f": 9280,
      "2ffd": 9281,
      "2f0e": 9282,
      "41a2": 9283,
      "4108": 9284,
      "8187": 9285,
      "8e71": 9286,
      "9ef2": 9287,
      "adcc": 9288,
      "cecd": 9289,
      "8019": 9290,
      "405b": 9291,
      "70b8": 9292,
      "8cd5": 9293,
      "4c90": 9294,
      "848f": 9295,
      "7b1b": 9296,
      "6b9d": 9297,
      "dd28": 9298,
      "a938": 9299,
      "2926": 9300,
      "c98a": 9301,
      "b6af": 9302,
      "511c": 9303,
      "a1a0": 9304,
      "11be": 9305,
      "2245": 9306,
      "58d2": 9307,
      "4208": 9308,
      "51cc": 9309,
      "72a3": 9310,
      "dd08": 9311,
      "d094": 9312,
      "8f77": 9313,
      "df9c": 9314,
      "7f2a": 9315,
      "8ce6": 9316,
      "87ac": 9317,
      "9b32": 9318,
      "1b8d": 9319,
      "ddaa": 9320,
      "39ad": 9321,
      "3a28": 9322,
      "1264": 9323,
      "e149": 9324,
      "138a": 9325,
      "3407": 9326,
      "4be0": 9327,
      "c129": 9328,
      "f631": 9329,
      "e0bc": 9330,
      "5fd1": 9331,
      "4794": 9332,
      "1a26": 9333,
      "455e": 9334,
      "4522": 9335,
      "faa9": 9336,
      "633d": 9337,
      "6342": 9338,
      "12cd": 9339,
      "86d0": 9340,
      "185a": 9341,
      "608d": 9342,
      "408d": 9343,
      "bbad": 9344,
      "cd29": 9345,
      "3859": 9346,
      "6367": 9347,
      "43ab": 9348,
      "06b4": 9349,
      "a949": 9350,
      "56c0": 9351,
      "59e9": 9352,
      "ea48": 9353,
      "0223": 9354,
      "2ef4": 9355,
      "2359": 9356,
      "33a2": 9357,
      "7408": 9358,
      "b4f2": 9359,
      "5f34": 9360,
      "9c2b": 9361,
      "3474": 9362,
      "9e35": 9363,
      "d734": 9364,
      "7bbf": 9365,
      "3a21": 9366,
      "129f": 9367,
      "722c": 9368,
      "74ce": 9369,
      "a901": 9370,
      "ae08": 9371,
      "cfe0": 9372,
      "0c21": 9373,
      "a49d": 9374,
      "e4de": 9375,
      "67ad": 9376,
      "873d": 9377,
      "09a8": 9378,
      "b27a": 9379,
      "c304": 9380,
      "0601": 9381,
      "1e76": 9382,
      "2508": 9383,
      "23a8": 9384,
      "2efd": 9385,
      "39c6": 9386,
      "34fd": 9387,
      "45b8": 9388,
      "b747": 9389,
      "50f0": 9390,
      "8ca0": 9391,
      "8cdf": 9392,
      "fc39": 9393,
      "d435": 9394,
      "3e58": 9395,
      "2dab": 9396,
      "2d84": 9397,
      "6dbb": 9398,
      "c267": 9399,
      "013f": 9400,
      "735c": 9401,
      "8634": 9402,
      "3135": 9403,
      "0348": 9404,
      "35fd": 9405,
      "7ad2": 9406,
      "19bd": 9407,
      "27f8": 9408,
      "0bff": 9409,
      "45ba": 9410,
      "4795": 9411,
      "5603": 9412,
      "8c7a": 9413,
      "be8d": 9414,
      "07dc": 9415,
      "4dab": 9416,
      "182e": 9417,
      "48a0": 9418,
      "024f": 9419,
      "33b5": 9420,
      "53b3": 9421,
      "b8bf": 9422,
      "c30a": 9423,
      "2901": 9424,
      "d708": 9425,
      "50d1": 9426,
      "2f88": 9427,
      "af4c": 9428,
      "04e0": 9429,
      "cd6c": 9430,
      "188b": 9431,
      "885f": 9432,
      "aa2a": 9433,
      "45f4": 9434,
      "78b5": 9435,
      "8d7d": 9436,
      "c601": 9437,
      "a46c": 9438,
      "0e1c": 9439,
      "278e": 9440,
      "aba0": 9441,
      "b235": 9442,
      "18d2": 9443,
      "2246": 9444,
      "f945": 9445,
      "d9d4": 9446,
      "01cc": 9447,
      "1198": 9448,
      "23e3": 9449,
      "4dfa": 9450,
      "9c01": 9451,
      "207a": 9452,
      "3c7f": 9453,
      "546d": 9454,
      "94e0": 9455,
      "ceb0": 9456,
      "6bb7": 9457,
      "dd22": 9458,
      "19a8": 9459,
      "2835": 9460,
      "1259": 9461,
      "512b": 9462,
      "33fd": 9463,
      "12ef": 9464,
      "7aca": 9465,
      "e44a": 9466,
      "170d": 9467,
      "2113": 9468,
      "38e0": 9469,
      "4ff2": 9470,
      "3498": 9471,
      "5415": 9472,
      "9b5b": 9473,
      "039f": 9474,
      "42ac": 9475,
      "119f": 9476,
      "1acb": 9477,
      "5bc6": 9478,
      "9847": 9479,
      "fbc6": 9480,
      "089a": 9481,
      "6ecb": 9482,
      "9c0f": 9483,
      "2f67": 9484,
      "ac35": 9485,
      "bc49": 9486,
      "ec78": 9487,
      "ae5c": 9488,
      "1b20": 9489,
      "bd35": 9490,
      "aa89": 9491,
      "231d": 9492,
      "1879": 9493,
      "d2e0": 9494,
      "07eb": 9495,
      "11a2": 9496,
      "3152": 9497,
      "7dcc": 9498,
      "aec6": 9499,
      "bf01": 9500,
      "fe04": 9501,
      "4f8e": 9502,
      "0fbf": 9503,
      "5c4d": 9504,
      "7cb0": 9505,
      "643c": 9506,
      "778a": 9507,
      "8732": 9508,
      "8827": 9509,
      "8a5b": 9510,
      "18d9": 9511,
      "45d1": 9512,
      "c6d0": 9513,
      "587e": 9514,
      "3104": 9515,
      "6a98": 9516,
      "9608": 9517,
      "9def": 9518,
      "9355": 9519,
      "a4fd": 9520,
      "10c0": 9521,
      "2f23": 9522,
      "0487": 9523,
      "aed3": 9524,
      "6b28": 9525,
      "5266": 9526,
      "f3ad": 9527,
      "0acf": 9528,
      "02e1": 9529,
      "454c": 9530,
      "accc": 9531,
      "12c9": 9532,
      "a848": 9533,
      "96fe": 9534,
      "2301": 9535,
      "8801": 9536,
      "11c0": 9537,
      "9f0f": 9538,
      "d0bc": 9539,
      "7487": 9540,
      "3e25": 9541,
      "3e63": 9542,
      "9e97": 9543,
      "d7a2": 9544,
      "2b39": 9545,
      "3b88": 9546,
      "6d34": 9547,
      "03ae": 9548,
      "1a19": 9549,
      "062d": 9550,
      "180f": 9551,
      "aac3": 9552,
      "c8fb": 9553,
      "4009": 9554,
      "0152": 9555,
      "3f08": 9556,
      "83a9": 9557,
      "d8ed": 9558,
      "5065": 9559,
      "20d2": 9560,
      "7056": 9561,
      "cce0": 9562,
      "4c9d": 9563,
      "2c60": 9564,
      "3e6e": 9565,
      "3e1b": 9566,
      "2e98": 9567,
      "9ba8": 9568,
      "2b38": 9569,
      "cb85": 9570,
      "2d6a": 9571,
      "023b": 9572,
      "89a9": 9573,
      "4868": 9574,
      "035f": 9575,
      "b5a9": 9576,
      "07c1": 9577,
      "e5c1": 9578,
      "5a4e": 9579,
      "4101": 9580,
      "a74c": 9581,
      "ec08": 9582,
      "fe03": 9583,
      "108e": 9584,
      "606d": 9585,
      "5f40": 9586,
      "ff2f": 9587,
      "a7ab": 9588,
      "8d65": 9589,
      "b935": 9590,
      "d5af": 9591,
      "b33c": 9592,
      "4975": 9593,
      "7ad9": 9594,
      "1ae8": 9595,
      "29bc": 9596,
      "824f": 9597,
      "a2fc": 9598,
      "09c6": 9599,
      "0cf0": 9600,
      "1903": 9601,
      "7508": 9602,
      "a4c4": 9603,
      "b3aa": 9604,
      "ddc5": 9605,
      "b0dc": 9606,
      "6f24": 9607,
      "9c33": 9608,
      "bc4e": 9609,
      "bc4d": 9610,
      "57a8": 9611,
      "2d34": 9612,
      "dd3d": 9613,
      "0297": 9614,
      "8989": 9615,
      "a911": 9616,
      "191f": 9617,
      "98ad": 9618,
      "622e": 9619,
      "0149": 9620,
      "03fa": 9621,
      "1691": 9622,
      "d6a3": 9623,
      "c07b": 9624,
      "bf30": 9625,
      "6cb9": 9626,
      "5ce4": 9627,
      "7ce0": 9628,
      "7474": 9629,
      "1e66": 9630,
      "6bbf": 9631,
      "99a8": 9632,
      "29ad": 9633,
      "027e": 9634,
      "45e1": 9635,
      "73fb": 9636,
      "dabe": 9637,
      "4005": 9638,
      "4002": 9639,
      "3e43": 9640,
      "4c08": 9641,
      "d3de": 9642,
      "20a4": 9643,
      "3f39": 9644,
      "ef88": 9645,
      "ac4e": 9646,
      "048c": 9647,
      "341a": 9648,
      "9bb4": 9649,
      "dd3a": 9650,
      "a9ac": 9651,
      "29a9": 9652,
      "4589": 9653,
      "4a30": 9654,
      "163d": 9655,
      "06df": 9656,
      "9977": 9657,
      "a970": 9658,
      "7847": 9659,
      "054d": 9660,
      "39b0": 9661,
      "0b45": 9662,
      "3e78": 9663,
      "bc08": 9664,
      "b70b": 9665,
      "c5b0": 9666,
      "8065": 9667,
      "5cbb": 9668,
      "c4bc": 9669,
      "0ebb": 9670,
      "eda5": 9671,
      "9927": 9672,
      "a83e": 9673,
      "3820": 9674,
      "3178": 9675,
      "1bc1": 9676,
      "23f7": 9677,
      "c5c1": 9678,
      "3801": 9679,
      "7008": 9680,
      "3e05": 9681,
      "69f9": 9682,
      "f7b9": 9683,
      "6f6d": 9684,
      "ffe1": 9685,
      "3ebc": 9686,
      "2e64": 9687,
      "8d18": 9688,
      "1865": 9689,
      "1a21": 9690,
      "d533": 9691,
      "2217": 9692,
      "a3a7": 9693,
      "865e": 9694,
      "113c": 9695,
      "1139": 9696,
      "22ef": 9697,
      "867d": 9698,
      "c6bd": 9699,
      "bddf": 9700,
      "29f0": 9701,
      "3efb": 9702,
      "77bd": 9703,
      "a749": 9704,
      "c15a": 9705,
      "bc46": 9706,
      "2ead": 9707,
      "453c": 9708,
      "a3ac": 9709,
      "b6ad": 9710,
      "31a7": 9711,
      "09ba": 9712,
      "1ae7": 9713,
      "66e1": 9714,
      "b1fd": 9715,
      "15c6": 9716,
      "0253": 9717,
      "2601": 9718,
      "3388": 9719,
      "474c": 9720,
      "bd05": 9721,
      "c701": 9722,
      "4069": 9723,
      "30db": 9724,
      "d0fd": 9725,
      "0f92": 9726,
      "6faa": 9727,
      "efb9": 9728,
      "345d": 9729,
      "0e89": 9730,
      "a9ad": 9731,
      "458e": 9732,
      "6a9f": 9733,
      "da2e": 9734,
      "015c": 9735,
      "0276": 9736,
      "454a": 9737,
      "02d7": 9738,
      "b1ee": 9739,
      "567f": 9740,
      "28cc": 9741,
      "f344": 9742,
      "2e75": 9743,
      "a203": 9744,
      "d7b8": 9745,
      "f8e9": 9746,
      "c79c": 9747,
      "081a": 9748,
      "b96b": 9749,
      "c91c": 9750,
      "1a9c": 9751,
      "c5a8": 9752,
      "01a0": 9753,
      "8387": 9754,
      "0273": 9755,
      "197d": 9756,
      "0ccf": 9757,
      "0285": 9758,
      "01ca": 9759,
      "1658": 9760,
      "45b5": 9761,
      "8223": 9762,
      "4041": 9763,
      "2f3a": 9764,
      "3e69": 9765,
      "4e13": 9766,
      "1e15": 9767,
      "1b87": 9768,
      "4b17": 9769,
      "0dad": 9770,
      "798f": 9771,
      "45a9": 9772,
      "6a64": 9773,
      "c611": 9774,
      "19b4": 9775,
      "abf1": 9776,
      "884d": 9777,
      "71ba": 9778,
      "1cf7": 9779,
      "5dce": 9780,
      "6104": 9781,
      "c101": 9782,
      "e582": 9783,
      "2022": 9784,
      "efdb": 9785,
      "7c69": 9786,
      "64d8": 9787,
      "6b23": 9788,
      "05a0": 9789,
      "182b": 9790,
      "f9ab": 9791,
      "1a1c": 9792,
      "45ab": 9793,
      "b559": 9794,
      "4368": 9795,
      "c1af": 9796,
      "7138": 9797,
      "0942": 9798,
      "4543": 9799,
      "c8be": 9800,
      "b349": 9801,
      "edd8": 9802,
      "25d8": 9803,
      "e873": 9804,
      "f871": 9805,
      "02bf": 9806,
      "1d4b": 9807,
      "2d96": 9808,
      "5701": 9809,
      "8d01": 9810,
      "ce08": 9811,
      "ed92": 9812,
      "5097": 9813,
      "cce9": 9814,
      "77a8": 9815,
      "385e": 9816,
      "c821": 9817,
      "23ab": 9818,
      "0945": 9819,
      "85e3": 9820,
      "2973": 9821,
      "3948": 9822,
      "b808": 9823,
      "3111": 9824,
      "5e01": 9825,
      "6108": 9826,
      "b9f1": 9827,
      "8048": 9828,
      "2f8a": 9829,
      "cc47": 9830,
      "441f": 9831,
      "ad58": 9832,
      "8daa": 9833,
      "9d90": 9834,
      "35a0": 9835,
      "ea26": 9836,
      "b3ad": 9837,
      "02e9": 9838,
      "4370": 9839,
      "400f": 9840,
      "f808": 9841,
      "64f0": 9842,
      "9be3": 9843,
      "fc06": 9844,
      "f909": 9845,
      "0cec": 9846,
      "242c": 9847,
      "743a": 9848,
      "3ed8": 9849,
      "031a": 9850,
      "4539": 9851,
      "c868": 9852,
      "3157": 9853,
      "45e9": 9854,
      "77c4": 9855,
      "e6b1": 9856,
      "f6b0": 9857,
      "52df": 9858,
      "6902": 9859,
      "68e1": 9860,
      "50cc": 9861,
      "0411": 9862,
      "547a": 9863,
      "47ae": 9864,
      "18af": 9865,
      "a920": 9866,
      "c91b": 9867,
      "3928": 9868,
      "6855": 9869,
      "eaa4": 9870,
      "8a28": 9871,
      "73a7": 9872,
      "1eeb": 9873,
      "18c3": 9874,
      "3eeb": 9875,
      "167b": 9876,
      "98f5": 9877,
      "0675": 9878,
      "1386": 9879,
      "18a6": 9880,
      "3ef0": 9881,
      "d0dd": 9882,
      "2f28": 9883,
      "afac": 9884,
      "6e65": 9885,
      "1770": 9886,
      "6730": 9887,
      "dbdc": 9888,
      "cbab": 9889,
      "3d9f": 9890,
      "55ab": 9891,
      "4214": 9892,
      "c316": 9893,
      "91a0": 9894,
      "4547": 9895,
      "45cb": 9896,
      "add1": 9897,
      "8af3": 9898,
      "484e": 9899,
      "4bf0": 9900,
      "f1ef": 9901,
      "7301": 9902,
      "2b41": 9903,
      "71cb": 9904,
      "a691": 9905,
      "a401": 9906,
      "b203": 9907,
      "b506": 9908,
      "b7e2": 9909,
      "50e6": 9910,
      "8f92": 9911,
      "9e59": 9912,
      "89af": 9913,
      "999f": 9914,
      "4835": 9915,
      "1a8b": 9916,
      "4594": 9917,
      "4538": 9918,
      "aa5b": 9919,
      "5697": 9920,
      "184c": 9921,
      "6642": 9922,
      "b641": 9923,
      "39e9": 9924,
      "e2e2": 9925,
      "2da6": 9926,
      "80b1": 9927,
      "10fa": 9928,
      "8f6c": 9929,
      "bc77": 9930,
      "3c82": 9931,
      "dd27": 9932,
      "4536": 9933,
      "85ad": 9934,
      "da67": 9935,
      "a635": 9936,
      "715b": 9937,
      "02ee": 9938,
      "4af4": 9939,
      "35ef": 9940,
      "3cc1": 9941,
      "12b0": 9942,
      "2707": 9943,
      "34c4": 9944,
      "7908": 9945,
      "7f01": 9946,
      "305d": 9947,
      "5b8e": 9948,
      "2bb0": 9949,
      "5732": 9950,
      "6955": 9951,
      "6829": 9952,
      "655b": 9953,
      "ea9b": 9954,
      "526c": 9955,
      "5269": 9956,
      "084e": 9957,
      "4572": 9958,
      "26c0": 9959,
      "a542": 9960,
      "b270": 9961,
      "f97d": 9962,
      "880a": 9963,
      "c306": 9964,
      "c308": 9965,
      "0d01": 9966,
      "07ba": 9967,
      "3116": 9968,
      "4621": 9969,
      "5504": 9970,
      "5389": 9971,
      "6d4c": 9972,
      "8693": 9973,
      "874e": 9974,
      "9b7b": 9975,
      "e201": 9976,
      "205e": 9977,
      "2055": 9978,
      "4048": 9979,
      "af49": 9980,
      "cf36": 9981,
      "aca6": 9982,
      "1729": 9983,
      "ad35": 9984,
      "2d77": 9985,
      "69aa": 9986,
      "191e": 9987,
      "829c": 9988,
      "020d": 9989,
      "457b": 9990,
      "41b3": 9991,
      "2d09": 9992,
      "318f": 9993,
      "458a": 9994,
      "6bb9": 9995,
      "67e4": 9996,
      "938a": 9997,
      "f7e6": 9998,
      "60f0": 9999,
      "b02d": 10000,
      "3f9a": 10001,
      "9f70": 10002,
      "fcb9": 10003,
      "2431": 10004,
      "3e35": 10005,
      "77bb": 10006,
      "9bbf": 10007,
      "4817": 10008,
      "1958": 10009,
      "036e": 10010,
      "588e": 10011,
      "25a7": 10012,
      "e39d": 10013,
      "8127": 10014,
      "02d0": 10015,
      "4970": 10016,
      "2eec": 10017,
      "9328": 10018,
      "a4c1": 10019,
      "bda6": 10020,
      "80be": 10021,
      "704c": 10022,
      "9f5b": 10023,
      "df22": 10024,
      "07a9": 10025,
      "ad77": 10026,
      "788b": 10027,
      "aa97": 10028,
      "12a0": 10029,
      "f634": 10030,
      "0ebd": 10031,
      "0740": 10032,
      "2c0f": 10033,
      "3b49": 10034,
      "570c": 10035,
      "8cf0": 10036,
      "a9f0": 10037,
      "b5a3": 10038,
      "e5b3": 10039,
      "edcd": 10040,
      "50d3": 10041,
      "30fd": 10042,
      "a05e": 10043,
      "0fa5": 10044,
      "bfdb": 10045,
      "7494": 10046,
      "8e53": 10047,
      "67be": 10048,
      "dd3e": 10049,
      "dd35": 10050,
      "086f": 10051,
      "18a0": 10052,
      "d8a0": 10053,
[...]
