[PAD]
[SEP]
[CLS]
[UNK]
[MASK]
0
1
2
3
4
5
6
7
8
9
a
b
c
d
e
f
##6
##4
##d
##f
##9
##3
##c
##a
##5
##b
##2
##8
##7
##1
##e
##0
##00
##10
##80
##50
##20
##30
##17
##1f
##18
##a0
##24
##6e
##97
##34
##1e
##a4
##2b
##9b
##3b
##5b
##3d
##ad
##3e
##94
##14
##2e
##ab
##ac
##5f
##6d
##54
##3f
##2f
##6b
##1d
##6c
##9d
##2d
##9c
##9f
##af
##64
##ae
##5c
##5e
##3c
##1b
##1c
##27
##2c
##6f
##5d
##67
##57
##a7
##9e
##37
##60
##8f
##87
##90
##8b
##8e
##8d
##8c
##84
00
000
##70
##1a
##22
##35
##69
##ee
##bf
##38
##dd
##65
##44
##15
##3a
##19
##6a
##68
##bc
##39
##7c
##7f
##12
##32
##be
##b0
##7e
##74
##dc
##b4
##df
##62
50
##d0
##de
##d4
##89
##a9
##59
##ff
##cc
##a8
##a5
##29
##40
##e0
80
##11
0000
##b7
##28
##33
##c0
##ef
##66
##58
##4f
##cf
20
##aa
##77
##25
##bb
10
##e4
##99
##16
##13
##88
##55
##ec
##d7
##63
##2a
##4c
##f0
##db
e0
60
40
30
b0
c0
f0
a0
70
d0
90
4f
8f
5f
2f
##23
af
0f
6f
1f
3f
bf
9f
ff
##4e
df
7f
##7b
##85
ef
cf
##61
##d9
dc
0c
9c
cc
ac
bc
6c
3c
8c
4c
1c
5c
2c
7c
ec
fc
##8a
##5a
010
04
##eb
##31
##36
##21
##26
##e7
24
34
74
44
f4
64
b4
54
14
84
a4
e4
d4
94
c4
##b9
##da
##d8
##d5
##79
6e
0e
3e
2e
8e
4e
1e
ae
be
ce
7e
ee
5e
9e
fe
de
100
b7
97
07
77
47
f7
17
67
87
0b
5b
9b
c7
d7
27
ab
2b
a7
db
bb
57
37
e7
1b
8b
eb
7b
6b
4b
3b
fb
cb
##98
##9a
##95
3d
fd
0a
05
1d
ad
2d
8d
9d
ed
6d
dd
0d
bd
5d
7d
4d
cd
08
18
35
02
89
69
##d6
49
##53
##56
f8
f5
##83
##a6
99
##86
##51
b9
##d3
##52
##a1
##d2
##d1
##a2
##82
##81
a9
##a3
48
19
59
09
29
28
03
c9
f9
d9
79
1a
39
e9
45
88
b5
a8
68
98
ba
b8
58
65
78
85
38
e8
d8
15
25
e5
c8
55
d5
a5
7a
95
3a
c5
75
aa
6a
da
4a
2a
5010
ea
8a
fa
9a
5a
ca
22
12
32
0101
82
b2
62
a2
92
c2
e2
72
42
52
f2
d2
01
0001
93
c6
f3
33
83
23
b3
d3
63
43
c3
06
53
f6
13
73
a3
d6
e3
16
56
66
b6
a6
e6
46
86
76
36
26
96
##93
080
##92
##91
##96
f1
c1
11
31
b1
51
91
a1
21
81
41
d1
71
e1
61
##7a
0108
080a
##b8
##b6
##76
##b2
##b5
##b3
##75
##72
##b1
##73
##78
##71
##7d
##bd
##ba
030
8010
2020
##49
##45
##ed
##48
##46
##42
##47
##43
##4d
##4a
##e8
##4b
##e5
##e9
##41
##e1
##e3
##e2
##e6
##ea
1000
0a0
##703
01f
180
##c1
1001
##c6
0303
##c5
##cd
##ce
##cb
##c9
##ca
##c8
##c7
##c4
##c3
##c2
1703
1002
##000
0105
##50a
020
3bf
040
0020
024
0a4
994
38f
01f5
##2ba
##be2
0ad
014
00f
6dd
1ee
##e49
##90e
5018
03f
034
897
0ab
##a99
##ef1
0ac
##ff3
##131
01e
##de0
0ae
##603
##9f0
0af
##692
##5b4
92e
094
##591
f5d
017
06c
f5f
##70d
d6b
f5e
0a7
f5c
044
89d
1ab
a6e
42f
f57
300
##5b9
##598
4bc
03b
01d
02e
f54
87e
01b
##f6
##4c6
187
##203
03c
027
##504
06b
##fff
##8e0
##501
454
07f
06f
##7b3
09e
##403
##508
##156
92d
##39a
##be0
##a82
05c
1a4
##c08
22c
##9fd
037
##3e0
##182
##a51
##d08
acc
c8b
084
##eb5
##329
##b01
##585
##908
##601
02f
98b
634
##1a3
cdd
##f01
##1c6
45e
1ac
##223
##701
18b
##293
##58a
##388
##331
58b
##659
18d
##e03
##128
c5f
b9b
##9a6
##df8
a8b
##5b2
02c
537
184
02d
f17
##dfd
18c
18f
##4c3
##d01
614
##a52
22e
##693
49d
254
a6b
##ec6
087
##c01
07c
##4e5
##702
497
06e
35f
##9c6
45c
##689
69d
##2a6
##9f5
227
694
457
##da6
##113
##f08
##286
##5bb
69b
##eb1
31b
##a96
##386
##901
##c0f
##748
45f
b34
##198
7ad
##5b0
b24
##708
##ff8
664
09b
##b08
c1e
19b
##a81
1a7
##38a
##608
##2a1
##4f9
11b
##b03
##eb6
a9b
##eb9
##12a
064
##3dc
##328
12c
3ee
##e01
167
##1a9
aae
224
##899
134
##e08
f27
b3c
##a83
b5e
##4e9
05e
##a88
45d
##74e
1ae
e8b
##ef4
##2bd
##776
##298
324
##299
##5b6
##116
##1a2
##8ef
##503
##50b
##dc6
##502
##28a
17f
##7b2
c97
66b
##506
##a85
##333
66d
##d81
##9a2
##9f8
1ad
##903
edd
##777
##b02
add
##b4c
##d48
65d
06d
##ec3
##b93
##cf2
##b96
##5a6
417
##123
b6b
b67
e7f
##aaa
31e
a3b
a9d
b1e
6a4
##8a6
##553
##226
08d
##231
697
09d
31f
##b49
##c06
154
2ae
##eb8
##1a6
85e
b9e
##607
22d
357
##eb2
##2be
##e04
284
##c02
32c
##be8
964
##251
##2b7
25d
##dc2
344
23b
##bb2
##a58
##e0a
##1a1
aa4
##a86
217
##2b8
##18c
##2b0
##222
##a55
aad
##b48
##d91
##9c9
b64
##1aa
2ee
##904
##1a8
##3a9
##602
12d
##505
##3a8
bbf
##df0
##b4b
aab
65e
##551
##555
26c
##2b9
##d79
##cfb
##f02
##507
a94
38c
##5b3
657
##7b9
##1c0
##ec4
dac
89e
317
32f
c1b
##292
56c
##4f6
##c03
aac
##6a3
##9c4
c17
##e4e
##2bf
##5b5
1af
c6f
1cc
##b05
##2b4
534
##747
##ff0
##229
##50e
a54
29b
##70a
##d40
##184
##5a3
08b
b9d
a8c
##da3
197
e6e
11f
b2d
##604
68f
d34
bac
66f
##b95
##90a
2bf
32d
##596
##389
##2b5
##dfa
b44
63f
494
51b
##336
16c
##111
##187
444
##706
##d0b
##772
16d
##ec2
a24
##ffd
a8d
c8f
##bef
49b
e87
##704
##552
63c
3bc
##de7
297
##4f2
8ab
##b07
##d47
##77b
##1a5
##583
08c
##d03
33f
b5f
##228
##c07
##aa1
##582
abf
a9e
##c04
##6a9
##2bb
68b
37c
##70b
##906
3a4
##683
097
49e
46f
354
##c0a
f1f
##885
##dc0
12e
##db2
##352
89b
69e
88d
88c
c5e
464
##18b
##3a6
c9e
##3e9
##de2
b37
##5b8
##a53
a5e
327
##d4b
527
87f
##ebd
##1c7
e54
##a8a
22f
##bbd
5cc
e5d
6ee
56b
##288
##5ba
##def
##5be
##9c0
f6e
##8a3
93f
##aa6
##b77
##74d
997
##1c8
##681
##eba
##606
##3a2
314
63b
bee
057
##ec7
##3e1
##8e8
16e
b8f
a87
##121
##951
##605
##50f
824
87c
##bb5
##6a6
##4e3
43c
##29a
c24
117
##d04
aa7
5bc
c44
754
##e41
##50c
##dcc
##aa3
##e48
##d78
##55a
##2a3
a97
##60b
e5c
##7b8
##77a
##b4e
##b0f
##9f3
##ecd
##281
597
244
c6c
##f04
53c
c3b
##cf0
##50d
4ab
##3e4
##5b1
39e
88b
##8e9
##385
##4fe
##163
##905
85d
##5bc
##399
##4f0
##291
##74c
##136
c2e
##2bc
##3ea
##dc5
##628
##dba
##3e6
##d02
864
56e
##df3
##705
##a92
584
##e7d
854
##907
##625
##358
##588
##a5a
36b
##f0a
aee
8bc
##9cc
15e
4cc
27f
##4c1
32e
544
##dc1
b1d
##ffb
##b0a
##586
68c
e17
##e06
##e45
##296
##db1
887
##ef9
##ece
567
564
##d05
3dd
##b47
##b06
66e
##d52
##3db
b5d
884
78b
11e
2dd
31d
784
78f
##1c2
##d0c
##f0e
bbc
##1cb
##581
##902
054
a84
96f
42c
##395
##707
##d4c
##3aa
##b41
##2b1
##77d
##ef2
##8e4
62f
b27
a5f
##e02
##e4a
##325
##882
##de3
91e
67c
##e0c
##4ea
5ab
2bc
c2c
e14
abc
##3d3
##ec1
62c
16b
b84
##556
##626
##691
##e09
85f
##592
##40e
##599
##8ee
bcc
867
c1d
##d07
127
##dc9
##df9
957
##225
##695
##1c1
##b4f
f97
b5c
33c
##b45
71e
f7c
##e76
130
12f
237
##e05
##153
7ac
33b
##282
c34
##658
71d
59e
##655
644
35d
##18a
114
8bf
##f03
##aa2
##90f
##9c2
##ef5
##bb3
b1f
c37
##1c4
##5a1
e84
##a95
##c0b
594
##8ea
##de9
e64
4ee
##cfd
##682
##629
##4f4
524
##8e1
##6a1
##c09
a8f
53b
##dc3
##bb9
437
984
##895
##126
58d
124
##3e7
##255
##a9a
86b
e6c
##4e6
78c
##4e2
##e71
##983
4af
##326
##992
##f07
##851
##1cd
##e4b
a67
86d
##188
##db6
eab
a5c
##609
76b
367
##7b5
08f
b1b
##3a5
c2f
##886
c6b
##f0f
##9fa
e1d
b2f
86e
##509
46d
##74b
##3ef
##c05
8a4
##4e7
##1cc
##e47
##d53
b8b
##d0a
##9c3
##295
77c
eee
##185
b2c
##e46
##4fd
##f09
51f
8a7
##6a5
##60a
##a98
##323
##125
##696
##8e3
42e
05f
##d83
##3ec
##158
##22a
264
1bc
46e
337
##60c
##8e5
##9c5
##8ec
##b7b
637
91f
8ad
d8b
##883
##df5
72f
36f
917
d7c
##bed
9cc
##89a
##256
e6b
0bf
b54
827
##ef0
35c
d1e
##593
##285
43b
c6d
##ef3
##e07
4ae
##183
##2b2
e67
b6c
##666
66c
164
0dd
##795
b6e
##4c4
##4ed
fbf
##155
##4c7
##856
86f
b57
##4ce
##3e5
e7c
##d7a
91b
817
##18e
##d49
##773
28c
16f
6a7
##3e2
##df2
##e42
56f
684
71b
##db5
757
##cf9
##ecb
##d06
##d82
##6a2
28d
46c
##ef8
##bb1
##dcd
##909
##686
234
##b98
41b
##a56
8ac
##dbd
05d
##741
##be3
c84
##9a3
##df4
##398
3ab
19d
##70f
##b46
##79a
##70e
##9f2
47c
557
ea4
46b
##8e7
eae
95e
b2e
c14
9bc
7a4
##b04
62e
##d4d
514
##18f
##ffe
58c
c64
##2a2
##e75
23c
##db8
f6b
##8a2
##356
##b42
##663
##cf8
##7b1
b94
##e7a
a6c
41e
35e
##b0e
##d73
##bba
##743
##eb3
##9cb
77f
b8d
e57
##90d
##798
c6e
48b
##4fb
##18d
##9f1
##d0f
##771
687
f6f
##996
76f
83f
##90b
##cf7
bae
65f
##d09
9ac
##631
##953
##193
##be4
##4e1
##740
257
68d
##ff7
434
787
##709
##b91
##5bd
b6f
987
ddd
##5a2
##881
4a4
##bb6
##181
##892
##dec
##4f1
bad
394
56d
8ae
fab
##70c
##5b7
##cfc
##4eb
98f
##192
427
c94
##cf4
##9c7
0bc
##221
9ab
98c
##d45
b6d
ccc
##90c
c1f
##283
144
737
48c
##9f9
d6c
##9cf
##e0b
##f0b
517
##4c8
d1d
e5e
##888
##982
##c0e
##e79
21f
##3e3
96b
8dd
a1b
##f05
##de1
cab
##981
387
##129
##2b3
##b78
##4c2
26e
41f
1bf
487
##e73
##e4c
##199
b3f
c3f
##d7b
##998
2af
##efd
6cc
a64
76c
e6d
f87
eac
##dc4
##898
424
3cc
58f
83c
faf
##60e
55e
##dfb
##656
81e
##595
##5bf
5bf
##ec9
85c
c54
ead
##778
21e
794
##de6
##f06
e6f
##321
11d
##d51
##3ee
##749
##b40
##b7a
##4fa
cbc
##e43
##189
2a7
61e
##dea
e3f
aaf
##651
##cf1
9af
daf
##3d7
d1f
##1ce
##3d8
6bf
86c
3a7
##b09
##3d4
8af
ba4
##e78
##236
67f
##cf5
98d
59d
##efe
13c
##636
##3da
##8e2
667
##ffa
##f0d
##9fb
##de8
52d
##4c9
##ec8
##d43
b17
##59a
734
##359
47f
e37
1dd
##8e6
88f
ebf
384
5ad
##8eb
##699
##efc
##4cb
93c
##74f
17c
##25a
844
##4fc
9ad
f8c
##de4
25f
f34
##e0f
##a91
b8c
##15a
7ee
d3c
bab
##dff
##779
76d
##9fe
##796
##355
##1ca
c9d
##60f
f2c
##9cd
##852
##d4a
##1c5
##151
76e
654
##cf6
2ac
##c0d
##cf3
2ab
e1e
21b
##b76
##b79
d14
##3d5
c3c
b14
334
fad
82d
e2c
a3f
##8ed
48f
9dd
##d41
d8f
e44
##d7d
5af
##3d0
##8a1
##dc8
727
##be5
6ad
21d
##986
91d
##deb
814
15f
7a7
##85a
##746
e8d
##159
fa4
967
83b
53f
##745
7ae
194
78d
ca4
##742
##d46
a7c
##d98
##9ca
##4cd
467
f9d
59b
dee
##2b6
dad
##3e8
79b
ba7
f8d
##d4e
a2d
##74a
##7bd
##e0e
f8b
41d
##32a
##b73
a7f
a6d
f7f
##d75
3ae
2cc
93b
##b0b
##9fc
##152
13b
96e
0cc
##cfa
##186
##b0c
587
f2d
##993
724
##382
e3c
##da2
##d93
##9ce
d2e
##19a
5a4
##9ff
717
6bc
##653
f44
##191
137
##623
##efa
f6c
##3a1
##d0d
##d9a
744
79d
##b4d
d67
##9f4
43f
38b
a5d
57c
##7b6
fee
##a02
5ae
0ee
##6aa
##893
19e
484
##9c1
7bc
b7c
##e4d
c7c
##60d
##4c5
##3d6
##791
38d
d9e
27c
##ff5
##7ba
fac
554
9a7
294
ecc
73c
##d42
##4e8
##351
36d
b87
##ff9
##792
##bbb
39b
##df6
d7f
##69a
4a7
##62a
6af
##da1
##4f5
a2f
##1c9
364
d5c
##196
fbc
857
##3df
##688
937
##685
3ac
25c
36c
##3d1
914
c9b
9bf
b97
7cc
##b4a
##6a8
f3c
d9b
##d0e
##775
4ac
##ffc
caf
d84
b7f
6ab
5dd
e2d
e9e
e1f
267
d6d
26b
a2c
##be7
a27
##d92
da4
##3de
##3eb
a6f
##4f3
##ff4
f9e
##db9
2a4
52e
6ac
##b71
767
bdd
##dcb
c27
##35a
e2e
c7f
##3dd
7ab
b3b
##dce
23f
25e
26f
da7
067
##bec
57f
##65a
8ee
79e
d6e
##195
##253
97c
##e0d
##b92
28b
72c
dbc
##be1
65c
##d76
627
62d
##d86
c5c
9a4
927
##4ca
##381
61b
##661
a1d
##d96
##dfc
##88a
96d
##891
##b0d
92c
##853
##b75
##392
##df7
##ef6
##252
894
a57
##d72
e34
3ad
##99a
baf
##f0c
##698
##d4f
924
a1e
95f
a34
##beb
d87
##4f8
##621
##ef7
75c
4ad
82c
##3d9
7bf
##d71
4bf
214
f8f
##952
##1c3
##b43
f24
36e
cad
92f
##eca
##793
##e72
##dc7
##353
##efb
##de5
26d
e27
dcc
934
c2d
6ae
8cc
37f
f94
d8d
13f
55d
287
d2c
fae
##ff1
73b
e3b
f3b
##b7d
##be6
f14
55c
81b
51e
29d
714
##3ed
a44
##9f7
39d
##ec5
48d
##161
d8c
75f
82e
cee
##68a
a14
e5f
##896
##995
397
f84
dae
5a7
55f
##383
e9d
##cfe
##dca
##391
157
42d
##991
fa7
72d
##c0c
5ac
##9f6
##b9a
2ad
##dfe
834
f67
##396
##b72
617
944
99e
a17
##3d2
##bea
##9a1
797
##956
61d
e2f
##dcf
73f
d5d
##db3
##be9
##1cf
7dd
##d56
4dd
15c
51d
##999
764
c8c
fcc
414
f6d
61f
72e
a3c
d57
3af
##d95
f1b
##a93
d27
c57
dbf
9ae
cbf
##ff2
d37
d94
28f
f9b
e24
##ded
d24
d97
c87
d3b
d2f
5ee
837
##4f7
e8f
f64
eaf
82f
d6f
d5f
75e
dab
c67
81f
d1b
##393
e1b
ea7
d44
95c
f1e
99b
d9d
52c
##df1
d64
##ff6
e8c
f37
cac
f2f
fdd
9ee
71f
d5e
ca7
f3f
a37
52f
95d
75d
e9b
15d
f1d
99d
a2e
ebc
##9c8
c8d
d3f
##3a3
a1f
96c
e97
7af
81d
c5d
f2e
e94
##bb8
97f
624
954
29e
d2d
cae
##652
d54
d17
##101
##7e0
##108
0300
##408
##208
400
230
##a03
600
##409
##a01
880
##20c
##201
##401
##a08
c30
##a04
##7e9
##7e8
##104
500
##20b
630
##102
##f1
##402
##204
b00
200
##209
##7e4
##406
330
##a07
##20e
a00
##7e6
800
##106
a30
680
##103
530
b80
280
##a05
##fd
##a06
##f4
##10a
480
##10f
a80
##202
830
980
##a0b
b30
780
##a09
##10d
##107
##109
c00
580
##40a
e00
430
##407
##a0f
380
e80
730
##fc
f80
##f5
700
##a0d
##fa
##7e5
##207
##205
##10c
##fb
d30
##fe
##a0a
##7e7
##f2
##40d
d80
e30
930
##7e3
##40f
##20a
##a0e
##7ec
##40b
##20d
##f8
f30
##7eb
##7e1
d00
##405
##10e
##404
##20f
##206
f00
##105
##7ef
##a0c
##f3
##7ea
##10b
900
##f9
##7e2
c80
##7ed
##40c
##f7
0017
1801
8018
050a
1004
e010
0522
1008
0889
1800
0218
1003
003e
0a00
3bf8
353b
f86e
4850
3d99
fd3d
994f
1005
051a
0245
1010
1020
0305
0201
0800
dc9b
9be2
1802
e2ba
0016
c61e
6960
2869
60b7
ee49
1eee
6e50
6dd9
356d
d90e
0a0a
0512
38f5
2493
0049
7797
9724
0a02
101a
0e50
10c1
0340
0402
1007
0200
d000
1080
8fd6
4f80
7a99
0301
998f
0a38
1030
0a06
0a04
b750
a010
0053
4710
f010
001a
1040
4ef1
9350
0863
0a05
0400
ba50
0a03
3050
0134
1060
0a07
5f30
d650
f35f
eff3
0132
b010
0045
4950
0a01
0a48
747a
f4e0
e074
dced
973a
014e
4011
c131
1803
7a80
0087
0a09
cc87
1006
f650
0202
0a97
0310
c010
300c
0100
0117
60f6
e9f0
f060
c692
0002
4056
2b00
0591
3300
1403
002b
2036
1804
db23
030c
2400
0a0b
8050
1d00
03f7
0947
0417
f710
0044
0024
01f7
100f
0043
d203
1a6e
0046
0042
89d2
0de0
0085
0304
2e00
42f7
0033
00b6
f70d
1011
38f6
f83d
1015
0040
0203
0c50
b95b
0008
a6eb
0a08
000e
001d
000a
00c1
0312
0050
e050
0598
1808
0109
d335
0805
1009
0235
0add
0057
3c77
007a
92ea
0083
35b4
0076
b40e
002e
0403
4c83
0ada
0302
001e
0404
c164
01e6
4bc8
0022
00b5
00af
001f
008e
003c
0014
00b7
006f
4000
0047
0035
0a3c
0048
0025
00d5
0091
0054
1603
0089
4500
1100
0028
2000
8084
2900
3400
0086
1d15
00b8
014a
003f
0092
6000
004a
1700
c700
1400
05a4
e5b9
100a
0156
0401
2f00
f500
3100
2d00
6300
3000
1a00
da32
6700
5c00
a4c6
0065
8000
0037
9d00
0500
0e00
1900
ed00
2300
0b00
3c00
6a00
bc00
1200
5900
ffff
c400
0012
0c00
0a0c
1500
9600
7e00
be00
b500
6100
0d00
f600
9c00
0029
6900
7d00
6d00
3200
a300
00c5
7200
001c
0700
2600
2c00
b700
4f00
6500
0055
8b00
3d00
f100
ba00
8600
b300
e900
9200
8e00
6400
6f00
ad00
fc00
036d
d100
9900
d600
039a
d500
d700
ca00
2200
6b00
8500
5b00
6c00
9500
b000
3500
2500
1300
3b00
4900
bd00
1e00
9b00
a400
4a00
ab00
4700
df00
c900
4400
cb00
a500
e600
a700
004d
f700
e100
c100
bb00
b600
6e00
b900
5700
5d00
1600
aa00
1b00
1a6c
4c00
8100
4600
9f00
ac00
9000
a000
a600
3a00
5600
8700
2a00
db00
7b00
8a00
7000
9800
5500
7f00
8300
2700
7500
3600
7100
ec00
5800
601d
7400
5f00
b100
5e00
a100
bf00
f800
ce00
3e00
8c00
a200
a900
5a00
7900
4d00
cd00
0900
eb00
8200
9400
9300
0023
5300
c200
4b00
0f00
c600
b200
6800
5000
3f00
9a00
7700
e400
7800
cf00
d800
b800
8800
7c00
fe00
f000
3800
7300
4100
03f5
e200
4200
ea00
da00
ff00
c800
9100
cc00
0600
e000
fb00
0006
c300
af00
022e
dd00
8f00
0422
9e00
6600
8400
f900
2800
d900
4300
9700
1c00
d400
c000
d200
87e4
4800
0080
fd00
4e00
ef00
d300
b400
e300
f200
f400
008a
e500
1f00
de00
8d00
a800
7600
5100
ae00
7a00
fa00
e800
dc00
6200
e700
002c
5200
f300
5400
c500
8900
0aa4
3700
ee00
000b
3900
03c7
1018
2100
002a
007b
0004
6098
0a82
0013
001b
003b
009e
0041
00b3
0058
4d80
04aa
7603
1a50
004e
7a02
0208
60b2
0088
0007
047c
0214
0504
044f
e182
005b
100b
008b
012f
0059
10ff
006e
87e6
007c
0abb
04d7
0052
d010
ea51
0ab7
0ac6
105f
100c
6a80
1810
0454
bc50
004f
ea50
007e
00f9
004b
005a
0021
02e5
00a4
6550
0026
004c
b380
331f
01a3
0034
1805
a650
e250
d450
002f
0003
00a6
05b4
01d6
0030
0005
0074
2850
0750
008c
e329
0af4
5980
0150
0039
1650
1302
0531
0166
005c
0735
201f
008d
0027
8366
7550
0061
005d
0450
0090
2f50
00eb
a950
5650
008f
3d50
0293
e950
0019
0018
5f50
0010
00f4
1950
011a
7650
0081
0095
3f68
003a
0051
6144
0a62
6050
87e5
7a1a
03bc
016a
0064
3418
0056
0078
0a80
0427
5374
e409
2550
4050
006d
1850
0093
049f
6680
9d50
8e50
01ea
cddb
0060
bd1a
4550
5ff8
0068
7a50
055f
009c
1f5b
59fd
0250
00a0
006a
0084
6250
005f
acc5
0063
0066
0320
007f
010d
ec50
0a32
0f50
3b50
2750
0072
058c
00b0
a350
6343
3250
009d
000c
5617
a4c3
00aa
0a0e
039c
9a50
a452
0075
0788
01f8
6765
0adc
fa50
f750
5850
0079
00f5
c693
0094
0031
0077
5ba8
1014
0a4b
8365
8350
006c
003d
b150
5011
0198
100d
9c50
cc50
4650
f850
0062
06f1
011c
9250
00a5
028b
00bc
006b
8f50
8450
0073
5e50
0808
005e
4350
00fa
8250
8650
0097
002d
dfc6
e8b1
df50
b450
00e8
0096
0206
009b
da2f
0444
00da
00ae
b16a
00f3
e150
7350
0015
0b50
00ff
1301
f250
ee50
1659
0038
00fb
082a
00b2
0a50
d050
2350
02a9
00ed
000d
000f
c0df
023d
c050
06b3
ef50
6ce8
00fe
bb50
00a2
102c
00fc
7c50
9050
0069
4750
0036
1150
00a1
9450
0aed
8b50
1c50
e450
2250
0071
0308
00b1
8c50
1750
00a8
2d50
8850
0c45
da50
d150
0067
00a7
0102
d6bb
2c50
c650
0070
0011
f050
00e0
b223
00d3
00b9
00c0
5d50
5050
a850
0082
6350
00c6
8950
5350
5616
8550
00b4
00e6
0a59
00d7
c950
00d0
1b50
0098
f550
17b3
01b3
00a3
00ad
9f50
8d50
5950
4450
0032
00e4
00ef
00bf
009a
030b
2950
cd50
0099
9950
00d2
5a50
007d
ac50
00ac
5ba9
6450
00a9
202b
00bb
3850
cf50
4e50
00c7
00c9
00cd
a450
f580
4c50
0350
0009
00f2
98b6
1e50
aa50
2050
0627
b665
00db
1028
ce50
7850
4b50
00ba
00e3
b950
8750
0b57
329b
3059
05b9
00bd
009f
021e
100e
00fd
00c8
00e1
7450
12a8
0138
300a
cea1
01ff
f350
00f6
3a50
00f7
9e50
00ca
ad50
ea52
d550
021d
06ce
00de
0a4d
00d8
00c2
00e5
1350
102a
9550
00cf
d250
b3cf
03bb
0751
58b5
02a1
0585
00c3
e7d0
1250
c250
00ab
00d6
e7fe
eb50
ae50
00df
3550
00cc
3e50
c150
2d5b
00f1
be93
5c50
6b50
00dd
3950
d850
7f50
6750
056a
ff50
7750
7950
101f
e350
00cb
4e24
00e2
00ea
00f0
54f9
dd50
00ec
00ce
6650
00e9
012a
2a50
0230
1450
00dc
7f80
0d50
00e7
4250
b850
0650
00c4
2021
00f8
c7d4
ab50
b050
a750
010a
29f5
0a4e
00d1
9b80
1091
4a50
5baa
0299
9750
0a1b
3350
9b50
8b80
4d50
8150
00be
00d9
c450
c750
9850
187a
6d50
8a50
7250
3c50
7d50
4597
0a96
a7b3
dc50
0a81
1345
d750
a180
0550
5150
22c0
00d4
102d
cf16
a250
2650
fe50
e550
6950
0845
00ee
3450
b650
cb50
7150
be50
bd50
a550
a150
d950
fd50
f950
3650
d350
ed50
0850
4619
af50
e20c
8680
ca50
0a0f
4f50
6a50
b350
2e50
6f80
b550
072e
e650
2269
c850
0b80
085f
b250
a050
5580
0ad3
1550
fc50
0c80
05e6
2150
e850
7780
7b50
7e50
a6bc
06c3
0614
1c9d
3d81
c350
4780
5b50
3750
037b
0a46
3e80
5750
d723
05b2
eb80
d33a
8011
7eb5
3150
0a2a
0be8
3380
10cb
6850
ed80
a780
8580
1f50
5d88
1180
0aec
b680
066e
06f6
a24f
9150
c550
1050
dc80
9650
7050
0119
7766
1b80
031f
5550
fb50
02af
bf50
0c0f
ca80
7480
0a83
0b93
01fe
5250
e750
2680
05c5
5450
5880
2064
102b
1d50
0113
cec6
0635
de50
f450
3f50
010e
5f80
0950
6c50
6150
0a35
0837
f51a
8180
d95b
1780
896c
896f
7429
a2ab
af80
f15c
6380
72bd
0641
1101
b980
2f80
4150
0180
6f50
8964
4f77
2450
8367
201a
0580
faa8
9980
8280
10ca
eb9f
6980
8976
ac80
2b50
fb80
0780
df80
3280
7b80
0318
e174
3a80
2480
1a6b
5180
b880
030a
cc80
011b
7180
e380
0116
038a
9cbf
087e
0680
32aa
b9a2
ad80
4387
b080
2280
442e
1a80
c480
fd80
f880
10d0
a080
2e26
2980
1021
1280
5004
9d80
1680
0a54
4c80
0ab9
9480
895f
8f80
c280
0a1e
acf2
f169
f780
2a80
ce80
d080
4180
db80
080c
0a22
4880
0f80
9a80
49ac
f080
8963
2bbc
ef80
4980
b280
db50
2380
b580
3980
0807
073f
7280
8979
0280
2580
01fc
0e80
01a1
5480
1075
229b
8969
3c80
0380
069b
49da
ae80
f16a
01fb
5d80
0485
3b80
3680
6480
1806
a580
0ae4
d580
0a0d
7380
0298
1019
017f
cb80
f170
0205
f16d
5680
3d80
be80
6880
4a80
285d
25d3
c380
1580
c580
e980
f380
de80
1226
0405
aa80
f277
2880
1e80
d680
9f80
f968
5780
d880
0309
8c80
0d80
6c80
22a9
01fd
06c9
454e
1480
e880
0a44
f980
b780
229c
897c
2080
0104
49a5
2d80
9780
8971
0179
4080
06cd
c970
4fa9
4e80
c780
3480
895c
01f9
10cf
0a30
e780
8961
9380
8966
c080
103f
e480
6280
028d
8780
f150
0a2e
4580
10d1
49a9
10cd
8968
2b80
9880
0880
1012
bf80
b480
8480
4b80
4faa
a8b7
10c9
10ce
8974
8970
8965
2c80
0758
a280
0229
102e
a880
896b
4faf
22a6
3d6d
8380
6ec2
e680
6e80
ab80
3580
da80
1380
b79d
06e0
bc80
07e9
022c
ba8a
5119
ea80
fe80
0a47
0a8c
6d80
895d
8959
7e80
2538
2289
10c8
0306
102f
6ebf
49a6
0e6d
0a66
4042
a899
6580
9e80
8080
ee80
7980
22ac
06cc
5c80
895b
05c6
896d
bc97
8977
5080
dd80
e42d
9280
f16e
228e
6180
ff80
4280
014b
8960
e080
1f80
e180
9080
ba8c
896e
8d80
897d
010b
0a3f
5280
bd80
5380
03ff
49ab
7c80
49ad
1880
c980
70f1
22a5
9180
a480
2e80
895a
ba89
10cc
22ad
897b
8e80
8975
6eba
0a23
c180
6003
cf80
3180
01fa
c7b2
8978
f51b
22a7
0980
643b
3080
0480
d722
a980
d380
4380
8967
1980
f16c
f16b
0a11
49aa
0184
d352
0a31
9580
b05d
49a7
f168
e545
9112
8973
2180
0a33
6eb6
8a80
6780
d180
4de2
b20b
c880
0a41
897e
897a
6ec0
0ac2
49a8
22a8
e617
f171
8962
9782
9680
06ba
6b80
ad6f
896a
aae2
0b49
f180
b180
5ab9
3f80
e580
5c6b
0ac1
101d
fa80
5e80
7880
6ebe
1e03
594b
7080
f480
ee34
f585
fc80
f16f
0a3e
6080
22aa
029d
0414
5b80
8972
02b8
0a34
1aaf
9334
7580
d280
d735
0a27
d780
f680
0162
b71d
a208
d980
ec80
bc29
03fd
0a10
4fb0
c78d
07ab
0b3e
895e
3780
e776
ba8e
101c
ba87
0a19
6eb8
05af
6ebb
4480
9c80
0307
8980
2234
1df8
254c
6ebd
7d99
0723
0aae
b630
4fb4
058e
be94
6ec1
0118
228d
292b
0a21
242e
0fae
6eb9
e772
e6a3
0a3d
a680
1562
0154
0df8
9331
4680
9644
0a17
4fb1
66ff
e280
9335
fe1d
ba8d
d6bc
219e
2287
023e
d480
0a2f
5128
96f7
1c80
0e66
a380
0a42
0a65
502c
92e0
1a57
f280
03f1
0128
0e69
1ab1
78fe
0a8e
10c7
653d
b76c
03fe
02ba
228c
020a
b724
1d80
0af5
ba86
2029
e4ff
6eb5
0aa5
0a5d
1ab0
0a40
b3e1
0597
3880
7d80
cd80
26c7
65bb
2307
12a7
668d
1ab3
b71e
2231
2780
0a2d
829b
22ab
0451
c680
3e85
1aa9
7680
0a68
016d
0e65
6ec3
3e17
0aff
0e6c
0133
8880
b702
6ec4
0204
2f53
0e99
ba80
f278
0ab3
932d
5a80
1ab5
50e2
3cb8
b7d4
6601
0ae7
b860
8512
0a1d
037f
229d
6647
516e
7423
ba88
2ae2
3787
0441
06d3
0a9b
0a85
2bbd
e58b
b6bc
b8a6
e4b9
5b9c
e65d
101b
d34b
0219
99c6
0a12
142e
b55e
1a60
077e
b518
023a
4fb5
0afe
2286
2014
beec
3a39
0a3b
1048
6eb7
0209
2e31
06a9
0a6e
027d
e6e9
64e9
b720
ba8b
0a67
e473
6ebc
b748
f172
bb80
bb58
013e
228a
0bb2
8e27
70a5
9330
4fac
b81a
6640
4fad
47e8
b676
0525
1ab2
38c9
4fb2
0aba
b5ea
e5d1
1aaa
5be2
0430
83ea
b054
0a24
0a36
1c9c
1aae
2294
8364
0a2c
22e5
f5d9
5240
1024
304c
0ab2
0a1a
ac99
b723
652f
0112
8e56
0224
2288
a925
5b56
51b4
023f
51b0
4fb3
b5a4
0acc
66b5
5cc2
658a
0432
953d
0a13
0e67
10d8
02a7
bb01
c6cc
2011
9b96
1da8
1ecc
0ad7
b9b0
22b5
0ab8
0a4a
222d
030e
04a9
0399
fd9d
23b1
abbe
221d
591e
c433
07d2
e0af
92e1
0a61
ea60
d7a1
0ace
1877
09f3
0a26
0d69
0e6e
0a9f
1aad
1046
0abf
0d36
6cb5
0ffb
31bd
20e4
0e6a
69d0
173e
0a72
0a1c
5eda
0a1f
e0ad
0e1f
9333
1b3e
1051
5da3
2235
932e
4488
d895
0a16
0ac3
0aac
0a29
101e
6f48
9643
dcb7
017d
9d91
aef9
0a2b
0125
0aa7
44e6
feff
024e
0acd
84fe
07d8
f5a5
03f0
0a25
5286
079e
c1a2
3dc2
0a69
686a
0524
7eb6
153d
b923
1807
08d9
694a
6e2e
0a28
0ab0
51fa
0172
09e2
4917
0a6a
0a6d
932f
65e3
0a70
4fab
b722
030d
0a45
0aad
2f31
0c1f
f5f3
3b4b
fe4a
0274
0a90
01d7
9f9b
208d
01d9
0131
35fe
3dbe
5dfa
f98d
024d
0719
0122
0174
f555
0ab6
02ef
0ade
0dd1
0a14
0146
977a
0228
24f2
0a37
0aeb
0ac0
1e17
0a43
0683
0a8d
0af6
1eb1
6625
6a60
6706
abbf
a187
9cef
0e68
0121
222e
0ad8
0ac4
02e0
1964
1a9a
0a6b
ac17
0a39
922e
0123
0251
b71f
45e3
f50e
a876
1822
204f
0319
66ad
0979
1a01
a269
1108
03ac
0a64
4062
04ee
012c
b7e0
07f7
2371
b78e
0135
38cd
f617
afd0
eb88
4010
0207
b726
d789
17fd
4a8f
b71b
0806
f5ce
c53f
020c
2358
1102
0238
ea38
0a7d
3c76
013d
312e
2224
01c8
f5d4
0b6e
0fe9
b79f
0a9e
059e
ec40
f5c0
0a78
025d
f5e0
103c
0311
0a79
0833
0aca
1027
f118
3d78
2165
f5b0
1aac
f5e7
1017
01df
e8ef
02ae
9332
0acb
f5d7
c1b6
f5de
09e5
1e60
0361
7c03
ef04
8286
0173
8002
0aaf
1d52
f58d
228b
dd40
0a9c
4fae
02a6
2039
e0ae
0141
6575
d6b8
f581
ad17
d98e
46fc
85ed
0a6f
31ed
0c08
01eb
f5d2
0335
1d66
0170
0810
1a77
3523
f5c9
b1a7
d6b4
11c7
eb95
92de
f58a
4501
2c11
6d08
6553
0ef4
0e70
07c9
5c28
0a20
f5ae
f5c6
70e0
f5e3
f5aa
1013
6c1d
1b3d
6002
2293
0142
0a7f
f501
056b
0a58
0e6b
62f8
0317
1820
f5ad
f5e8
6695
b5b6
f517
f5f8
1a46
1f21
5b5c
2230
03fb
0139
18ff
7c28
0932
f5fd
03b1
310d
80af
0a73
ec3b
1029
f5a0
0af1
f5fa
0c06
7417
030f
a301
8c6e
0a55
f5b3
0ab1
f5ff
f582
6262
088d
0a6c
4fa8
9607
02c1
b71c
0217
0a8b
231e
618c
e3f6
f5da
f5ab
ada3
8e17
203f
0a5c
9b99
f5d0
9670
0c09
05a3
0a57
6b96
92e2
f5a6
3472
f59f
2267
8177
fd9e
880b
02df
f52d
f58b
07e4
1f5c
0a3a
6935
1ab4
527c
0315
d51a
f596
f50c
0e6f
018f
2266
7e58
aa60
1d0b
bc2e
6c5a
7d65
0268
0af8
2233
f57e
0736
f584
053f
ab87
11c6
3473
b363
0426
2331
1016
0ac5
f5fb
b725
29af
f5f2
f55a
2232
f5d3
f5dc
018b
f57a
f57b
45b4
f5a1
416f
f5f7
71e0
a9b1
6d0c
975f
4533
0ad5
dac9
1d7a
0a87
f5fc
1abd
162d
f548
0c13
2335
1022
eb9c
8269
0239
d7a0
0a9d
ab0f
c06e
1ef4
22b7
0ac7
7feb
e73b
0107
b5aa
9567
f5ef
c6fd
fd28
74c6
996e
911a
d6b9
f57d
01bd
09dd
f5f0
22ba
d768
0237
8da6
ba5b
f508
4033
093f
5cb6
85e0
fcd0
f58f
f5e1
0a76
f5bd
1096
f5cf
9406
d5ae
e2a0
0aa1
b91c
bdb7
d6b7
87d8
f5db
24c1
a8ef
baa1
016f
628a
478f
0ba6
c178
1dc1
027f
0aab
a9d4
f5ba
1821
2a17
0ac9
81c1
0316
0637
f5dd
0314
3038
264f
8224
65de
4a3b
0a52
f576
d6b2
f573
f5b8
6a5f
0171
0ae5
6508
f5d1
f543
4053
01f3
78e0
f510
b31f
4443
aaec
9d01
01e7
0bd5
03ab
7790
09ea
379a
f583
3a1a
b5fd
7549
f5bc
b997
104c
f5c2
f57f
0aa9
0111
08ba
b084
e84b
83e0
3417
8a62
665c
f5e9
9f17
f59c
a917
226c
07c3
0a18
f7ac
28e0
f586
90f6
12bb
f5b1
3517
f5d5
156a
232c
c014
0fb3
6d25
0329
efe0
0abd
f7c0
fe59
f56a
f5bf
8ea6
024b
417b
ade0
549c
f5e4
d4f6
0aee
d6b3
0ef5
22be
f5b4
c0e0
2265
016b
33ec
f58e
4892
f5c1
23b7
b78b
f5eb
0cee
f59b
a8e8
f5a8
f5ed
23ac
a5fb
3b41
f5fe
0a5b
6df0
f589
f592
f5a7
019b
d6b5
3d07
f5d6
d49c
35f7
6854
1e64
0a89
2f71
f5af
02d5
0a51
a048
09e6
021f
49a4
032b
1a89
b848
0e9d
2328
1f81
897f
b9bf
018d
f5c7
d6b1
1734
502f
c5f0
2aea
4367
05c0
f504
b9c9
f554
999b
f5e5
0a95
0110
f588
9c76
d89f
0ae0
f572
c5f6
0aaa
adf3
aa3d
bb0b
2368
f60f
12a9
09c5
8328
6990
0220
12ad
b101
42c4
0ac8
3bc9
1d58
f8e0
f52b
0a49
f5cd
02a8
2274
37cf
0c0a
462f
341e
5d87
4517
0115
01f6
c2e0
1748
f558
f59a
92df
22c2
5bab
229a
7b05
3524
1a63
d7f9
f5be
f58c
c1e2
32cb
e145
a603
5da4
7477
1a07
c0a1
f597
1a45
281d
b9ae
f512
689d
04d9
8a7a
0328
01f0
50de
021c
f55f
0226
153c
2bed
0b3f
7e8d
9b9b
0860
0181
9bb6
0420
f56f
f590
0afa
0ad2
02f4
0a56
f538
0175
3a17
1327
0ae2
f5f9
1a03
cb19
0501
1e13
3527
0ab4
6506
1b03
208e
b4e0
014f
f5d8
65df
f5a2
8017
d8fc
f577
a6bb
f50b
011e
b721
1d9d
07ff
1717
f565
4178
22bc
5e94
0a4c
ee35
f579
bf9b
339f
02f1
f5b5
2e13
f560
7a89
49df
2277
0188
f5ac
250c
180a
f6ed
a4fa
f5cc
b9bb
6ccf
69bb
540f
2732
d6b6
f5ca
1025
5108
f569
f594
92e3
b3d6
1817
ada5
b9a9
1679
2767
029b
0ae9
0aa8
3dbd
01b2
0222
204d
7777
30e0
d017
c8b9
b477
f53c
826f
b243
d46a
f537
3d79
fd4b
1d69
086d
4502
0aea
f5ec
78b6
22d5
2eef
0727
f578
4bc7
98b1
0e17
66d3
40e0
f5e2
0c07
f506
f57c
0126
3e11
0a75
09e9
d469
1a17
3117
03fc
faf7
1826
f5ee
f505
6eae
3a60
0a60
f527
d6b0
07fd
3123
e4e0
18da
4e18
f5f1
018a
e7d9
a134
180b
1cfb
0adf
8808
bf17
5c1d
8e86
0a84
0270
aa17
b9e0
f567
18ee
b017
b154
777b
b18c
0221
f559
f5f5
66c5
2eb2
0388
e0b0
9b1d
c266
f5a4
7867
011f
02d4
ede0
ce1b
3106
b8ec
273b
a774
7b88
32f8
01c6
f5bb
829f
bc9b
f599
ed5e
8d49
6f23
328f
12bc
f5f6
377d
11b5
6dc5
aa83
bf48
085b
0258
1875
2336
c204
abd3
180c
92dc
68a3
9945
f503
f516
f5c4
f593
cd0f
f531
296c
1a02
4104
5e41
b7b5
db56
f535
f519
883c
0ab5
0856
8f17
22a4
4702
f591
aa59
bebc
c317
0abe
07f4
1908
a4ee
f5df
ba85
ba8f
0409
92dd
b451
3522
f5c3
c445
0a92
dba4
de24
f59d
0803
1026
3ce4
1b26
5d35
f528
1917
02a3
8917
f587
0a7b
fecd
ef17
50d0
270a
f56c
3408
a717
78a3
f562
3617
f5c5
07fe
f513
5926
a948
9113
f50f
f540
0973
f556
ef46
f53f
44dd
92e6
17f8
f55c
5317
0a74
7a43
3501
9d7b
f552
2827
f542
320e
f5a9
31e0
8a5a
0ad1
f544
02a5
22b8
b72f
0211
0afd
f5f4
a6e5
bbf6
0a9a
014d
7b8b
025f
f515
c5e8
088e
0adb
6572
d519
1547
7808
50ec
b417
a8bc
8408
103b
4899
f502
eb8e
f575
87e7
20a5
6e32
708c
f51d
f55d
2c02
8ea4
059b
671f
961a
0ae6
09f0
0a15
6a1c
6317
30cc
9b24
09a7
b345
cce3
0515
0af2
3f34
795a
bbbd
f533
cdd0
0b47
6a96
5bc1
d8b9
5062
b817
c3c6
f5b6
9d8e
3293
3d91
4417
0247
0851
6066
6832
7aaf
b9ad
07e8
0817
015b
3047
8cde
3d34
1836
06be
e9c9
1c84
688c
0afb
bf02
049d
3d59
2017
351b
f546
444d
8b37
fc01
3723
20b7
769b
2e77
01b1
02fa
b689
f595
1d3c
f534
2324
a335
f54e
f59e
e815
228f
12ba
fcd7
3a5e
ddf9
bedf
f557
2dfd
0517
f51e
6117
50cd
e6ce
cce5
f55e
1a35
451d
f5cb
49e5
3153
ef6e
9364
f5c8
059d
10ad
0868
13a9
41a8
06c5
91e0
0a88
f5b7
873b
04af
ab17
feb1
04b5
3799
858d
aa43
ed79
f5e6
5347
0ec8
c4c8
1c17
448a
ed08
c1ef
6507
5717
3d13
f167
033f
7861
c955
229e
c367
513c
0aa3
5417
4b5b
9258
8717
0294
6e90
f564
f532
42a7
0120
0182
f56d
0617
b9bc
90e0
2417
675b
f54a
2093
6f17
3d77
8d3f
9119
0244
f574
0161
9c6e
8d03
f5b2
f3e4
0fe1
585d
9117
01e0
0ad9
93fb
1809
1a05
471e
f536
a965
d217
02b5
b5e0
79f8
f52f
259c
bcc9
5fe0
77be
a9a8
489c
c07c
98ac
3cf0
e668
1341
f598
0103
0830
352f
3a5f
4abd
854d
4507
7903
d0a1
b517
b949
2395
55a3
4569
85a7
2323
4508
f5a3
7d17
057c
dba8
1b17
0989
0394
09a6
5048
60b0
f566
0c34
351a
f524
0955
87d7
6917
66d8
12b9
f530
f52a
bb08
07ee
0158
f549
3e77
0917
86f3
0a53
1677
3c8d
1428
d451
03c0
c245
d008
69ba
6e83
0b17
daca
5bba
dba7
0828
61ab
09d9
b922
5ad1
0596
1719
0a63
c637
f547
77b9
849d
d62d
022d
f514
f529
0a7c
b9e7
b00b
9b4b
0360
180e
95e0
4001
9e17
7b86
695c
2bfe
f1fa
e629
0fec
2d31
b4e5
07de
2917
0a4f
887a
f51f
b362
0278
1678
796c
1a2b
9ccc
c223
7017
f520
b19c
a1a4
0a8a
f51c
0af3
086b
0267
328b
f545
32c7
1a04
7617
c2c7
0eb1
4efe
eb94
3217
b9d5
7bef
2fa6
7c4b
f55b
9a8d
210f
fe17
02f7
07cb
5481
4534
8617
68f4
f525
6f38
012d
b49d
ab86
1a2a
0a71
3b42
6904
93e7
3ca4
ce5a
0259
f52c
d6c1
5be4
f4e3
06f2
6951
1a4d
3fe9
0cef
bc75
4a17
221e
c24e
2b78
2e5e
f568
19ae
1517
92e7
eb01
0b3b
22c3
5848
0386
c7e0
c013
8b17
6ba4
47e0
6d48
f6b3
f9e0
f50a
0c17
4472
8d15
6a69
1ac4
1303
1a55
029c
18b0
3547
9b9c
f117
0be0
abe0
f551
f50d
304a
bc6a
026f
99ab
1a49
d1e0
f511
564e
0c44
04c0
7a17
01b0
2f7b
8d5f
162c
3476
5817
f54b
f56e
65d3
5ea0
f1f6
8217
06e8
8eb5
50e4
9c24
c4e0
2ed9
a9a9
2211
6e28
ce92
6954
0f83
64e0
87d1
a56c
8eb8
ae9f
0313
169e
0ae3
3dd2
d9a9
9817
0a91
4329
75bb
2d17
09af
290a
4e1e
12ac
9b07
ace5
511d
6f32
0ce0
0ced
b9ba
4577
4f17
4e68
6674
18ea
3dbc
9821
0573
189b
d317
c363
2e17
3526
f561
b364
18cb
4008
f5b9
50c0
107f
2b57
2a2d
f541
cee6
22bb
27e0
0489
5edd
1aa8
6634
220e
3208
c3ad
88da
509b
f7dd
6717
3d7c
c384
69bc
09b3
18e0
1db1
77e0
c8e0
e017
4512
fff0
452e
1235
83f0
3e76
fced
349c
3d17
bac8
6d47
0730
c5f4
69e8
f417
083f
f53e
e0ac
1531
0176
297c
70f0
349e
2717
1a25
2ec7
6f08
cc17
bb17
6682
50a0
3017
6a17
6617
a5e0
50fa
3045
af1c
5e37
3dbb
021b
0a7e
09e8
92db
b739
db17
c923
f6fd
9508
f0e0
6e64
4ebb
1835
459c
04e5
02b2
4b03
9be0
b835
12c0
2f01
ebf4
3108
f3e0
0fb0
a4d0
328c
8117
53c6
41e0
d4ec
7825
7776
7789
da9b
0169
f619
2dc2
9de0
ec17
d453
6b97
dd17
488d
031e
6a4c
aee0
2708
10d2
efa6
1289
a26a
7cd7
be68
0717
0af0
09e3
46ea
03a2
2025
0867
1a3d
2330
c8b5
3d16
033e
226e
3c08
b917
192f
3207
3239
9259
722d
0408
31cd
b3e0
6eb4
6417
0213
b365
2ef8
f553
04b7
de17
9317
09b1
1388
3389
072a
1ab6
e67d
c08b
f570
12bd
1a06
8eb6
eb79
e417
28ab
ace0
1ec6
f5ea
227c
0592
7be0
2f36
2429
07dd
a8c0
ed01
63e0
a017
ffe2
7c9d
2e66
be17
4717
ad54
188c
06c4
4532
01ed
b77b
013a
017b
0a7a
01bc
4272
44e9
c030
9c22
2e97
3308
0503
4503
9108
5e2e
222f
2334
0243
02c6
7c95
4e17
6910
281c
8642
0326
f522
f539
762f
0236
1cd3
596e
031b
4617
4542
91ef
9b17
f571
0266
b566
7338
094e
e503
6f71
9b60
db7e
352d
e817
c6f4
fa28
c5e7
7501
1ee0
1a42
23d3
2201
b533
67c9
2faa
dfad
ef4c
653c
3a35
1ace
89e5
2f08
65b6
2c55
7782
015e
435d
12e0
e275
2a83
343e
44ff
f53b
c217
2327
0aef
0ff7
2333
974d
8fe0
0f68
6f39
be24
6517
07f5
92d6
c5f1
0a86
081c
b584
c66d
162e
ee17
089b
92d4
b5f5
34fc
6f01
8b87
f54f
7601
608a
2c17
9b6e
b5ac
b1db
0288
7331
3e74
a797
db87
f53d
032c
3e04
4885
2f17
87a6
6817
45e0
06e9
1b28
ea17
0fad
181d
f563
67cc
350b
6701
c035
171a
9b87
f61d
b617
017e
320b
2f35
99a7
1617
0f08
509c
ae17
69dc
1cc7
c02b
8cb4
4c46
6e59
47a2
8639
0271
f601
673d
f523
2553
4fc0
8e3c
f56b
f526
0801
5017
9617
65e0
af17
af1e
05aa
ac34
f45b
3b17
da37
0abc
0a98
3402
b2be
1069
afa9
c717
bbb4
d222
4f71
34d7
d134
c443
acfb
6017
b78a
777f
5b35
7817
2117
c017
1fbe
9c2f
479e
872a
453b
806a
ae9c
8b33
084c
71e7
6a01
a417
0227
d569
3317
0183
73e0
031c
689b
61e8
0aa6
12b6
64fb
890a
d43b
6297
1635
0333
0193
f521
b9ac
c34c
3ea4
d917
19b0
167a
98e0
b432
ce17
1aab
d817
0190
b244
f608
0a94
08a5
45c6
f301
08e1
2de0
2eb0
0137
087a
ae69
0964
c3b6
a7e0
b310
a3ad
88e0
60d3
bfca
0528
b55b
3a30
3d75
62b7
af0e
60c1
b476
1434
2d6c
45ce
b9c5
4d5e
e217
f6eb
3291
6f93
fc17
1819
e21b
7317
0144
6bc7
75e0
0a99
3203
afcc
d454
2b17
027c
1626
eb21
0620
7489
4620
09e4
1847
a306
0508
5b17
1701
cf24
dc4d
56c3
0fff
02b0
2eb1
64ea
8e0f
7f2c
013c
07b5
23db
7717
dd3f
3532
c3a0
b1ab
0ad6
f54c
a9e0
5408
508c
70f9
9c28
6e17
c910
0129
8417
2ed0
4b56
a833
a168
07ec
2a09
3187
6c08
fc85
6568
3bb5
71c6
f60a
5066
4017
70cf
3a2d
1ab9
1841
a908
1862
022b
f518
231f
02fd
875b
2167
1ac1
f801
0c02
02b7
07e0
0535
83d3
a881
8f51
aea0
d1ac
1a48
4e45
b401
f60b
eb17
016e
025b
456e
45fd
89be
88bd
1104
3d08
2ce6
7e17
5e17
bb1f
6109
7e35
fb17
fa17
31ac
c8b2
a5ea
2609
2fe0
dca0
0106
24e0
f6ee
7877
f388
80e6
1d17
1abb
154c
56f7
1be0
2c01
2466
777c
5917
09e7
784e
ba0d
8066
2028
1031
0458
743b
ab8f
2d30
7517
184b
18c7
a008
1299
12bf
777d
80cc
c860
cbfe
43e5
a3d8
f7e0
8f21
796d
0804
1a70
68e0
d9f5
0f1c
44dc
7719
dd39
083d
1a20
22ae
3211
0af7
92d9
67e0
7f17
188e
b954
01ee
9551
8059
1079
2e67
9d1a
d812
6974
7c6a
8ea9
87da
2831
b8fc
7778
a4ed
be5c
dba3
7da9
5217
01a7
232d
b346
ff01
3525
1317
18dc
48b4
a642
7108
b7a9
8b89
0346
31f7
5272
cdb5
bfee
07d1
019f
0ae8
56b5
8bc4
12be
3dc3
9b2c
fd27
696f
ba23
b2dc
bb0a
1fe0
026c
e917
a117
2dd3
93e2
ec9d
d452
0433
e72e
ad16
6be0
b408
308d
0290
669b
4117
3e01
0812
7217
a808
22bf
4e89
881d
4505
3435
e87a
2223
b58a
b155
3f7a
9f2d
6c17
bd17
3337
56b2
76f6
dddc
e008
448b
d47a
9b9d
4579
2846
2203
2c03
1a08
1066
60e0
1417
0e90
01f2
034a
02fb
11b2
01a9
4886
ada6
7c74
3a61
e5ce
2bc0
0fab
078f
ab31
eb82
7b33
015d
e117
1872
23c6
05a6
0ec7
3f7c
6e13
aa1d
5410
63c1
9b93
9e0a
a4c2
2733
ab88
8d3c
2317
768f
6b95
3d88
1813
3530
0148
09b0
8ab2
f6fc
fd08
181c
0330
513b
89b7
32bf
48ee
bc8b
dd10
1920
013b
9b02
50ef
0468
2734
185d
1a2d
fbe0
ffdf
9c35
679c
a88c
45c7
3a42
0256
79f2
ff17
6c52
5bdc
bba5
621c
6dd7
0b08
23da
71a9
73ec
ba09
edb8
e356
80c4
3e98
eea5
073b
ab11
02aa
c8b6
69dd
71ee
2c08
cef1
4edb
6b11
1232
e120
7ad5
15e9
f6f0
b686
d059
cca2
5ceb
033a
5517
621b
b317
b242
6303
2801
a906
07aa
0532
7d35
02a0
0257
4544
18c9
2e08
8d40
9e06
bb05
806d
5ce0
129b
12c1
e1fd
0ec9
12b4
8203
93e0
7027
0fd2
1f17
8c3d
b89d
03e9
3d4d
b222
603c
4f62
6e3d
1a18
a508
3f17
4c17
8517
aa13
221c
2332
45f6
09bb
224c
0281
9135
45e6
d345
0bce
0b7c
6217
0665
b68e
1ac7
18b4
2807
3808
6c66
3c17
67a6
5b58
c3b1
a6c7
cc84
3493
eb8a
0210
aad0
777e
0a8f
1290
7117
0a77
2eee
6c71
14e0
4de7
edaf
483a
2517
f1f9
6808
480a
0908
0195
3398
870b
1c12
4510
388e
621d
0167
01b9
7ad8
1544
8a04
aa04
24b7
5d17
4548
8eb0
abdc
2d35
b289
26c6
03dc
1dba
1dc9
4506
908b
afe0
5c70
c434
9d17
1857
b56a
9539
223b
1201
320c
54e2
9dba
d0a0
9c17
0529
454d
1023
1b88
4365
a61a
0840
5575
03e0
1dc2
1a58
e50a
9c9d
5a17
21e0
1747
9b9a
b899
b74e
c028
021a
2a26
ca17
12ae
0802
45dc
f509
c0e2
87d9
3d36
b932
5348
c9d0
02a2
6c06
93e5
3f7b
7e82
5d1b
6008
1901
aa86
4fc6
6a97
0130
012b
d117
18bc
2321
e03c
1970
8247
04fb
4605
a07a
b452
186c
1cc8
c3b5
0b02
e076
d0b7
347a
028c
c96f
c817
18b1
7ad6
f1f5
4801
250b
8f5c
1818
0216
1963
ba28
1217
037e
15e0
0aa2
bcbb
67ac
1a27
daf0
92b0
9209
cf17
c495
bb39
6369
617f
349d
0bd6
edad
88af
ba17
92e5
06d6
2444
c6cf
2a01
5403
9bb2
50ae
746c
a424
a217
4bc9
c8ba
b344
6274
018c
9017
0f17
122d
c115
08b3
3292
6905
91c2
a285
3e70
0dbe
230a
2552
3908
9e71
efaa
341d
352e
8a59
0553
02bc
0159
6552
202e
f02d
5fb8
9fbe
dc17
010c
c71e
bb81
8d70
033d
18bd
c978
a2df
01cd
8192
0edf
de65
b738
0147
69d7
a9bf
304b
9c21
2e2e
2b5e
e717
c517
71ab
66d4
1103
3c01
6683
fce0
3ede
095a
b120
1a0a
7692
be7d
2a88
b608
cf13
8e21
1d68
0825
fa33
42f6
6973
85fa
b2f0
0e09
8fac
9cdc
176d
183b
1a36
49b4
88ef
8ce0
6b3b
7004
a336
c1a9
30c9
7054
84b7
4d17
8a6e
f6ef
91d9
e808
0d08
058a
ec94
945e
152d
6dd6
03b0
0505
0b46
8a08
c90f
ec0a
0fac
2e68
0869
d524
016c
f61e
9169
0272
337e
3102
c3a8
f507
5060
ffbe
6e40
dba6
7b17
186d
0390
f62e
064b
6708
703b
b76b
8dbf
ed17
ddac
8a17
2709
328a
04ae
1e94
a934
2275
2bff
a6c6
ffe0
449c
6b34
859f
e5ab
080b
16d8
c4e5
eb77
bfbf
8c17
4ca1
a437
6728
9a17
f317
06c2
18e9
b7e1
806c
9fe0
949d
7b3a
1814
386d
0b40
2292
3e0c
a9cc
eda8
01f1
65e5
104d
af1d
1fb9
0ceb
7774
12c4
08c0
fee0
9b4c
c02f
6f4e
3420
4770
436f
53a7
1638
26e0
3107
be01
409c
288e
3e4e
8908
047a
edac
0194
15e1
cad6
3953
570b
8188
bdcb
508e
dd11
7822
040a
acc7
02c8
bab9
bd4c
ebe0
b03d
6c56
9e66
bbb0
dd24
0884
09d3
5385
70f2
1a68
a517
a317
217e
b806
bbe0
c136
b4b1
6b17
3d8a
9d19
258b
d166
4540
2a53
2202
3a03
cd4c
05a8
25ad
2a1c
0843
a3b8
0191
2702
50f8
5f69
dba5
0836
1138
01be
c8fd
16b5
12b1
f017
4ca0
0434
77dc
3751
f866
281b
a817
b21c
4194
0afc
8067
271d
abb0
c5f5
c8fe
22b4
3101
e0e0
4fe0
2428
0ba4
188d
c68f
23b9
8ae0
eceb
01ec
88cc
2325
5035
2da8
8d34
eda9
3519
6934
452b
0af9
43c0
584f
a5c0
2a7e
4551
b798
6f35
0127
336a
07f9
f2de
0295
91c6
8014
c0f6
2f34
9f55
2c9c
2e8f
515c
7578
81e0
3b45
b35a
d073
90e4
34e0
2e95
adad
8d17
02f9
2977
c9e1
230f
24eb
8063
8056
bc17
042f
1532
ba7d
2128
6d4a
ad83
edc6
ccd4
2cbd
85a5
1514
3238
d635
3e79
4dfd
e908
403d
be56
edb0
1535
1203
65bc
ab01
e508
0e64
ad5f
c117
184f
3ee0
9579
0bef
bf0e
e08c
2f46
1db0
2819
e816
2322
5117
2d7a
479a
ca04
5f95
0c35
7cb4
04b9
0479
6e67
f717
8d6d
31af
66f9
16e0
5a40
2701
67b8
970d
9251
a8ed
ddaf
c81a
5510
1abe
c8bb
02b4
0189
2f0a
3b01
8b01
b501
c607
bce0
6c30
028e
a617
3270
63b0
82fd
0b01
01ce
20a1
2f37
ef48
1eac
8714
ada0
652e
253f
3a32
da17
3447
3301
71c0
7090
c49c
c75f
0254
3a64
5387
85df
2ffe
8747
e777
1081
57d7
a89b
040b
87e8
22ce
45fb
19b3
addc
93c2
01a6
674d
a108
5fb6
5492
1e55
b73e
3a65
1abf
1848
8641
784c
c303
3531
d835
668c
68b7
0a5a
3e41
4908
9703
d8e0
8f32
df17
046f
4432
4485
dd1b
31ab
c2fc
c27e
2d08
2f02
43e0
5086
a4ec
fd35
cd17
856c
22eb
6db1
974c
9d4c
2494
743f
1e65
79a5
981e
85a8
f54d
22ed
4972
7bcf
22b9
45bb
8de0
ad01
ff53
5c15
7c17
b55c
3a2f
7559
a169
2548
c9e0
e301
6501
af14
3f4e
3e7c
4e65
0165
3ee7
22dc
8141
7248
79d5
03a9
6ffd
8e4e
f908
0490
06f9
76c1
0283
b601
b776
304f
9c9e
6cae
0b6d
5d8a
7d63
b29d
c1a4
0240
aa42
1de0
31c6
42a6
9688
6c53
1c77
010f
2e9b
ada9
a516
3354
232b
c8b3
aae0
bac0
7f1c
ac9c
488e
b217
12c3
0286
1032
b0cc
348b
9e2d
9b5c
2712
a81e
e56f
8279
8903
9d06
a907
2053
8c44
44de
8eb7
dedf
6dac
1aa5
d517
7951
cc08
8069
c07a
704d
147a
d49d
ee20
0246
02dc
09bf
b00e
e4f6
5085
40fb
d4e0
7e81
87aa
6d8e
b6a7
2617
180d
1add
36b2
0ef2
5b01
7779
ad08
bc4f
c4da
3521
0242
0145
7ad4
3eb5
8a81
acf9
dc08
c76b
c617
69b3
5c0a
8cf9
c58a
3c7a
1861
0261
b801
03a6
4504
6408
b336
4799
7a61
01f4
62dd
9808
ba0e
dd43
4b39
456c
2a2c
040e
0ad0
4372
bb02
c9fb
1ea0
7e5e
1718
0815
025c
0332
6a68
2220
87ef
2247
2326
79c4
aeb2
dce0
6ea6
2e9a
3817
8317
a63d
1117
c377
75c4
1604
232a
2d9a
48e0
b771
f208
50bd
bcb6
47ad
1a9d
225c
7210
11bc
a9b0
b5c6
0c52
05ab
edb7
3535
4558
b22d
1840
3ee6
b1dc
4b7b
c111
1a14
9862
63ad
6ee7
7185
8707
8d71
304d
2d64
9917
1230
01c0
3e03
3eb6
674e
9ef1
a388
a4f9
5074
0b61
497b
d9e2
1689
c8ec
7093
0b66
e29e
3dd0
c34e
0199
3d82
4203
a1a2
3717
0265
1a2f
222c
0871
2fff
4de0
49f8
474f
7d08
607a
b456
bea8
025e
6927
22a0
e697
56b0
164c
5201
5fa0
049b
645e
94ab
7b56
032e
c8bc
497c
b376
2be0
50e0
70e7
2d33
1823
4935
6a66
125c
b442
687f
8803
1db2
8f01
af01
9f6d
bc12
2c2b
22e4
12de
43b0
33e0
34f6
4701
450b
53ee
6a85
50ca
0464
94d0
99aa
d88f
063a
024c
45e4
45b3
7748
eda6
b767
cd9c
d617
3bff
18d0
3443
b5d0
abc6
cbcc
0903
0655
8eb9
adc3
b389
ac4f
346c
447a
6732
3b15
e5ac
da21
b366
3001
18b2
bbfc
68e8
8eb2
50a9
3035
ca6d
2214
a9d0
737f
2e09
9dfd
8c74
915f
41b7
79ed
63dc
6a03
fdfd
f2b0
d717
2774
ba3d
d215
f620
02c4
28c0
9bc0
08e8
2295
e501
6c92
04ad
8e19
9717
977f
87ad
7b87
0813
3917
22c6
68dc
6885
858a
9cfd
a8e3
dbe0
f408
40ef
706d
7fe1
0cd6
98ae
232f
7542
0325
8123
a905
50fb
9f6a
ffbc
dfb0
bc54
bc1b
54c0
37a0
b99e
7863
55a5
1ac9
b2fe
d1f2
f8da
a374
31c4
74e5
10a8
30f4
c0aa
dfda
9c20
1816
b447
01aa
450e
9c0b
9cf6
2f70
6f4f
9744
0b3c
9b28
6b64
d969
9517
1873
6947
c8fc
18a5
1a37
6554
3634
b8fb
39e0
2101
63db
85bb
c501
74bc
f49c
54e0
edbb
b361
0377
a540
2345
6602
b701
cff3
248d
9b5e
488c
4531
aa2e
4a23
c8b7
45f0
2eed
0b48
2908
5070
2042
3467
1e89
171b
89aa
0633
0291
ede9
5c2a
beff
87d4
2a22
337d
72f9
d808
1aa6
3508
7c07
7f0f
85b0
bb49
506a
e09c
5420
8e3b
7e2a
453d
4523
98ab
31ad
b117
b67c
244a
0b0a
69fc
77b8
1035
5f17
bedd
093a
4217
16c6
8802
a582
07bf
0a5f
1a64
f61b
76ab
46f0
7ac5
0151
4588
20e0
60ad
0f25
8eaa
eb2c
7b85
0322
4514
4535
0248
03cc
2dd2
3201
41a9
bb0f
505e
0f9e
8c5e
342d
082f
0406
edde
aab7
11e0
ead0
5802
1883
1a0b
7d98
3048
b0e0
f0b4
2cff
be33
086a
185e
b51b
3a24
532e
0848
69b1
6a46
e1e0
96e9
19f0
1a83
3e75
c2b7
ede3
6021
ff32
f917
d89b
6a65
b332
1a47
16eb
0701
2683
4c01
7998
e689
8ce4
4c9c
0734
2d28
b5a0
0606
3229
aa19
631e
87e0
d301
090c
12b8
3eb3
34f5
b0bc
ccae
1714
112d
05c1
084d
18dd
45de
e7f8
2176
684f
900a
09a3
ade7
bde0
c705
2047
6435
3e30
e72f
f53a
b35e
169d
c3b9
59d2
5801
0185
1a88
3204
4796
5022
2ce0
189d
3a2b
03d4
46a9
6d4b
d097
4ca6
07a0
186f
4516
552b
3266
2135
07fb
33dc
bb06
ce41
d796
103a
308e
2fdc
3fb2
ecff
2e58
4786
3b2d
fb33
eda0
0854
09ac
788d
3a5c
726d
1ae4
b1e3
5446
4901
5bb1
61c6
c3e0
2c12
8bdb
8935
6aaf
9a61
826d
0342
017a
05e0
3179
c2ca
0dfd
1c08
24e5
670d
b628
50a4
6fe6
bc9d
b4b8
e4d7
0b2d
ad5e
1938
68be
0ffa
3689
6705
f49d
edab
e936
45c0
aa45
22f3
c0cb
4f86
ccdc
ac7e
ee22
07a8
4511
18f1
a006
6cb0
6c95
349b
1e16
9d35
5dab
082b
8915
b91d
1a32
451e
859b
e814
a9bb
b6f1
1f01
650d
85a6
b108
b05c
f08c
c65c
811d
b7ff
5ee0
2302
2e01
249b
07bc
0b69
bbdd
a857
238c
45ef
2547
c1e8
63f5
23e0
3e36
07ac
2daa
855d
1135
98c0
45b2
58e4
ab46
c401
da03
fd04
90f0
1fa5
5411
a4dc
051e
9516
8235
2164
18f9
18fb
79c0
ac9d
34a9
6e70
0212
0262
3a31
41a0
0177
1cc0
c001
0626
2df8
5901
5325
0c16
6c29
048b
0e54
9b88
c78e
8d13
0d34
1884
561a
49e0
b6ed
34cb
5388
7904
a70d
a4c9
bbb3
fb76
1a9b
8536
2842
eee0
93c5
09f5
3503
69f0
ab03
b4e2
d60b
5014
a49b
4b7f
886b
226a
8218
8665
7624
b9dc
46d5
1501
5886
6b7a
b604
b88a
508f
67d0
cb17
a936
1110
09e0
a8b9
2549
31f0
5345
76b0
0d7d
0396
18e8
65b8
adc6
aaa6
bc01
4c8d
a7dc
5921
119c
01d3
a8ba
400e
b008
02b9
3bb9
9ec7
c12a
50f1
749d
9bad
3935
8894
6a29
3212
826c
6635
c8b8
05b0
1401
818b
bd0a
50ad
a020
aeb0
ab33
351c
696b
596f
3290
019d
f635
320f
4d47
d3e0
e20d
fd53
1041
c02c
f4dc
2ea9
8ebc
47a8
fd26
8dee
6813
65ad
9946
1a44
02c0
08d1
3ef6
6e49
7c08
f4e5
1f20
1ce0
5cbe
947a
67af
1812
1a6f
baa9
816e
16c1
2d01
3dc6
5ffe
59fc
0fe8
dcb9
549d
6e89
57ab
57ac
7b31
1a62
5568
c8b4
b649
01a8
1408
422f
f616
1ac8
487a
1742
ae7a
b3dc
c1c6
af65
bf74
8ed6
1e10
e934
7211
154f
0ffc
64f6
8c0f
8b9a
9158
a7e6
30dc
34bd
4478
2eae
5e1a
1727
015f
766a
06e7
f6c6
f4e9
9045
2f21
47ac
0b67
bd15
6dd8
f97c
13c0
1899
6b71
7701
8689
a628
ac0d
b50a
f111
7066
6418
9417
0ebc
ae96
776a
2b87
ad5c
8d35
1838
f632
18c5
68c5
eaea
4552
777a
9c9c
ac16
6c48
6d17
03a0
688e
e813
c619
11a4
3008
4545
cdd8
7ad7
95ed
a1e0
3331
7775
2031
8f3d
7ce3
6463
db85
ddb0
c95f
1a87
366e
69b8
c5e0
8245
0b09
1741
18ed
1033
9f69
cc34
572c
1a31
ea6a
07f6
22e3
2279
d87a
3de0
3ec6
4b91
ef9b
a4ef
aea6
77bc
0d8a
033b
666b
18cc
31b3
b1e0
b2d8
4301
0cf7
1708
2df5
45a1
6de7
7ec1
a9c0
d601
5052
a4dd
ce77
db9b
2817
1a3c
3214
d2a0
4546
69db
46e0
3dcd
7773
ef67
ae65
ee27
6d1e
288c
2825
e517
16d7
5270
5873
119a
5c08
6209
8be0
20a6
7087
bf8f
bcd4
b41e
c41b
99a0
3958
322b
a11b
c5fd
aa74
67f3
a2d1
0e03
26a1
5e46
7591
ba52
e231
407a
fc8e
649c
3d1e
a919
32a0
020e
0143
68f6
63f4
e876
997d
7345
0eba
4e47
6f0f
dde0
3046
6f25
2c23
149d
6760
1815
57c6
7802
a18e
ba02
ffbf
bc73
3419
345a
4469
6420
0233
692b
a9a7
7ae0
0358
4386
f108
5e14
0bd9
12a4
38f1
017c
494d
87c9
c444
5008
0656
52b4
6681
9df3
e406
f605
f745
406d
f07a
8f2c
f466
9d58
f52e
2aaf
323e
b39e
76ac
1abc
e7fd
86e0
d8b0
caf9
d577
1b4b
79c6
b908
9c1b
ac7a
8c41
85af
c35f
1871
65d6
8678
f7fd
4007
c30b
3401
50a6
50c3
b0d2
f469
058f
1a94
92da
1ac6
1845
08c8
59ea
ba48
0901
0776
3be0
8886
b153
b048
9ce0
0bb0
ad1c
7db0
6833
0344
c1e1
31f8
59d7
0321
0186
3109
4295
6d01
620b
a4e7
e495
6721
378f
7b2b
6b87
ad55
089c
6530
95aa
3a27
2219
3335
c35b
062e
4578
5cc1
32ee
ccc0
48c3
d578
6e42
9c08
502d
679e
cb3f
ad62
a51a
8248
727a
8008
1389
6a53
9603
9704
bdc9
4068
048f
442c
379c
b22f
c25c
6338
02cc
694b
3577
ac01
f603
8064
208b
e05a
d0ed
f7aa
5b8f
2d8a
cdb4
027a
454f
1ac0
1ae5
3241
87f3
86bc
0398
2251
5605
6b48
a585
5047
bea4
a770
189c
0284
688d
989b
6a3f
4a5e
5265
3242
6ee5
09cc
5a02
6386
93aa
aa03
0ed0
6789
ab2b
3727
adab
09ab
0338
4559
322d
21ad
58b4
b371
caf3
c8d3
18eb
aece
c4c3
eb0a
0e93
4e3d
ae9b
07a5
18a8
023c
e55b
a8b0
33c2
b17a
9908
d06f
0e35
0bd7
dba2
6d87
02ac
b23b
318a
4f02
5508
6a51
5098
9cec
bc7a
5cd9
046c
e88d
3264
5267
5139
29ba
1249
b8d9
737b
bb4f
9738
2d1c
453e
b8f0
6874
019a
5eb9
770f
c8a6
d20e
50f3
afdb
9cda
bc6f
6c36
44a0
87de
353d
a935
1a84
2320
866c
b87a
18e7
2501
6a55
860b
f701
af3c
34a4
74a3
c41a
1b90
0d33
c88c
d53c
a535
3a1b
497f
46b7
6547
b301
2d78
2f0d
af1b
0cdc
0cda
0435
d417
d4dc
2e96
1a67
938b
02e3
c6f9
c5cd
1116
3a02
6a0f
60f3
3fea
9c27
8c9c
5c49
eba9
f817
3916
0376
22e9
1977
c6de
e2d5
da77
0255
2d52
3206
4107
30d8
2f40
bf6a
7c14
0aa0
922d
4335
c3ac
0249
b9e1
bacf
5bf5
6af5
174b
17e0
258a
3efd
6f0a
8dc0
94f2
9e05
a5b5
b8e0
7f62
749c
b98f
b58b
a88d
552f
18d7
add5
2002
708d
6f37
d49b
3e5e
17a3
8d6f
6d97
aa69
9217
366d
66b1
5271
4a70
4509
54e3
9a0e
50ee
ffaa
cce2
bcda
6c42
5c17
7470
479d
4bdc
0260
3a5d
2a19
d120
45c2
66b7
e1d0
028a
53e0
640b
c10a
db7b
f7e8
308c
c023
bcdb
9d36
6d64
18ac
492a
1914
8817
223d
a16c
1adb
aee1
16f0
bad3
7a74
2802
2689
3eb2
35a1
d101
9c26
4c45
f47a
3e33
ce1e
77a5
bb87
3d30
cd11
b51e
6a38
6346
4977
bad0
e6d6
08e0
69fd
71c4
9cfc
a708
db4c
9f13
2eaf
59a0
011d
8654
0ae1
aa47
450f
95b2
a1a3
b902
6964
0114
c697
4974
edd6
a64d
da74
077b
0136
1f09
2e78
890f
f606
ae13
c535
aa38
03b3
07fc
18b5
ca4a
0ee0
0e0a
18a2
91aa
507a
20fe
6cd8
1c9b
6720
7aac
e317
e870
87fd
39fd
b07a
f029
7488
ae89
d719
89ad
891d
0241
01ba
1870
18c8
31b5
71dc
86bf
2285
45a6
6a52
e0cc
70ac
2fc0
2fb3
04a0
b455
b7ac
8d8a
bbf7
bace
3147
88be
25e0
230e
8301
0b06
1a86
91a1
a8e0
bd08
807a
2087
cc7a
d427
9e63
1b11
3d9d
f823
688f
5aa0
c68d
4808
3eba
3ef5
3791
974e
9395
bef2
10e4
b08b
c08d
4e66
9bee
0820
0269
3a16
e29f
01a4
313d
aadf
12d3
bee4
15eb
2eb8
450a
63d2
8902
8a07
10e0
bc6b
2eac
4b88
1d34
02ab
3a20
06af
e68c
edd3
357c
4647
21f1
d1f0
2d03
2e06
5f09
89fa
a60e
b508
b996
cf01
e283
5092
5fc3
2f3b
cfe2
6edb
5b6c
c71a
db86
1b30
9d69
0215
d665
18f6
63f8
3aec
c008
01a2
44e7
7de0
9ef3
e8e0
509d
7047
b717
1769
edae
03a4
05ce
18b7
1a71
08e2
b8e4
1fdc
bf53
cce1
6c67
049c
ee39
bb74
1859
8194
12cc
324c
400b
015a
1dfd
11a9
17ed
2b0a
6703
7386
71a6
adfa
ab07
2cb3
f491
6e39
2e61
0339
8884
752f
b35f
361b
81ad
3249
56c5
47c0
cbcb
2cc0
0e08
8b77
ef01
8058
d0a5
3ed0
8ea8
3567
c917
a835
ba35
3265
c122
18d4
b249
1ae0
5142
5aef
1b92
5501
6b01
b2bd
ba03
5036
2f38
cfc2
5c34
1e88
8724
2b28
e725
899b
1a30
1a23
45aa
03b8
45ca
f1f7
8001
7d04
ab08
ada2
10fe
8f58
5f28
bf25
7f4e
d32c
7377
2808
12a6
1dfc
1a0f
2ffd
2f0e
41a2
4108
8187
8e71
9ef2
adcc
cecd
8019
405b
70b8
8cd5
4c90
848f
7b1b
6b9d
dd28
a938
2926
c98a
b6af
511c
a1a0
11be
2245
58d2
4208
51cc
72a3
dd08
d094
8f77
df9c
7f2a
8ce6
87ac
9b32
1b8d
ddaa
39ad
3a28
1264
e149
138a
3407
4be0
c129
f631
e0bc
5fd1
4794
1a26
455e
4522
faa9
633d
6342
12cd
86d0
185a
608d
408d
bbad
cd29
3859
6367
43ab
06b4
a949
56c0
59e9
ea48
0223
2ef4
2359
33a2
7408
b4f2
5f34
9c2b
3474
9e35
d734
7bbf
3a21
129f
722c
74ce
a901
ae08
cfe0
0c21
a49d
e4de
67ad
873d
09a8
b27a
c304
0601
1e76
2508
23a8
2efd
39c6
34fd
45b8
b747
50f0
8ca0
8cdf
fc39
d435
3e58
2dab
2d84
6dbb
c267
013f
735c
8634
3135
0348
35fd
7ad2
19bd
27f8
0bff
45ba
4795
5603
8c7a
be8d
07dc
4dab
182e
48a0
024f
33b5
53b3
b8bf
c30a
2901
d708
50d1
2f88
af4c
04e0
cd6c
188b
885f
aa2a
45f4
78b5
8d7d
c601
a46c
0e1c
278e
aba0
b235
18d2
2246
f945
d9d4
01cc
1198
23e3
4dfa
9c01
207a
3c7f
546d
94e0
ceb0
6bb7
dd22
19a8
2835
1259
512b
33fd
12ef
7aca
e44a
170d
2113
38e0
4ff2
3498
5415
9b5b
039f
42ac
119f
1acb
5bc6
9847
fbc6
089a
6ecb
9c0f
2f67
ac35
bc49
ec78
ae5c
1b20
bd35
aa89
231d
1879
d2e0
07eb
11a2
3152
7dcc
aec6
bf01
fe04
4f8e
0fbf
5c4d
7cb0
643c
778a
8732
8827
8a5b
18d9
45d1
c6d0
587e
3104
6a98
9608
9def
9355
a4fd
10c0
2f23
0487
aed3
6b28
5266
f3ad
0acf
02e1
454c
accc
12c9
a848
96fe
2301
8801
11c0
9f0f
d0bc
7487
3e25
3e63
9e97
d7a2
2b39
3b88
6d34
03ae
1a19
062d
180f
aac3
c8fb
4009
0152
3f08
83a9
d8ed
5065
20d2
7056
cce0
4c9d
2c60
3e6e
3e1b
2e98
9ba8
2b38
cb85
2d6a
023b
89a9
4868
035f
b5a9
07c1
e5c1
5a4e
4101
a74c
ec08
fe03
108e
606d
5f40
ff2f
a7ab
8d65
b935
d5af
b33c
4975
7ad9
1ae8
29bc
824f
a2fc
09c6
0cf0
1903
7508
a4c4
b3aa
ddc5
b0dc
6f24
9c33
bc4e
bc4d
57a8
2d34
dd3d
0297
8989
a911
191f
98ad
622e
0149
03fa
1691
d6a3
c07b
bf30
6cb9
5ce4
7ce0
7474
1e66
6bbf
99a8
29ad
027e
45e1
73fb
dabe
4005
4002
3e43
4c08
d3de
20a4
3f39
ef88
ac4e
048c
341a
9bb4
dd3a
a9ac
29a9
4589
4a30
163d
06df
9977
a970
7847
054d
39b0
0b45
3e78
bc08
b70b
c5b0
8065
5cbb
c4bc
0ebb
eda5
9927
a83e
3820
3178
1bc1
23f7
c5c1
3801
7008
3e05
69f9
f7b9
6f6d
ffe1
3ebc
2e64
8d18
1865
1a21
d533
2217
a3a7
865e
113c
1139
22ef
867d
c6bd
bddf
29f0
3efb
77bd
a749
c15a
bc46
2ead
453c
a3ac
b6ad
31a7
09ba
1ae7
66e1
b1fd
15c6
0253
2601
3388
474c
bd05
c701
4069
30db
d0fd
0f92
6faa
efb9
345d
0e89
a9ad
458e
6a9f
da2e
015c
0276
454a
02d7
b1ee
567f
28cc
f344
2e75
a203
d7b8
f8e9
c79c
081a
b96b
c91c
1a9c
c5a8
01a0
8387
0273
197d
0ccf
0285
01ca
1658
45b5
8223
4041
2f3a
3e69
4e13
1e15
1b87
4b17
0dad
798f
45a9
6a64
c611
19b4
abf1
884d
71ba
1cf7
5dce
6104
c101
e582
2022
efdb
7c69
64d8
6b23
05a0
182b
f9ab
1a1c
45ab
b559
4368
c1af
7138
0942
4543
c8be
b349
edd8
25d8
e873
f871
02bf
1d4b
2d96
5701
8d01
ce08
ed92
5097
cce9
77a8
385e
c821
23ab
0945
85e3
2973
3948
b808
3111
5e01
6108
b9f1
8048
2f8a
cc47
441f
ad58
8daa
9d90
35a0
ea26
b3ad
02e9
4370
400f
f808
64f0
9be3
fc06
f909
0cec
242c
743a
3ed8
031a
4539
c868
3157
45e9
77c4
e6b1
f6b0
52df
6902
68e1
50cc
0411
547a
47ae
18af
a920
c91b
3928
6855
eaa4
8a28
73a7
1eeb
18c3
3eeb
167b
98f5
0675
1386
18a6
3ef0
d0dd
2f28
afac
6e65
1770
6730
dbdc
cbab
3d9f
55ab
4214
c316
91a0
4547
45cb
add1
8af3
484e
4bf0
f1ef
7301
2b41
71cb
a691
a401
b203
b506
b7e2
50e6
8f92
9e59
89af
999f
4835
1a8b
4594
4538
aa5b
5697
184c
6642
b641
39e9
e2e2
2da6
80b1
10fa
8f6c
bc77
3c82
dd27
4536
85ad
da67
a635
715b
02ee
4af4
35ef
3cc1
12b0
2707
34c4
7908
7f01
305d
5b8e
2bb0
5732
6955
6829
655b
ea9b
526c
5269
084e
4572
26c0
a542
b270
f97d
880a
c306
c308
0d01
07ba
3116
4621
5504
5389
6d4c
8693
874e
9b7b
e201
205e
2055
4048
af49
cf36
aca6
1729
ad35
2d77
69aa
191e
829c
020d
457b
41b3
2d09
318f
458a
6bb9
67e4
938a
f7e6
60f0
b02d
3f9a
9f70
fcb9
2431
3e35
77bb
9bbf
4817
1958
036e
588e
25a7
e39d
8127
02d0
4970
2eec
9328
a4c1
bda6
80be
704c
9f5b
df22
07a9
ad77
788b
aa97
12a0
f634
0ebd
0740
2c0f
3b49
570c
8cf0
a9f0
b5a3
e5b3
edcd
50d3
30fd
a05e
0fa5
bfdb
7494
8e53
67be
dd3e
dd35
086f
18a0
d8a0
aa23
ca90
523f
c6a0
b63a
a69b
497a
1afd
a87b
bbcc
43b3
e804
1204
3a04
674f
adb2
edc0
a0c0
847a
e4d0
4e21
0b39
7b8a
4b67
0831
03a7
f217
469b
2276
6648
c172
32dd
63ff
6301
a809
1aa3
1285
4da1
774e
107a
2cae
047d
4eb7
f935
4563
711c
3004
1a4f
a946
32dc
e87c
7aed
47b2
77eb
89f8
8108
b742
ca03
509a
a0e0
7035
6cbc
c41c
775f
775c
67bc
0bdc
ed94
099f
632e
13ac
f134
accb
a9b3
93fa
2a7a
0153
3604
34eb
7b01
7401
8189
cbb5
f3e6
809f
d09a
2f32
9c13
ee96
27d3
09aa
526a
07f0
18d6
b5e8
8abc
e1d6
d1dd
3cc7
19a6
1851
3eb1
5ff1
5104
8205
9388
2f19
6f67
acd1
5c1c
b794
77dd
ab82
4da7
182a
199f
d51d
4a1f
4a38
6263
c612
add4
e6e0
b1d0
4340
cad0
29c1
3599
310f
ad4f
c108
3049
90c0
5fac
bfa6
dc9c
9c2e
ac58
2c38
6429
846c
1ed6
7e96
9765
cb62
f835
3a14
c616
01b5
0279
3578
aad2
b370
36b0
f347
2225
3a01
83dc
af94
6c6f
fc8f
3ea8
2ea7
1731
cd1a
185c
35a9
1a59
255c
2259
168c
913c
9122
d12c
22c7
6571
d8b1
5acc
0eb9
0252
5dfd
8e03
99ca
b8e3
30bb
ccdd
5418
4887
038d
e88c
a51c
0164
83ac
7322
a6e0
c8bd
07ca
d5df
7e08
7296
81c6
8d83
8778
ad52
c1a5
50c6
9c47
ec91
0ed5
7e8a
183d
18a9
1833
a569
c135
0ad4
034c
0941
92d8
11b3
5447
fbfd
c7f7
e001
18e4
54ce
83a6
9b01
b398
c60f
b08d
8f83
cca8
bc61
8c9b
041e
1e1c
f7dc
f788
8718
cbb0
2d5c
ddbc
0d17
096f
1a5b
453f
452c
65a9
6a62
12aa
b25f
31fd
62ca
7a4f
09ca
1551
59fa
63eb
ad4c
b052
1f16
bfb4
9ce5
b478
691e
0365
02eb
18fd
12dc
e6e5
66e0
93b8
5ddf
d308
09c3
1e02
2663
31a8
7388
a53f
9532
8230
b335
7387
18c6
08d8
c1d8
3ccc
1577
34e5
4251
6903
6be3
7d01
ad7b
ddc8
1fbf
0c24
0c59
8461
3e6f
0732
1723
9dad
4db0
ba30
6690
01da
4971
a670
1945
39d0
45b9
8681
a40a
50c4
105c
10d7
5cb9
949b
8e33
eb8d
bd2d
cd24
028f
4937
b918
1928
4515
b53d
2aa0
01e8
1acc
697b
b5f0
f9da
9a4a
25b0
2c04
3dfd
54fd
7f08
a9c6
3483
3478
4483
c435
8e93
1a8f
a897
553d
c364
066c
e6a0
1ab8
01dd
02e6
037a
8bcf
b5ce
4582
49c3
9d48
c388
e1aa
9c34
1cae
fca1
de2c
8b3d
bd34
0387
4268
112e
bdd3
02b1
7e03
8a58
ab0e
cde0
f9cb
5087
50b5
309c
d04e
4f9a
9f9a
8479
37ab
1b89
dd20
0264
1927
b51d
988d
01ad
c5f8
5346
4cce
b548
7374
2556
a9a6
cdf8
046b
4438
07d3
3b39
edbc
0234
a937
f98e
1a8e
1982
23a9
2de4
320a
4595
58e3
8101
aa98
c655
e74e
50ed
20ef
6f34
6c99
c471
c744
6db7
7d31
4d18
033c
3867
1523
1197
01b7
edd9
b2df
bcc3
8a47
c845
e5e0
680c
510f
e108
b066
cc88
b71a
479b
eda4
e9a0
466e
1842
02d1
19b8
c243
3504
4608
410c
8901
9d08
94e3
e9f9
50b4
c06f
df48
44a9
4425
14b9
d78c
6bd9
5521
5330
e3ad
a65d
b19f
66b0
56e2
e6c4
05fd
19e0
2603
2329
3a55
4a92
69c4
770a
8d48
9b48
fde0
b08e
7c3a
343a
f465
c48e
3b87
6daa
4930
020f
3007
457e
b5e3
4279
5af1
03a8
2605
260e
3222
6cfb
8983
9203
b603
d382
f331
50e7
108d
70c0
d0af
af2b
af4e
9c40
9cb2
041b
b46c
3ba3
fd1b
ed15
1867
1831
b535
5867
6564
6569
1266
53ac
02f6
98b2
12dd
2bf4
b6f0
0b03
3e0a
8c02
a39a
c77b
d508
ee03
e5b0
5019
3438
2b8d
ad74
3a67
3213
526e
93a0
2387
a387
3009
1874
7ad3
43c1
39ee
b2e3
c30e
5db2
6da6
67b2
67ba
8508
8b4c
a601
ae7d
b7bd
b208
d9cc
50bc
60d2
af35
bf1f
0c7a
5c66
048e
4759
1854
498a
1936
7a20
3294
826b
b29e
e110
01ef
1a4b
2443
3a70
f6c4
23fd
1885
4708
69a6
a681
ad06
baa3
ac45
24dc
b7da
1d59
185b
e96f
129e
0140
1adc
89e8
5344
a8d5
3a47
27fa
5243
934a
2001
0507
12b2
2d04
34fe
61a2
6d0d
8eb1
8742
d7e6
708e
7f16
0e92
b757
172e
2ba7
fb89
dda8
0289
b968
1a16
388d
b23c
0124
89e7
3a4e
c8c9
0282
510a
669a
85b6
a7e7
b901
bde6
201e
40e7
b04b
0f2d
6fa5
3fe0
041a
0482
3413
347b
8b68
0520
dd3b
29aa
a21d
4317
03b2
16d4
3a44
59e2
2574
83cf
61ed
61e0
72e7
174a
6e03
fc08
b0d6
af12
afc6
6fc3
b47a
1b94
0a5e
285c
5a2d
42ad
232e
f613
33f7
85c6
0163
4598
5885
7602
7102
5068
8055
8fdc
ef4b
2e6a
8713
5ba6
1b36
8b86
3b65
8d62
bd3f
1869
4a15
b26e
319e
18b3
4abf
5648
91d8
d9b5
3381
45b0
9701
91c8
cbe0
50f6
105e
1061
b0c3
af2f
cf9f
8e70
1e54
5b9d
ab89
b9a8
aa2f
c19f
8118
03b6
b5e4
b678
75dc
2a08
3f01
4a03
6382
b328
d3d0
f623
201d
5f89
9c90
acab
8c4b
042b
47ab
67dc
9b68
272d
bb18
cb35
05ad
8d9b
8d84
35ad
1a54
456b
45a8
ea89
312d
add9
11aa
34ca
8c06
9601
9408
dd47
d291
0c69
fc34
0767
1bd5
dda0
a98e
09ad
4564
c5a0
11ac
3167
187c
1aca
18ba
b241
c1e0
06d0
a545
4cc3
2bcf
e6f0
82d3
fa48
fbc2
2296
32b5
33aa
5706
5691
6eb1
63d5
6101
a992
b90d
90da
9fac
bc76
bcb2
4c59
d783
2d9c
18a7
356e
5935
03f4
4541
31b6
7971
d5e0
0be6
1749
874c
8992
91a2
b131
b152
1c7a
24ec
746e
4427
b472
be84
eedc
1720
9b89
ad5d
035d
d9ac
b8a8
a614
b1ad
020b
014c
18bb
b847
19d7
b6d1
d8db
0231
23a5
350f
ac04
adba
f20a
acff
34bb
5435
aed0
de64
8d85
1922
c99f
1aa0
656a
01ab
1669
07c6
2244
c8fa
33ff
88dc
8848
f7c6
d5c4
d302
1d08
2386
2221
390c
8dea
98e9
ce0c
20e5
b05f
3466
4b24
086c
0816
b96c
1a1a
1a65
1a66
15ab
75a0
8219
c26c
1acd
18c0
69b0
327a
22f1
68dd
c3f0
e8dc
3e09
4e09
64e5
7cfa
ba04
c2b2
1037
10a5
6067
b0f0
8f1d
ac13
bc16
5c37
34ae
4eaa
0b64
5b7f
4b2e
fbad
98af
9a68
01b6
06b1
18f0
087d
31e3
5847
72f3
2004
4308
4553
5f02
9b03
bff0
eb4c
10fd
2f5c
7f3c
0463
74df
de9b
b710
6b86
696c
695e
229f
323c
4660
8660
113d
3114
07f2
45d4
63c6
33c8
6ad2
31aa
5991
790d
e10a
2045
a08d
0cbc
1c8c
3461
64ab
fede
47a4
871d
87d3
eb2e
05ac
ad23
ed8d
5d65
3864
f660
1157
2169
c17a
b5f4
884c
0904
1eb9
4d08
47b9
9702
a9fd
204a
c0b5
2f4d
24ac
6426
6e61
2ec0
876e
87dc
ab37
0d3f
1918
b889
588d
38a0
e812
7257
4bc6
18cd
a94e
11f7
63bf
b1f4
8a70
1ddd
b8c0
717e
c301
0d56
9d42
20bf
b09b
7092
1f29
3f4b
9c25
1cad
67aa
abaf
ab36
1ba4
cd94
182c
186a
a9aa
5969
982f
2264
526f
638c
acc0
abf3
8847
dee3
1a51
1c01
1893
2e4b
2f09
3ece
4de6
a502
ae0d
50d9
af13
1f52
acd3
3459
34d3
5eb0
9b1e
bb28
e86f
3a13
5a3f
89de
1a4c
22ec
4976
b245
1ad3
3174
8679
5947
caba
7a7b
b3b5
dbc6
3e46
3205
8501
a659
e4f4
afbf
a4c0
ae35
dd12
089d
3932
7835
25af
4a89
0178
07f3
a9e7
b6e0
95e7
b8dc
1351
4556
8401
a999
b651
dc02
50bf
e077
f0a0
707a
0f59
ac90
8435
3e5f
07b4
6735
bda9
5da8
d9a5
1a3e
9835
baab
225b
328e
012e
6694
18d1
457a
32ca
3542
12e2
b8bc
04e7
62b1
64c7
8208
ac08
5054
e01e
ccbb
bc38
ec73
0419
6ed0
3ebb
47a9
a7a0
1827
2935
2833
036c
129d
863a
3132
03f6
45ed
a8bd
09dc
a944
c8f8
c44d
984c
c148
15f8
c00f
5158
850b
84c4
edea
20dc
20f4
64a9
352b
8535
5a63
7287
d314
b1a0
02e4
92d5
4575
417e
3445
6576
49b6
5440
bbc1
bad1
1a99
1a53
3202
8701
8292
b358
dd0d
fdf0
50c9
1f35
0c2c
acb4
ace4
5c10
2c59
3488
649d
14d0
6e10
3ea0
77bf
aba4
6b5e
bdbe
696e
388c
d816
a55f
ca28
21a4
040f
b247
09b5
e877
3bc2
c6b7
4003
2303
5301
33a5
4585
c1c9
8057
3044
f0d3
3f7d
ffae
cf21
be39
7e9e
0b35
9b33
7b1a
6d65
69a9
f967
a514
3a1f
265d
01db
02f5
69ed
08fa
52ea
8948
d2c0
34fb
4792
5184
62b2
73ed
a69a
80a4
b08f
7095
4feb
afad
1cb0
24c0
4797
a739
fb87
a92e
032f
134e
a3b9
91f8
79b3
72cb
2b4e
2ffb
31a6
3159
3a06
a4c5
b582
bb09
c3ed
5094
b088
c0b9
1f6b
9fc0
24e4
ae10
be1a
9e1e
b72a
ab19
3735
7b89
3ba7
fbdc
ad61
8d8b
8d22
ed99
0232
f82d
598d
035b
7917
75ad
3263
935c
2843
464e
4ccd
27f7
200d
270d
2ffc
8591
93e9
a9f9
ecf8
8e89
5b5d
a735
9931
1a8c
4567
3a2c
923d
31a4
b130
d135
2278
aac4
62c9
3678
a3ff
0ccc
6308
0e49
025a
1896
2555
4e0a
48ea
4103
91c7
f628
747b
843d
c417
ceaa
9ba0
ab9c
1b9b
cba8
082c
0337
1a29
39a5
8812
2562
128b
526b
9365
8687
a12c
02d9
f6ec
584a
86f4
9276
287b
d17a
0e01
05bf
1163
97e5
ab4b
b2b9
dff3
e59a
ecf6
5099
c0cd
4f61
1fa0
bf95
cf3c
442b
c4de
172d
672c
c7a0
f88d
c9a7
c360
663d
7669
0341
18db
b34a
66bb
2ee0
08b0
87fe
0bf0
93b0
03ea
1628
270b
3b4c
3296
4f01
7101
9ef0
d40d
f60c
205f
4029
40f8
b09c
af2d
9fa0
04dc
6e3e
7734
0b3a
0821
191d
456d
4513
55a0
aaa9
58b9
fbfb
1288
2dc3
34e9
44e5
7d40
adc9
c60b
de06
dd53
f209
0faa
1fcc
8c3c
e4bb
6e35
3e29
2e90
4ed9
1837
1829
49af
a969
3967
fa97
1220
b34c
88d4
387a
07e3
1208
fd48
50aa
40e4
1f77
3f46
9ca2
3468
8e31
5e69
476b
1868
8919
455f
a35f
6dd0
2544
42e7
6ccc
2d53
5502
c70a
fb02
50e8
d09e
4f79
0fb6
0f75
bc34
1e28
be9c
fe44
6758
bbab
1d20
0d30
083a
1843
1a73
494c
bcc2
7ee0
9304
0658
455a
6c03
789a
89c0
877a
d50b
305a
1f32
9c94
9cb4
0488
3456
74d0
b4d8
14dc
bb10
eba2
fdb4
7d5c
3538
f9ad
5535
8aa0
1267
123a
668b
261d
c8b1
3eea
31d8
b2e9
52d6
b8ca
bab8
f947
8308
1992
49fd
4d72
53e8
6dcd
a505
b743
db07
eb91
0fc0
6fda
9c1d
bc27
4c7a
ec2b
773e
a79d
9d11
029f
a923
592c
6aa8
d1ad
024a
1a40
b246
a3b1
85de
41bb
35ed
41f4
16a2
2403
5256
50e9
8c26
b462
5484
bba3
57ad
99ad
c935
aa9f
8289
02cb
b379
597a
b271
86e4
83f5
6bc0
330c
01c7
0795
2226
2aa2
3226
3dc9
59c6
51a5
8b08
8bbb
9db9
a9fa
aa08
c163
d108
5059
10f6
b45c
14c0
be31
877c
87a8
022f
2923
d88b
9aaf
2212
826e
7162
9947
45c9
a3b0
6a4e
8643
77c5
0187
1153
3236
6689
69a3
a501
af08
2f18
8c8e
2e6e
ad3d
2da9
888e
585f
258d
2268
8214
1367
d6ad
044c
0275
2bfd
32db
3bc8
8ab6
8abf
aee5
a348
1e05
29c4
4401
6e4e
63aa
c901
e333
3f3d
bc45
6c72
74a4
476f
379b
1bdc
1863
026d
b990
0931
7935
3a1c
1ab7
3570
b443
5bc8
27f9
e847
62e0
65fd
6306
0385
63ee
9981
a386
b70d
b3a8
cdec
5082
7062
2f4a
4cb0
34b9
4453
6427
be1d
ee24
4781
eb85
0824
0397
128e
f630
73a4
169f
e63a
92d3
45e2
7ad0
1ae9
bbf3
aabb
88b3
c5cc
04f2
8204
b551
bd52
b359
2f39
0f66
cca9
ac10
6c9c
2c5e
f473
14b6
d4d3
fe91
abaa
e712
cbee
1d39
1890
296a
b8a5
3a34
3a25
8394
916b
2248
32c8
abf2
36b1
b3f7
13b6
c808
0ff8
2353
3223
3b03
3ef4
3db5
3406
4aa3
4599
4998
6388
86a1
de08
ff0a
e03d
2fe9
0c26
6c47
478e
c7b4
d7aa
1d38
a825
3112
187b
3244
217b
36b3
7949
7246
5808
12a3
19a3
5e07
6331
71a8
7de3
82bc
9602
989a
e388
0418
479f
f7a1
679b
57dc
05a5
2dac
7938
8a5d
d2a9
112f
5137
07f1
417a
aac9
c2fd
5ae0
da46
0670
d648
2b47
39f2
5de0
5df0
77e3
bf0a
ddc1
50fd
605a
4081
afa0
afe4
afa3
3f8c
7fc0
dcdc
5c38
fcb8
0e9c
b734
b7d8
1724
ab2d
8b60
1889
039b
1a24
e82b
d526
c537
aa35
16bc
7278
d948
f30b
23e9
2be3
49a3
529a
b2b3
c883
fb77
ccb9
6c9d
845c
e4c0
941f
9e2e
9ed0
0b30
379f
e73c
0567
6da8
4530
ea9e
8a33
2262
3289
1667
1acf
224a
86b4
28db
8acd
0192
218c
5292
69fe
71a1
7b79
825a
b62a
80db
1faa
bf21
ffe6
cc6c
ec5e
34c0
149c
8419
ce35
b7dc
07af
0bdd
b5ad
e534
4a35
06ae
73ae
b64a
a8c1
6eec
12f0
c6e9
76fd
7bc0
6b08
7581
cb01
d908
de7d
408c
40c6
5fae
0fcb
3453
7460
849b
e4b4
3e95
be35
ce65
77a1
c72b
fb13
fdb7
1d5d
6d84
4969
9936
0935
4587
faad
422c
865c
4973
35fb
6948
86dd
05f8
4ae0
f2c3
2ab5
1948
1508
3405
4d01
4d07
6603
6dc6
7c04
8661
9a56
2035
e048
4074
f08d
4f2f
0c19
6cbb
54ef
0e9a
47a0
478b
8719
bbd1
2db0
493d
a95b
1a2c
b58e
a52d
c657
3369
233d
219c
1aee
04fe
2282
2f05
450c
50c1
a0b9
2f22
6f77
bc39
0486
ae2a
ce64
37a8
1d8c
ad8e
ed77
8994
9954
a8a4
5a22
8233
e3a0
a69c
03cf
18b8
c17c
1af5
62c8
35d9
53b5
654f
f3ce
23f0
4ef4
4b73
53dc
6116
b1c1
c7e1
ea03
50b9
c0fc
7fcc
acbc
8c29
1c11
5cbc
7435
4457
2e8e
4e51
1e92
9b10
183a
f88e
a93b
09a5
1a13
458b
b51f
b52e
b59c
3a6a
7684
03f8
1846
35ff
08dc
3bcc
36fc
05d0
c1f4
a1b7
0c01
2b02
240e
3e42
6a88
b18b
d7b9
e9a6
f625
808d
208c
2032
609b
6f4b
9f30
34dc
4415
e429
e47a
f954
8889
1534
a55b
f330
d324
531a
f610
811f
49dc
12d0
69ee
22f8
4ee5
e6b0
e304
0323
1cf2
3506
3282
3a0f
4e06
5cfb
6bec
7208
8e0c
aa06
c203
50cf
b028
146c
ee90
5e1d
bb53
3d1b
8d74
cd1e
4584
b2a9
0445
68fd
16cc
3ddc
a6d4
4742
4408
ab4c
e9c7
5045
40b8
b06c
c0ae
8f35
6f9c
efc6
ace7
1ce8
d463
3e18
cec0
b7a7
b73a
57aa
9d8c
492d
0967
882f
8822
2a84
9a65
c257
2664
9619
71ad
300b
45eb
a547
a8c7
87c2
a5f8
47fd
25f0
baba
f9db
0b05
1904
17b1
a6a6
adea
b4e1
507b
109a
5f7e
3f35
ff3f
2e89
2e93
4ed0
7769
0b38
3b35
9d2a
0324
d531
3a1e
2263
7335
768c
11a7
02ec
4549
3ee2
addd
3576
68bb
0575
d8c6
3603
48ec
7583
8225
50ea
50f2
c0fa
d02b
8fcd
afa7
ffab
cf89
ecdc
b4d6
1eb0
be9f
6769
abad
6b30
056d
cd12
692e
198e
0334
aa28
6aa9
4179
31f3
bbf1
b842
53b4
e2c5
8ee8
1b4e
2299
24f0
6704
8cfb
8e48
8a91
87bd
9ef4
aded
e5b8
fa08
50e1
702f
707b
7043
8fd9
cc9d
44e0
f471
b42f
5464
9e4f
07db
f756
eb20
fd69
0584
1d6a
2a20
3234
636f
0660
363c
87cc
33b7
e64e
77fd
9ab5
d148
1bb9
2b01
9d45
b5b2
f602
d08b
0f23
dc72
4cd3
1c47
5c23
e4b8
94b8
5e36
47a3
871f
4b5e
35af
495c
19a7
7a28
1876
187e
11fd
56e1
854a
41e7
a7c0
1892
3ffa
574c
57e5
6e47
7d05
a9f8
ae07
107b
f067
ef75
acd4
ac33
04d5
346b
1726
8755
2753
dda4
9810
988e
e835
152f
ea35
5a35
e22d
7290
f61c
f1ab
b135
18cf
18fa
18f5
29bb
76b4
08f5
59b5
0599
7dfd
8c08
8888
aa55
af98
9c12
cc81
ec1b
046d
247a
84e0
a41a
3eb0
3eb4
07ad
c7ad
bb38
181b
1858
aa6f
8a32
5289
33a0
b39f
b642
aace
5cc0
bbc9
8bfd
c6b4
e442
e5fd
2151
45be
72b9
750c
860c
9cf8
c208
edc2
1042
40f3
2f1b
6f2d
bfb5
5c35
b47c
fb10
183e
855e
f2a4
c13a
615c
454b
18de
c5f3
b24a
32d0
354e
86e1
b7c9
0689
54e9
8d0f
9c0e
b583
ba06
c9c3
d778
f636
50b2
50e3
30b9
c08e
9f68
9c69
5c27
3477
be2c
7e12
07a4
2b65
8da8
999e
59a9
2839
036f
4267
768d
263c
31a0
5135
4bc0
0277
6949
11f8
88c6
59e0
62db
1cfd
18e5
1856
1740
34c9
320d
4a08
ad47
be03
bb0c
ddfd
d906
eb7d
5025
50d6
50c2
609d
7057
9020
9077
bc64
6ca7
3ea9
bb3d
379e
3b86
055c
ad68
892d
e99c
381e
2511
8263
c36d
1612
1168
6148
49d1
6578
197b
567e
4eef
76bb
e1dc
b57e
4a40
48f6
1db5
3251
63a2
79f0
7704
81a2
ad0c
acf5
c2bf
fb4c
10b1
afc5
bf10
9cab
ec18
3eac
4ebc
cd10
191a
f98b
7a1b
c690
357e
dacb
49bc
b5de
ca47
42d0
6006
0603
0155
1d02
5708
6b77
650f
69c7
7f07
ca01
fc03
5fdc
6ce9
7c68
ec9b
2e22
2b89
57a9
3db0
a9ae
a62f
262e
22cb
1af3
91ee
12f8
9bc6
787a
0502
0c0b
18e6
3185
56a8
7598
9666
adce
c699
40de
6cb3
046a
9e19
f75f
3b89
2d69
18a4
8997
6969
f88c
0919
2319
e35c
07f8
07cc
7ac8
05d4
f001
0d0b
21ce
5f03
8740
ba01
eb08
ebe5
fe75
5f2c
6fd2
9fb4
7fc6
97a6
67ae
878f
9d14
dd14
088c
1860
181a
8954
c933
888c
ba10
656b
855c
5534
1287
321d
c613
2338
0407
b34d
b343
63f1
85f7
8673
71d9
93c6
62d8
13f0
99e0
174e
2d91
2b4f
49c4
5d09
7749
8c04
9de9
c331
edc4
fbba
30ab
af29
745d
3e97
3e1d
fedb
9786
4788
1738
2735
1b14
0839
8934
993c
098e
58a8
a5a0
3262
8135
03c2
06bc
02ce
964e
87f4
a170
2a03
33a8
31ca
d702
fb01
fdec
20bd
0c41
7c7a
7ce2
0428
0421
64a3
67a8
6b35
fd17
1a5f
45ad
5819
3a66
1269
c635
b11f
12c2
aad1
a8df
b5d7
67c0
41bc
96b1
c677
1225
24ed
2181
3e48
a408
ec07
d08d
0c60
8c54
5426
0e2b
3e67
8eac
ae32
47d3
6d15
081e
493b
d51b
2a35
b260
f38c
3330
a65b
03f9
06cb
09b2
1978
63b2
67c4
2372
b1b9
e6bb
dad0
e8f5
0745
1df5
2551
2e4e
65b0
6402
d701
50c7
206a
a055
9c31
8c15
3457
0ec0
ce15
e7ae
ad8a
4d1c
a930
a933
4826
85a9
e58f
b213
53ad
c169
02cd
45f3
a8cc
56b1
887e
b6c8
5177
76ef
814b
73c9
2670
018e
04cd
0351
11a6
1743
3ecb
369a
3209
45b6
6d81
7ec3
73e6
89c6
b504
bb03
b187
b3db
c121
e601
f1a6
cf51
6c7d
5467
1459
fe5e
07d0
0b5a
1b29
489b
451c
b560
859e
38a8
95ac
1265
2314
6dd4
254d
c1e9
aad8
a947
abc0
e1d2
8ad9
487e
f8c5
5a74
830b
022a
2eb5
55b2
5b95
8e04
9db5
9db8
b5b0
e906
d08c
ac9f
24b9
541a
3e83
bedc
053d
4d8a
496f
995f
1913
455c
3a38
b635
a68f
5167
89d0
1a4a
07c8
31bc
b1ea
6a4d
3abd
83b4
7cc0
a2ca
0df4
1e79
32a3
4603
450d
8608
985a
a658
a4e2
b407
c402
3052
afc3
0cd7
3496
c43e
8e74
ae12
be65
bede
97a4
5bb0
a76c
9d3b
e99b
888d
788f
12a5
8aba
68b9
997c
7acf
9878
e1f9
2008
0e4e
0625
1231
129a
3e0d
5a07
62a1
6eb2
6a02
7d47
8dfd
b851
fe0a
f201
a0c9
ac97
aca3
3cd4
7caf
2ea0
4ede
0794
07d7
a7a6
6ba2
3d55
1811
a98d
75a8
18b6
22fd
c2cc
1270
96b0
aaf5
15a6
31a2
4583
4201
6da2
8708
8655
c2a2
209c
e07a
30ec
f0e5
4f14
8f4f
5f44
8c87
4ce0
e492
0e57
be8e
2d32
1824
39aa
e935
5529
a26c
d29b
b1e7
2175
1af4
5971
12f9
b2ee
3943
98f4
d3cb
76d3
29e0
f008
1296
41a3
7b4d
9982
c60d
d593
ede2
edbd
30dd
8fea
ffdd
ccb4
4c8c
3494
9413
3e9b
7ede
7729
f72e
5bbf
2b51
2bd2
49ae
0369
79ad
1a3b
7524
5a20
0157
4320
511a
68f0
4ae1
5a7e
312a
5c0b
5e0e
6401
89c4
8772
c2b0
f893
808c
c0e1
afe5
6f89
6fe0
9c58
cc3e
8c48
4c72
ce91
1725
ab13
eb59
3d27
9dbc
0969
a524
122e
c263
5354
562e
a65c
112c
0846
35f8
69d5
b348
06d1
3571
b64b
aabe
26cd
317c
88c0
6bc6
1891
310a
5a0a
6502
64e2
adc7
d189
508d
8f4e
2f42
afa4
6fa6
6fb5
bf98
ffd5
cc9b
4429
647a
1464
846e
2e8c
1e8d
1e23
7735
6731
dda9
1830
d91a
4537
7854
c6a7
331c
916e
0345
18f7
56ca
bac3
b8f8
65f8
987a
9ab4
21ed
4ddc
c002
06a5
1202
21a9
67b5
8d08
8e4c
abed
cdc0
e206
107e
60cc
2f56
6f28
3464
3433
949c
c4b9
2e94
492c
4519
01af
b63f
a665
3684
01de
01b4
45ee
6940
11bb
88c1
78bf
36ff
7abb
b00f
2388
45a2
4a01
5da6
59f8
84c6
9d4b
b156
eec3
e881
20c3
30d0
d0dc
bf20
bf27
ffc0
6c31
2cdf
fcbf
0474
b4b9
e467
3e59
e7a0
8bb0
2d2d
0d31
cd8a
989d
2563
3a36
c5aa
753d
ca1b
821a
f327
a637
01d4
69d2
6946
197e
16c2
93fc
e5c9
53c1
68da
55e0
2945
48d8
6305
03ef
3882
3798
818a
ad48
aaaa
a607
c151
205a
40da
c046
8f86
1f28
bf1c
9fd4
ec8d
3432
4431
f43f
6e44
1e59
ce6d
fba8
2d9e
3529
2910
1a11
682f
5839
1522
2558
7532
6a5e
122f
6330
6a42
e148
c1fd
57f3
9008
120d
3ec4
4f0c
5103
69c2
7ece
8e0a
8dff
bf07
cdfd
c608
e666
e636
ff04
f60d
6078
b06b
a014
ffb3
0ce3
0436
d464
9492
3eb7
4ea6
bed5
ce93
3bb0
cbdd
1d94
18ab
2965
45ae
18fc
087f
4573
69b4
357d
9845
58c0
8ae7
79b2
9a70
92c0
170b
1cfa
2db6
4efd
a9f5
c351
d9ff
40dc
f083
704b
d071
afd4
afc0
1cd8
fce4
74d5
8e28
ae25
fe63
379d
e7d3
0894
f88b
1a38
685c
f3a0
c167
11af
05c9
02c9
b5e2
b6b1
b1ba
9870
c9b8
36ef
730a
08e7
1886
5598
6dc1
6d49
8e4d
93e4
a604
b6a6
b10c
dcfb
fcf7
2040
4057
f038
2f87
afcf
6f69
ffe8
acb5
bcd9
1c19
2cda
fcac
3e89
2e1c
9da8
0263
b994
1988
5512
952a
7235
3638
51ab
01d0
2542
35f0
1ad1
89e9
16b7
da78
1d79
2def
59f7
638a
7251
ae72
ddc0
d682
ed07
5026
50ce
50c8
d022
0db4
a932
486d
48a8
451b
5533
a52b
aaa0
4135
c1e6
45da
abc1
a8f7
9174
4348
d870
e5f8
1392
34f0
4681
6f07
8f08
ad76
c3dc
50be
50d2
202d
b022
c08c
4fe3
1fc4
ef3d
ccb0
aca0
8c2b
643d
2e8d
9e5e
0b88
ebab
a827
95ad
b25c
f38d
63af
3134
01d2
22ea
227b
19bc
4eee
b6c6
52cc
780e
2eb9
2256
43e9
56aa
6203
6d02
73d4
8601
aefc
a209
f0fd
5f8b
afc4
6fc6
3f26
9f5e
7f1e
2465
54de
2e69
075c
7b20
052b
ed8f
ed13
498f
f88f
4568
e52d
a2a9
866a
45d5
22d0
597c
fac9
0709
19f5
12b7
1cfc
43d5
c681
c1c4
d55a
ed93
a079
9c6d
5c6a
7e40
ab35
bd9f
a9a0
4834
095f
452f
582d
585e
b367
43ac
1a7e
a9d8
3579
68bd
5ccf
31df
35d5
97c8
99b3
99df
0cf1
21a6
3e08
3295
5d42
7909
a9ff
c906
104b
60d5
3fdc
bfe0
2464
34a0
347d
54ff
b719
a764
2dad
693b
a99f
255b
c55d
8213
f36c
c32f
313b
03c4
c9ee
91f1
13ce
dee9
7ab1
9802
05ba
2773
3e02
5747
6a04
8b98
affd
a8e9
b5a2
e7e0
f10a
2019
3060
90a4
90c7
df58
3c5f
2e7e
fe54
472f
1759
8731
5b90
c790
8baa
4b68
fb38
693a
283d
165d
2635
4119
35f5
09d0
23b0
8647
4cc7
f97b
367d
f442
faeb
b308
1b40
2405
4128
5b4c
88e6
9101
aefb
b4e7
e9fd
e2a2
50eb
d09f
d0f0
1c14
5cab
34dd
f46f
7e9d
97ad
8b66
6bad
6968
492f
8837
78ae
d52d
3a2e
838e
0654
3154
45fe
08d3
11f1
abf4
c9ef
1271
59e8
ba4b
83b0
26fe
a14e
8807
29fd
2e76
5131
5e03
8291
8666
a74a
b111
ed02
50a7
50fe
2f94
bc5e
8c16
7c13
3426
b466
d478
3e66
8e29
5e2d
dd8a
8554
e55f
3362
cdd5
b9bd
2841
a8c8
a97f
c84c
86cc
f3c6
d8c0
01c5
1f02
14c9
39c2
3ef3
3e0f
6696
64f1
7be2
bbef
d292
0fe0
9c77
4474
b424
f730
17d9
67ab
a71d
1b18
6d6d
6d69
091b
29a5
2518
25a4
3a3f
aa14
b638
b15e
a166
65e2
56ce
b5f8
1177
9cca
294a
2a42
b804
0da6
1902
1956
3f0a
3ef2
5d08
7705
93e6
ae01
e386
206f
309b
2fde
6f78
ac18
44be
94ae
0e86
0ed2
3e8f
fe6e
87a9
5b87
d759
bb20
8b6d
1da5
2d85
5d1f
0811
8910
498d
f867
5528
3210
32ab
d265
531e
315e
31dd
c1d3
880d
0777
0e48
0691
1a5a
11c4
1898
120f
2ff0
5101
87b3
d692
5056
60ea
30c5
b035
a06d
d095
2f2d
9f67
ff37
4c8e
b4e4
145d
8ea0
9b18
abdb
2b2d
2ba9
ad19
1825
998d
a9ab
b5a8
6264
f257
dac8
63fa
e143
77c3
9ddc
81bc
f809
0296
0cf4
1e43
2382
3efe
5dc5
569a
7a0f
838a
ae79
b5b9
ddef
f1c5
b0bf
d035
ffa8
9c71
cc35
9427
c485
be89
de57
1713
6727
9b35
27df
8d14
5d61
a95d
5919
45a4
d89c
3a6e
3a33
b214
e12f
58b8
06e6
06ef
22d7
aada
197a
63c3
2642
28c4
2ab0
41d0
14c6
6389
66a2
690b
69c1
bb07
c904
cdb2
c408
505c
50a1
3016
b08c
dc5d
bc5d
5c2d
24ae
c49b
6e54
de62
07da
476d
17dc
c75d
d72e
8dad
a98f
0965
c88d
8a36
9213
b387
1a7c
63ba
b1f7
c6b2
6a7e
46b0
c140
e57c
9ac6
9148
e308
3a08
9501
a9c4
abb3
a4ce
b2a1
b74b
f1c6
10f5
709e
3f89
bf22
ffb1
0ca9
1c4b
ae51
7770
bb88
8d5c
0db0
035c
aa54
b266
044b
1878
43c6
8842
16f2
c3f5
cbc6
aaff
dae0
0651
1131
18ec
2108
3eb8
3e7a
5dc0
de0e
f74d
e055
3066
909b
bf2b
0c9c
2eab
9e24
9b3a
c752
8d8e
edaa
b554
651e
6513
6531
22af
621a
a254
e38d
a6ab
7133
0373
18df
18f8
22e8
35f4
b9e6
a8ca
37c6
aa7e
4cc0
6a7d
77f2
1dd5
73c6
02be
1746
3555
7609
85b2
96a6
a1c6
ab96
bc05
ed98
5038
50a8
60e5
3094
6f1e
3f32
dfdc
cce8
2cb9
b46f
6e14
3e87
ae18
be3a
9735
77a0
053c
bd3e
e834
1538
126e
3237
b3af
13ae
569b
a124
1ada
88db
4ae2
b6e5
aafd
1ddc
f8ce
76e3
e3c9
0ffe
28e4
27e4
310e
45b7
63e5
67b6
8777
a882
b591
b3e7
b1cc
e385
e153
10f2
30ca
4f34
af31
9f16
dfac
9ce3
ac98
34cc
8439
d41f
d4a6
947f
7ed0
693c
9935
281f
0368
451f
9867
6523
7567
0662
a632
4635
3635
06b0
58bc
5bc3
a84d
b2ce
8ae1
25fd
91dc
a2d0
e00b
1a81
27b3
2b08
2bb9
4f08
5df8
6693
6c07
7696
9dfb
abef
b4f5
b6a8
5095
808f
ffe3
4ca9
1ced
5c41
7c2a
7c45
0431
3428
3e90
de14
4731
d73b
1b86
fdee
ad88
8da5
b528
1520
6a27
2a12
b254
621e
536d
313c
a6ed
b1e4
2171
aab1
b9d0
49ee
88b5
46c1
58c1
434b
76d9
13b0
7447
a5d9
b877
a001
62bb
668a
79c9
9e04
9c0d
a9cf
b2bc
bdfb
f607
fdef
d089
5fe5
bfd0
df34
0c49
acd2
5cbf
2c9d
14cf
ae2e
97a8
1722
5ba2
2bac
575f
ad69
ad99
7934
39ab
8832
b5a7
b8af
5826
558c
b28b
52a9
c39c
165e
968f
3119
2132
0870
31ba
1ae2
e872
8bc6
32ed
0542
a5fd
c6b0
8ad0
2348
6878
e2c9
0b07
0ecb
24e1
27ea
41c4
49c7
57b9
8599
a2a6
d356
506f
1093
a0e2
90f5
6fac
bf43
dfdf
3ce9
3ce6
4c65
5c3d
3458
4428
f4b0
6e51
3ea7
8e62
be5b
7b84
2d88
8da0
bd3a
03af
d935
5835
a530
c297
638f
7397
07cf
6943
89bd
87c8
68cc
78f2
a8f9
4371
8ac8
e6d8
c9be
a344
0de1
1852
5a98
7608
7228
aef2
c689
cd49
c792
ca05
506b
50db
6061
c049
af27
bc3d
1478
6e7c
3e82
7eaa
0799
5b94
e75e
8dac
9d89
026a
a92a
1a61
b58d
553c
6a8f
ca1c
769c
b9b1
b2d3
a8d8
88d6
4ab9
42c6
35dc
c1fa
b97d
a801
0b04
4a0f
ac0a
b663
c403
b0a0
c0f4
7098
ffdc
1caa
0424
4419
3e56
8ebb
7bd3
8d69
8a97
12ab
0613
a6ad
3d93
319a
774d
91a6
a389
b8eb
effd
50fc
4061
c053
f08e
908e
afe3
4cd2
549b
54a1
6757
8d16
a884
985d
3866
1533
d5a9
8a12
635b
19b5
a9d2
85d6
a84c
78c0
e67e
b2e0
7a48
1bf0
53f4
a27f
f847
72d9
d80e
0d91
2de2
35be
4e05
5402
6596
75bc
8a85
81a1
81c0
8a02
93d5
b1a5
3fbe
dc7a
0c48
9c51
cc6e
6c70
248f
8e64
aeae
f76d
9b57
bb1c
57a4
378e
e7ad
0589
1a3a
a823
626c
45e5
02ca
4574
29b4
5444
2bce
c371
91bf
58c6
d8fd
7aef
a5d3
0be2
2a58
2ec4
34c8
340d
5608
69f8
8d46
9b05
9905
a90e
cd92
d408
9fb7
6c35
8cdc
2ce3
b4df
073d
878a
0b2e
9bd2
271c
2b60
bb11
3d14
0511
ad65
0d8e
4dad
a566
aa25
828e
929e
4262
262f
b11e
b3c7
b677
77fb
3877
9302
0f03
14c1
3747
5a55
59c4
510e
aa95
e741
f116
af2e
afc8
3c22
0423
6493
b45b
3edc
3ea6
4e95
de31
eb19
3b52
ad70
0915
4a2d
828f
53a0
7635
d11b
18f4
31b7
29b3
a8dc
2447
564b
c6ee
f6f2
48ce
6675
717d
03e2
09fb
14c8
39c9
5907
6e72
8df3
a701
af0b
c28a
c109
ee4e
e22a
eb78
80b9
5f5f
6fad
1c3d
0e97
7e2e
fe1f
97b4
fd1e
1db4
ad3f
199d
29a7
3933
d536
52aa
1613
c8bf
19b1
3ee1
45d7
b1eb
a8db
88b7
59e7
72f4
917e
d7c5
d7c2
21dc
9374
400d
0659
0e4d
1d45
23e6
5def
58e5
6a58
7e01
7e46
8904
8185
ad0a
a9c7
f2bb
3095
d0e0
6fde
ff70
34a3
b47d
3e60
775e
876a
ed8c
0da8
5dad
0861
6963
4911
991c
d88e
7569
b23e
c258
b360
f12c
c133
b3c3
b44d
3545
f97f
78c2
36f0
1bfb
3acc
61fd
81f1
4006
03aa
1199
39f8
49fb
5ec3
5606
8e02
9c0c
acf4
b9fd
d386
e3d1
f392
508b
4034
b0d4
6fe1
ac23
7c6d
ecb9
34a2
e4d1
9e38
db88
cba9
0554
2920
28ae
1aa7
1339
96ab
f1ac
18b9
b5e7
4644
3144
3670
35c6
35c1
faf2
01c3
13a1
4df4
6503
63a6
8db6
a128
abeb
a404
b682
ceb8
ed4e
10f8
904e
7fa2
1cb9
3434
b426
3ec0
5eb7
f8ae
789b
8a1c
b313
638b
c1ea
19b7
b6ba
3448
aa4a
4446
b5ff
a9ef
a5c6
91bd
16fa
41ed
38dc
07b1
0cf3
0ff9
17e9
24f4
6f0b
6d42
6405
7402
a747
5039
2037
30f6
c018
c068
d023
af10
9c48
5c21
442d
1479
3e68
de8b
2b6d
fb86
4da0
1832
891f
f8a5
7924
88a5
da9e
d387
0697
a849
2bc3
f97e
12f4
86d8
c6be
46e8
83c6
9a77
4951
8659
99a3
bbb2
c18b
ccd8
bc3e
7cae
94da
aea7
de27
272a
bb1a
6930
2821
d9aa
452d
a88e
3832
e530
539c
f684
0948
a6b9
6a4f
85fb
9ac5
81e6
9afe
d5ce
400a
0506
0ece
07e6
1882
1188
222a
2efe
37e0
4793
6d91
64e1
63da
8e49
8852
e585
f604
5067
505a
2058
1047
40f1
3057
70fb
6f5f
1f24
bc35
bc96
4cd1
7c59
9e1f
f735
1728
bbac
6839
6535
8a5f
2337
5367
5635
e6ac
03b4
add3
a9de
c179
3aba
83c7
a6d5
c302
0ff6
2352
250f
3ef8
41c6
7d02
8704
822a
a50d
a90d
c3a1
d388
d18b
50dc
4037
30cb
af97
9f60
acbf
b4ee
3eff
4ed3
be9b
9713
7785
d7ac
ab94
a734
bb1d
ad6b
8d39
7da0
892f
993a
032d
45a5
2530
6a19
a211
d330
d3ad
6387
f611
112b
e12b
0446
b5df
637a
28dd
3ae0
a578
d874
2cfb
3da6
360b
3a07
4e04
47b1
63e7
8e42
a4ea
a626
c9c5
806e
f0f5
a03a
d021
2f69
0f4d
1f90
ffc4
7fd8
9c30
6c73
1c13
fc4c
04a7
04bd
4487
6e1a
2eff
eed0
051b
0d77
02ad
5828
1511
4a3d
862e
acc9
a6b0
3170
1afa
b274
4afb
b948
e572
2578
11d9
9ad0
a6d0
0ee5
26fd
1f08
1e71
1a56
2f04
3a58
4581
6b05
6686
71c2
7be6
840a
840f
95b3
af02
b6a3
3087
b024
b0cb
c034
8f62
af16
1c6f
1c16
7c35
543e
fe39
de25
4d5f
459b
4a13
2a18
f334
45f7
a8dd
997b
7540
85d1
71db
984f
26d0
1181
6908
6f05
b77d
b749
d1c2
d3a1
fdb1
5096
80b2
30e5
a0fc
9044
2f6f
6f4a
bfa8
9f95
ff97
e434
c422
8ec0
7e25
5e2c
47b0
bbd6
1b15
cd26
18aa
4827
b52d
5813
65a5
8a84
3284
b220
02e7
b240
b64c
16c0
c1dc
51fd
1947
b7fd
e2f4
f371
0336
0225
160a
19ce
2b40
6702
7ecd
890e
88e7
a50b
ce79
c19a
fffd
b069
9c2a
348c
6421
84b9
ae16
77ae
879b
bb5e
bb12
1b63
0d10
1855
9921
a85c
38ad
e824
c66e
3394
b33d
4614
263e
1af0
66fd
887d
58d1
f8c3
fade
f440
2e7a
4a05
5689
54fe
7103
9201
b703
dde9
80bf
40a6
3062
3fa0
cfac
ccd2
6c9b
2c5a
7c6e
ec6f
8413
3e14
4790
a78c
dd33
5d34
f861
1a6d
5887
853b
1297
019c
163c
462e
0443
17f2
c5ed
8548
567a
a67c
6375
e9e6
06a6
1e4e
24ca
3113
5bbb
6b06
9b0f
ada1
b406
d253
e5b6
e605
edc3
e101
fa03
40d0
f0a6
0c6f
0437
04b1
24b4
c4d8
0e23
eeff
bdab
cd35
a91c
45ac
a85d
d88c
8a2a
439c
1133
49d7
a9d1
08cf
2dde
644f
35de
66ce
b8d2
4341
c94e
fadf
8573
857e
79ef
f670
1609
35b3
3288
3281
4e4b
6692
69f4
7d03
87b1
9d79
94e6
a583
a136
b184
b981
b3e8
c743
5078
404b
306d
c090
af34
0f21
ef35
cc8e
b4bb
3ed3
b7ad
8788
2789
0539
1864
495b
592e
5984
e99e
8810
aa2b
4a2e
4aab
a2a4
f62f
7639
69da
2ae1
2172
c1bc
9974
c6c6
c375
d3c2
9dd0
f8be
57c0
630b
a308
7308
0581
0c0d
01cf
1ef5
1a95
18e1
2ef0
690f
8c0b
889a
8d72
b8e7
b201
c696
d7e0
f629
50df
5075
10dc
c03a
5fd4
af86
0f40
1f89
3f31
345f
84a6
0e1b
4e19
7784
c7d0
8b9f
ad14
183f
8937
036a
853f
d83b
d59c
9a2d
52a7
06a0
1665
45f8
c173
b9d8
abf9
a977
c2f0
f6bd
98dd
f240
55dc
d002
07b9
0292
19a2
3156
440e
8b0a
97e0
e746
8047
20d6
30f7
f0b9
0f1d
3f41
bf5d
8c7b
6489
3e10
8eaf
ce8f
9734
1b8a
4b54
2d66
ed11
f81e
19a9
25a0
3a37
aa84
93ad
633a
c318
266e
1167
b341
11b9
eddf
eddc
aac2
58d7
eab6
41f3
76cd
4adc
0636
1255
3e73
5d91
6ff0
64e6
7686
85b4
8b42
8f05
a3dc
bb0d
c29a
df01
dec8
5f4f
2f4e
2fc2
0f19
9f48
cf52
64ec
0e9e
3e3e
3e16
2eb4
8789
9b9e
b955
a96c
4528
6518
6aac
9290
b35d
45db
1aed
1af8
b9da
444e
297a
a5ef
e547
e5c3
c2c1
9578
e1de
8271
e670
98c6
f308
0f01
335a
4eb9
41aa
71a5
8def
9795
ac07
c9c9
ce48
ce07
d703
d689
db7d
3fbb
9fa7
dfaa
efbf
9c37
9c8d
9cbe
9cd5
bc94
8ce5
2c9b
2e63
9e81
9b21
9b86
a710
6bb0
2d5f
0838
a93a
59a7
8897
68a4
ba62
e894
6a6b
822f
c35c
f665
461d
23b5
33fc
5970
66ee
46c9
48bd
15ff
d841
0bb3
17b8
2efc
3701
c5b7
e2be
80a9
109d
2fdf
afa8
cc28
acbe
6cbd
ec20
fc29
6e31
b761
9b2d
5920
c93b
1a2e
d513
4a8d
b211
0657
061a
e624
3bf0
0440
254f
baea
434c
ddd4
3946
98fa
d6ce
36e0
73b2
b307
0899
0ec3
0666
0dc8
18ef
1207
2898
2eca
56a1
6a81
7184
8ec2
aa09
bc09
f386
fd05
f7ef
50a3
8038
1034
c05a
6fd1
9c54
acdc
bc72
8c45
4c1b
249c
54b0
84a2
d45f
1e19
de1c
17aa
876d
57a7
fba2
9d18
cd2e
355c
a994
1a8d
7828
aa6c
122b
432b
316f
0347
87e9
12ce
85ec
22db
12db
bbf9
26c3
b374
a97d
4cc6
2bc6
46d1
71b0
a2ce
0b95
0583
0586
2d0b
2255
3ec3
4dcc
655a
6709
67ec
81a5
d2be
ee45
f9cd
80dc
4fc3
cfe5
6cdf
2ce5
74d3
f49b
8e2a
9bb0
fd36
1d37
3533
0910
2927
456f
453a
25aa
aa21
235b
73a0
1690
c11e
d133
02c2
7adf
eddb
4ee0
8a7d
28d0
5ad0
e1e5
36e8
18a3
13dd
2185
2be1
3105
6a06
b592
bd06
e236
e699
fda6
203b
10db
b0f8
2c19
ec28
0413
2478
54ec
5478
9465
ae68
7e83
078e
c764
d715
359c
a910
5930
982a
15aa
556e
a39e
163e
2694
69b5
31b8
224d
22d4
bbfd
3177
e5d5
117a
15ee
b6c1
83f7
d1d8
8af0
484b
e34e
159a
22bd
3dc0
3ebd
329a
3e71
5e08
570e
8e45
9503
a608
adb6
a696
d9f0
ddb6
d193
f899
fdfa
2051
20c4
602f
b036
0f34
dfef
dfa1
9c84
0472
9b2f
ebb4
9d84
ed74
bd25
185f
b936
4815
036b
e88b
559f
c365
a36e
87ed
05cd
65dc
42ea
43b6
f87a
88f3
8947
2308
5304
9803
900b
24ce
3602
3163
550e
6403
6505
8331
84cb
91a8
ee08
106c
90a0
cc2f
acd6
8c55
4cb6
24bb
64bb
649a
b4b0
c4a8
3e6d
1ed2
4774
67dd
1b8e
cbd3
fd24
0563
6d22
6957
b92a
796b
8869
5823
3835
5513
d528
8a60
e69f
45fc
b248
08bc
f6ea
b57b
757c
b6d0
ebf0
d2ea
1de7
18a1
3b08
8201
9b4f
bc0e
ecf5
f85a
c037
70bf
0c3f
8cbc
246f
342b
5485
4e1d
7786
f759
0bb7
c7dc
d7ad
ab97
6b18
4b60
fb24
fb69
1a97
e9a9
a5a9
aa1e
aa5c
329e
b339
03c1
1ad0
b67b
b9ec
aad7
08cd
abfc
127d
8a4e
8ad4
9cc0
98cd
17c6
48f4
e3cf
28b5
0395
0c05
0d86
1b08
2b48
3386
38ef
41cb
6385
93da
ad04
bdc6
50f4
8079
20ac
e0f0
b096
70d6
2f2c
3fac
bf35
bf11
9c6a
14a7
d4ef
9420
be54
ce90
7eab
9e62
9b20
c7ac
c763
6dbc
8924
5915
038b
038e
a5aa
3a11
c28f
c662
f387
839d
4667
38fc
0349
06c0
224e
65ef
3276
bee0
a84e
c645
faee
680e
07b8
1eb5
27b2
3129
340b
4df8
4dc5
4e43
5b91
aef3
c5a6
edc8
f3a2
af2a
ffd4
dc9d
9c2d
bc5a
2426
349f
449f
3e23
8e96
6713
d7bb
aba7
a7a7
3790
37a6
2d38
181f
3528
09a9
29a0
a88f
155d
4a2f
fa30
b233
338e
32c6
69ef
11ef
b275
abcf
1240
86ea
72dc
9801
03d7
1e48
2d0a
5b93
aff0
ad86
b4e9
cdf0
d9fd
e603
e4c3
807d
2088
60ed
40d7
701b
8fa8
8fba
0cb4
8c8b
6481
5453
6ea1
0e91
3e31
1ed0
c739
dbb7
bb15
e7aa
3d1c
ad3e
2d12
0da4
3560
69a5
c968
9869
e584
55a8
a527
936b
c1a7
71ae
45e7
58be
0645
3442
56c7
494f
3a49
097f
93f4
53cc
56ea
6448
a8fd
46c6
2cc7
937a
a447
764a
7001
0702
35b0
3e07
4798
6d46
6a05
8705
8bed
9885
99a1
abb1
b5be
baa6
b9f3
b4f1
f202
5090
8020
b038
8fb3
2f20
1c35
eca3
346a
843b
4e62
b72b
b728
972e
4725
5713
7b18
1d29
0d6e
18ae
291b
039e
82a9
18d5
2543
45c3
19ba
4eeb
637e
6848
b945
587a
7abf
b009
200e
05b3
5b4e
6901
6748
820c
a777
b691
f104
20cd
e0ce
30ad
3093
b0d5
cf67
ac5b
7c87
b49b
8477
3e28
4e6b
5e65
b7d1
67d5
a713
e71e
1a9f
393b
8860
62ac
062c
c5fa
324e
6573
32f3
93fd
c2e3
5678
a847
e14b
b2f7
8dd7
4242
86c4
d3c0
4adb
2305
01a5
0bba
1888
3659
31a9
3dc4
66a6
7a08
aa0b
b60c
f1cb
504f
3010
1f67
7f4c
9ca0
cc7c
acec
3c2f
8c93
e4dc
3e12
4eac
febf
07a7
67a9
0b18
9b14
ab3c
e7d1
1b8f
eb56
fb88
0566
8865
985e
b89c
55ad
8a5c
161c
3664
9669
116e
311c
a6e8
22f2
22f0
16b2
e8d6
e8d3
3bb2
5a0b
6dfb
64ca
cd73
e50b
50af
5063
6077
1f8d
8c94
5c75
2cd6
171e
9bd8
a715
57bf
2d11
082d
8820
b512
38ac
2587
7a84
c69f
f12d
634e
a6b3
3eed
2844
217d
1ccd
464f
1172
78cc
4af8
cccc
c1f0
eac1
fbcc
95fd
04e9
0b4e
0d05
01c2
1156
1906
4983
5bb3
6606
6ffb
81c7
99a6
aff9
b388
dd41
dff2
d208
105b
1055
7060
af3d
9f72
ffe4
ccd6
04d3
94a0
de2e
de89
973c
1744
4b35
dd30
dd18
dd2c
599f
a82a
aaad
528b
f21e
d224
0684
a61f
31ae
3006
49d8
324b
a3b3
6971
e640
43b7
91b7
77f0
ddd9
fab0
8dd6
4673
7ab6
0b4c
1707
2a52
2dcf
53a9
6c0b
7eb1
738a
88ea
b8e5
fb03
9fa6
9c64
2caa
247f
0714
f78c
bbd7
572d
fbd0
0530
0594
05ae
35a7
3563
4934
39a9
45af
4561
b538
689c
e521
e22f
a162
45f2
3248
aadc
29b0
39ef
88bb
32eb
4aff
23c7
dbc0
b803
17e3
2dcd
2d73
2ef7
32b0
3893
4704
6659
abb5
db08
5093
e041
f064
3f85
bfaa
df57
acb9
bc33
3ce1
1c9a
449b
f470
14ae
1455
94ef
472a
1753
6756
3770
1b1a
bd20
7dad
02a4
4933
0327
f93c
4521
b569
6520
7513
9a66
5322
1332
16a4
0448
22ee
69b7
19b2
a3b2
a54e
a9e3
91be
48b9
3848
a3f5
9a74
52e0
8ee5
d6e5
c2d3
0355
3131
5d0b
61c0
6953
829a
8741
8be5
9d40
9d03
adc2
a9f3
a896
c951
105d
408e
b04e
c0a0
c0ec
d09b
5fd2
0fee
6f83
0c1e
0cb0
9c10
acde
bc28
bcd8
4c1d
a41d
3e8b
8eb4
4e31
7e3f
872d
ebd2
1d8a
f85d
5989
09a0
5538
3a89
759e
aa30
3258
d322
1335
e11a
1aef
4940
a9e8
37c3
7448
c2d5
0b98
0688
1298
2ef3
39a6
3359
4b01
4601
4f03
5f01
6efc
7292
8e01
88e1
ddcc
eb75
907a
0c62
4c2d
345c
54ae
e4b0
3ed5
9ec0
975d
0b34
c71f
3b99
08a7
08aa
1969
a89d
3a19
c569
751b
b238
265c
c1ac
116c
312f
319c
6941
b6b9
c1bd
3548
824e
c2ef
8541
68cb
42c0
c370
a6d8
39f1
4ec9
67b3
7201
a58a
ac05
b1c6
c9c4
c983
ee01
fd0f
602b
6073
4032
c0ad
707f
6f9b
6f64
ffad
dc35
9cd4
9cbb
3c35
2c99
8e55
ae54
9e34
67a0
8734
9b61
ad63
186b
4962
09a4
28ac
4590
aa67
6a23
3387
3ee8
2849
217c
aad3
29b9
5675
86b1
337f
c6e4
ccc4
55eb
5541
d5c1
a00b
15b8
120e
2df0
2d75
34ea
3404
4b4f
4775
6907
a9f1
a8e6
c3e4
f982
60ef
c0a9
f048
dfb2
54cc
8420
4e9f
9e53
07be
17d3
bb94
bb54
57d9
ebad
0835
0866
b916
a959
5994
382d
6a14
5aa9
6269
4611
3637
3127
0447
22cc
c1e7
19bb
1a74
89e1
c1d7
86e9
11d4
d2ed
717f
c2d0
1692
1da2
2de8
570a
6e71
7cf2
7d51
8d76
b9c6
be47
cdc6
dff0
d402
f101
1f4e
0c57
8cb8
0470
f461
3e1a
2e23
ae1a
aea9
ce56
ee9b
173a
8725
0b6c
2b8f
2bd7
4b85
fd2c
eda7
6db0
4931
f820
095e
c56f
8a6c
1237
9387
8313
a3af
e69b
96ad
0375
17f3
b1e8
864e
887b
a679
757d
5bfa
bab3
e1e4
4a04
4406
54e5
87b9
99a2
9628
a8ee
baaa
b283
dd0e
f385
c021
8c2c
8c8c
1ca5
1c75
2c5d
7c83
6423
3e2f
1e24
ce9c
ee7f
9b19
dbdf
e711
eb28
7b8c
292f
b51a
ba6b
588f
d825
7aa9
9565
8a13
5a6f
221a
126c
b316
c15c
49d4
69d9
167f
aac7
aac1
69ec
9570
d8bf
0bc8
88f4
4679
a804
980e
0331
1a96
3ef1
33a9
3556
3e47
4f06
670b
6c05
6883
7607
aa88
80d0
60b5
b053
b043
2fce
df20
ac67
ace8
4c1c
1c10
2cbb
0429
74d4
2e3d
4e8e
eeb0
877f
87d6
bb16
fd8d
593c
2987
1a5c
4520
4526
2515
c8a8
7a19
6a61
321f
8210
f28e
0612
a32f
36ad
c134
69df
1347
b5ec
b64f
6ee0
33c6
1308
58c4
5bf3
85c0
f8db
99b0
200f
1605
1d4e
29c3
29cb
53d3
57e9
6e08
6d82
69cb
7d48
bf0b
dd01
f901
5031
50e5
8016
8f55
2f25
bfab
3c8a
5ce7
2c13
8455
1e93
aeff
67b0
87a1
4b13
3daa
fd1f
1dee
7d3c
4d85
e918
321e
b21d
1169
3ee5
2249
45d9
b445
33fb
8ac0
7945
dafb
86cd
76e9
96e6
86aa
9b4e
9126
9356
a5bb
ae0a
c9cc
da01
e069
3088
901f
ef31
9c5a
bce5
348a
6e16
6ed2
0e16
7ec0
de70
1baf
7b64
6b6a
fd2d
1894
0912
886e
8887
6a6f
931c
f32f
3657
c119
4bca
a9ba
66b6
66b4
53c0
7575
76f4
6ccd
f3cb
4ac0
f307
0be3
0356
11a3
1df9
16a1
4102
56a5
73dc
88a1
8a09
91c0
9d04
9ef7
9a0d
bf08
ddff
ed05
50a2
403e
b0be
bfb0
bf47
cf3f
0c51
04bb
7465
a46b
0e39
0ea1
3ed6
2e35
8ed0
8ea1
fe69
de2a
f7d4
27ac
5719
8bd8
3d1f
ad9c
f825
b96e
b51c
6814
b81d
e557
55ac
daac
4a31
126f
f212
13ad
663f
3166
35fc
19be
1a7a
31ec
31fb
63c0
c9e7
22f9
11ea
f7c7
1304
36f4
c6da
e578
8448
d143
0352
0a93
1efa
11c3
2ff3
3c0e
7506
9dc6
a3a8
b1a9
bde3
d90f
e228
f1aa
808e
306f
b026
a08c
8f3e
3fce
ccb6
1cbf
0469
7476
549e
3ea5
4e39
de7e
9b5f
2ba8
bb5b
8ba0
4b59
fd31
1834
79ac
a860
5511
9535
436a
1361
a624
080d
1114
044d
06b7
02fc
c5f7
1a7f
3246
c1ba
a9e4
a5e3
5973
8a43
c847
b6f2
c3f8
f2d2
137a
7bc6
96d8
0e0c
39fa
4689
64fa
a8a6
a888
bef3
ce01
5049
50f9
bf3d
bf51
bf78
6c84
fc63
3481
3e3f
3e84
ee1b
5e5d
076b
178d
671a
9bac
fda4
0519
8d32
8d7e
8932
b924
d925
885e
2a89
2213
9234
e2ab
839f
11ad
3115
1541
a9e2
6ee2
a5ca
eee8
62e8
c6e0
83c0
d8d3
680f
0556
04f4
1d48
1158
34c7
4325
6b46
7901
91c1
bb77
cec3
ed03
0f1b
0c63
bc9c
bc95
4c75
2c77
8e5c
beb7
ab28
2b1d
3b66
fb23
1dbe
4920
c9a5
f989
b558
98a8
8513
2535
b25e
0160
f335
d31f
03bf
634f
6347
c1e4
45d8
6a47
344e
a8d7
3bc6
c9e5
aa75
a978
6370
fab2
21fd
7273
e3c5
eaf5
1625
31c0
34f3
4df7
5601
574e
5904
5b0c
68e5
8883
8909
879a
95b5
a8a1
df08
507c
2026
f047
7091
2f1f
df7d
9c59
2438
b42d
9429
2e70
7e7c
deb4
4787
1767
8b8f
8b28
eb7c
ad67
8d29
9d62
ed2e
bd38
d9af
e9ad
582f
8539
d535
4a25
2a97
ea28
669e
511b
e135
3176
4946
244b
76b5
b2f9
91f6
86fe
3a7d
53fb
93b9
61be
92f4
0e04
0e0b
03d9
1dc6
1779
2ec3
2406
4909
6e48
8388
86a3
af03
c708
d252
ec01
e8e8
eaa2
fc0b
1043
9047
4f55
5f48
0f29
ff95
dfb3
7fdc
4cac
c42d
8ed8
9e6e
5b85
271e
ab52
9d2e
8938
096d
8866
7833
aa29
2239
3230
3235
b21a
72ad
4224
d264
18ca
18f3
6945
4570
3243
65db
6975
b9e5
c2ee
9bcf
c6e3
58fe
52d0
5af7
f3c7
b306
1eb2
4591
43ef
6323
7e4e
8692
8a53
8682
8104
95b6
a4c7
a101
c748
c103
d3d7
50cb
c077
1f71
9f20
ccb8
ac29
4c9b
1cbc
5c39
043f
775d
478d
1797
1732
67bf
0b63
d787
8b8b
6d67
356b
1a5e
459e
458d
589c
b239
9363
8368
b3ac
71af
98bb
457d
66d7
b1e9
c6f3
b1dd
b8b3
8ae2
2ac0
83b1
ecc1
0509
474e
4ece
7db5
8dc6
9b76
b123
f113
f0f4
2fa8
cf95
5491
a49c
9e37
9e56
dedd
079d
2730
2769
a75d
bb6f
6b57
dda7
7daf
6987
f89c
99a5
598f
c919
45a0
b539
6510
2313
01e9
1a4e
07ce
68f8
abf0
b377
aa78
5bce
abc7
c348
4379
5571
7a7e
09c0
0e0f
07e5
11a5
1ec9
3a0a
4d82
5777
7702
83e7
89c1
ad56
c10d
dd48
ff08
fd41
80f2
30de
70de
af11
0f31
9fd6
cc57
8c2f
041d
04df
0483
0481
7430
4479
64ff
1454
0ea0
8e38
ae30
8759
5bad
ab1a
3761
1baa
7b15
3b85
cb30
8d89
9d9c
ed65
039d
f9ac
f95a
85aa
e82a
2559
5520
72a9
f6a0
f669
5630
763c
268f
69d6
dac4
c6f0
aeea
b5d2
bbc0
85f0
4275
f8bc
a3c9
1223
14e5
1bb5
14cd
2355
2efb
220c
3e49
3136
490a
43df
6cf0
9e07
c508
e1c6
f399
f035
afb5
cf84
cf7e
0c43
ace3
fc6f
045f
7421
3e54
3e52
1e12
ce89
5eb4
5b99
5b86
9b12
6b89
3d7e
2d14
2d6d
2d2c
6d44
7dac
188f
8920
692f
098f
451a
5838
92a4
6654
761e
715e
694e
45d2
1cc6
a9ee
5bc9
0546
0543
12fb
a5cc
46d0
e376
5dd0
65c6
5306
b30b
e801
0dc6
0704
4593
5908
7689
8de9
93e1
a7b2
a9ca
bbe2
b55a
cb08
e692
e60e
f904
8f12
5fb2
afdf
af28
0f48
6f8c
6f65
9f73
ac1d
bc1e
7c51
0438
0453
3454
44a3
3e32
2ea5
47a6
c787
c725
a76f
bb14
bb60
7b10
2d1b
8da4
8d67
ed9d
19ad
4566
552d
aa6a
336f
06bd
09b6
1546
aabc
56c2
297f
aa70
4af0
b8b2
13c6
a6f8
f64e
f1e0
0bb1
04c5
1eb6
1509
39c0
6e41
7c05
8fff
8c01
9708
a286
a956
bdfd
e203
80df
2074
e06c
605b
30b5
c0dc
7033
d04d
af5b
9fc5
cc61
1cb8
2c56
04be
649b
3e38
b789
8dbe
6d57
6da7
6d8a
08a9
481b
592f
38a4
6a6a
ea6c
32a4
6224
b369
d31c
11a0
89d9
02f0
614e
697f
3446
b448
b372
a677
65f0
93ba
174d
1db8
270e
390a
5a96
78e2
8651
adef
af0c
a7e4
d707
5072
20dd
b042
a0b6
d0ef
90a5
1f25
1f4a
3f87
ffd7
bc2f
6c87
8c10
0459
34bc
44ad
f43e
648b
6419
647f
b490
3e1e
3e3d
3e9f
c735
2b32
bb2c
cb67
8da7
0dac
0928
b510
7a11
3a6b
aa18
2a23
a25f
f230
163b
119e
b1af
5162
02f2
a8bb
45cc
2845
89e3
32d2
37cc
eab0
1442
d6c6
55e2
21eb
76d0
a1e1
4303
0881
07bd
1e01
2608
2159
2408
3b0d
7b46
9502
96a3
ab0c
b586
ce0a
d4c2
4060
b0b8
c0a7
3f7e
df38
dfa5
ef9a
bc5f
bc23
8c6f
0466
64ee
5421
87ab
8737
7b52
7daa
2930
03ad
2565
553e
aa8d
631f
139f
1697
665b
8633
b1ac
05cf
98b8
1672
aadb
aacc
88cd
4649
957e
35d0
1141
c14c
35e7
dddd
cab6
43fd
364e
61d5
1c0f
13de
2d02
2d4e
2623
6707
6631
7b48
8de6
9b08
b9f8
c291
5079
3089
b047
8fda
2fc6
0fe5
6f94
ac8b
ac3a
4ce3
1c15
7413
1435
e476
3e26
2e38
deab
d72f
7b5f
fbb4
ad18
8d28
9dbe
9d5a
7d61
cd20
6937
e535
5525
c563
ca8d
e233
721d
729d
5268
c665
162b
162f
115c
316c
01e1
a9be
a3b4
89ef
16dc
327f
f6bf
e6d0
e2c8
0cc9
c277
75c6
75f4
630c
07b3
0952
15bb
16a5
32a6
4db2
4106
6a08
7659
7ff0
8e0b
9777
9208
a695
b50e
b74d
c6a2
db02
dff7
ecfd
9fe3
ffc8
7fe9
0c47
6c7a
3c63
8c49
5c1b
0471
84b2
94cf
8e35
1eab
beda
0797
c788
2b88
5728
4b58
cb88
ad2c
2db4
8d2d
dd44
8931
493a
68a5
b855
e5af
5a84
3268
c68e
f694
e62e
315f
a8b3
a3ba
bbf5
37c8
89bb
43c7
62cb
c1d1
76b3
91fe
164e
e379
4302
189a
2198
2df9
2b42
374d
3183
47b3
4771
540c
69ca
a689
b202
d7e5
f621
501c
5032
3054
30b4
c05d
c045
a0fb
8f33
6fae
6fdc
bf2d
9f6f
dc7b
cc1b
8c18
0493
b436
0e55
3e3c
eea4
27d4
bb8c
bb82
089f
4967
a88b
658c
3224
5335
7310
e662
a13d
0878
3573
1af9
abf6
0572
27f0
887f
78d5
55d0
51e0
9307
2604
2d07
3352
4586
4592
5b48
5582
61aa
a8a2
aa93
b1aa
eda1
ea08
60c4
4058
90dc
8f22
6fcc
bf59
0492
34b0
0e9b
4ea5
aede
ce94
9e1c
7712
175c
9b3c
bb19
57a1
8b30
b920
2824
038c
c9af
b536
ba1f
6565
788e
d889
a523
da15
e26c
c61c
836c
533b
1620
c19b
0841
11bf
2aec
aabd
11fc
37cb
33b0
35c9
9aff
d847
630a
1deb
1105
2ef6
2db3
3e4c
5ec4
7a03
8186
9e03
9191
aa0c
c128
dde7
f282
60a0
4059
0fba
cc44
bca6
5c9b
5c93
2cde
7455
442f
b4ef
548e
3e9d
ae34
6761
055b
3515
4557
45a7
6824
b210
b26f
7289
433f
5365
732c
7694
68f7
63cb
08c4
88bf
56f3
1e45
2882
3ec8
4281
4391
6777
6e7d
6ec9
75b1
7407
8cf8
840b
b22a
b9c1
e9c6
ed04
e7e7
fdf3
f666
fd9a
20b9
1064
30b3
c095
afce
0f60
bf77
0cb7
8cab
0484
6436
8e18
5e2b
fe1a
0754
4b74
1d18
1d2b
9d29
5d9c
0827
8984
888f
faae
83a0
c32c
f63d
e324
1614
3610
c110
22c9
b9b4
18c4
31e2
63c5
3a40
46fb
1175
bbc5
e7cd
ea43
9bce
4a45
fad0
7279
9a41
d1b0
074c
1f0c
2efa
3608
3efc
4df0
5bb6
6992
63ef
7dc9
8d93
a60a
b1cd
b5b7
c4e3
c3ee
db03
f25a
fa0f
e0f6
b04c
0f7d
3f9d
9cd3
242b
4420
6430
a4b8
e46d
8e39
4e40
0b20
0b29
9bdc
273f
bbdc
1d64
182f
3565
3511
a92d
198c
e86c
3a54
4a2b
4697
92e8
a9b8
eddd
b6b4
b64e
12d9
89e4
c1b7
a54b
2974
2bcc
77f3
96b5
9af5
25c9
9bf3
cee9
04c6
34c1
5bef
81a8
ad78
adc8
f203
20d1
6047
3096
30f5
c059
7048
3fa7
bf3b
bc6c
6c4e
4c21
2c57
7cdc
045d
34ac
ae7b
7e20
7e5b
472e
5b69
5bb7
d7a8
2788
db1d
eb74
0538
2dbe
cdac
6918
4964
c820
558f
a597
7a1d
ea24
821e
a26f
921c
72ac
23a0
133e
e327
1a43
18bf
184a
6ee6
c447
05f7
71b5
9abc
f8d9
3305
530c
0773
0eca
3ef9
310c
5125
57eb
72bf
790f
8e08
8f04
9f01
ad43
b8ef
bf03
c907
c8e5
c891
ede7
5034
40f5
f01f
70c4
d09c
bf31
dcac
0c9b
ac51
acb8
5c7a
2475
7433
7475
446c
3edf
3ed7
9b94
8b58
9d5d
189f
59ac
5968
0937
7959
4518
882d
3838
6a89
e338
1634
a135
58bf
a3bf
53ce
6447
114b
b574
7944
38b0
3649
96d0
2142
7147
830a
08e3
1681
3e06
360c
4b0e
4993
4ec5
5cf2
790e
8b93
8be3
92be
ae06
b4e3
cdcd
dfff
d281
e5be
20e1
40e9
b087
b0ca
d02f
2f7c
0fdc
1f15
ff47
ac28
1cd2
f46e
e43a
3eae
b7d9
172a
1761
bb90
575c
3b84
1d31
2967
a528
2a16
829d
c26a
5657
b657
02d2
0876
697a
a8c6
a248
63ce
3277
c244
9572
08fc
7cc1
7647
0882
0e4c
1da6
41a6
6d4d
6b79
89a6
8a92
ad79
a653
b891
c1aa
fc0f
a03b
902d
2f2b
3fa6
7fa6
cf37
9c9b
ccdf
bcad
3c2e
2473
0e3b
4e1c
4eb0
37a9
1b70
ad39
9d60
5da9
495d
09ae
4554
853c
1569
aa20
4a1e
1233
32ad
f2ab
0168
332f
3368
069e
319f
a164
01dc
45c5
3240
1afb
a972
8bc0
9577
f97a
b1f8
b1b1
eee5
1bc6
e675
96be
e370
36cd
6270
95f8
1de5
2b49
34f1
4a88
5dc6
6c01
67e5
82b0
b7b2
b773
b7e5
edb2
f70c
fd51
50ba
206d
204c
4036
90b0
8f4b
6fbe
bf4f
acd7
6c46
3421
34b8
f453
b4c0
5430
548d
54d0
a47a
3e62
7e53
9755
07ae
5b13
277c
8bbc
4921
1987
2855
f988
8863
a8aa
58a0
1513
2a21
8a35
52ac
5235
066a
0668
a544
16d2
12ea
85fd
58dc
124e
a676
86e2
757a
85c9
9246
0793
210d
3ec1
3221
8658
8c0c
9901
a163
ae05
b226
bd4f
b204
e3dc
f9c3
804b
b09f
70b9
1f9b
1f88
bf32
9f89
6c51
2490
44bb
148b
8490
975a
875c
5b74
9b31
571d
5766
9d8f
f829
1a28
395a
ca24
235d
f614
36ac
3665
acc1
184d
7ade
1ad7
1ade
08cc
3a4a
78be
6443
19d6
76fc
55ef
f2c9
55c1
a44b
4ddf
600c
09fd
0609
44c6
4a0c
6583
618f
7745
81a6
9505
b70e
c695
d608
d3a9
ddf0
edba
eda2
fd91
f882
20e9
1088
c072
707d
8f87
6f2a
bfd5
dfe0
3cef
2c63
ece9
b485
146b
ce69
9eb0
f7ab
ab1c
ed8b
f813
1916
c96b
a511
aa90
aa65
126b
187d
154e
a8cb
3ddb
11ec
c373
2af7
59b4
e24e
5001
1693
118a
1df7
21a5
36a8
4696
59cf
6336
6b92
73a5
aa82
aaa2
f3d5
1039
307a
f097
afa6
bf96
9fd3
34ee
4439
545a
9422
9435
4e3c
b7a5
0715
1760
17ee
17d4
5b9f
d754
d7b0
57af
1b22
8b8c
696a
598e
c969
396e
e92f
a867
c538
c366
f61f
31be
32fb
68b2
93f3
9849
b1b5
c6db
46cd
41fb
6bf0
dcc0
9347
4144
cae5
d801
1291
1d73
1dfb
3deb
3e0e
5d51
6d05
63d9
7183
7e4d
8df8
9c06
a504
adfd
adc0
b292
b1c9
d909
ed0a
2056
c071
70fc
af67
af66
afaa
3f86
bfa0
0c1d
0cbb
8c43
5cb8
042e
b4db
842e
3e1f
3e6b
8ea7
ae22
171c
8786
c7b7
ab2f
bbda
3d2e
fd6c
996b
458f
a834
b8a7
8557
e519
eaac
f615
96a4
f157
b138
6190
6ddc
3ee4
a9da
38ca
32fa
63f7
4abb
8640
884e
a5f3
5579
62e2
48cd
e447
7274
4847
9bf6
f8f4
7148
e2f3
0d04
0de8
1a82
15be
1151
3c03
3e4b
4efc
68ea
9ecb
9e79
b386
b4f0
d1a9
edcc
e581
b0de
c0a6
8f99
5f35
5f72
2fd2
6f8e
3fcc
bf23
ffde
0c8a
4c6c
2c7a
fc9b
fc9c
642c
5428
8478
3e2b
3e57
9b3e
a71e
e735
8b2f
ad2d
6d63
0d6d
2887
f9af
5530
953b
2a37
e284
f38e
5169
a19c
03f2
614f
adde
31e7
31f9
a548
2bf1
32d7
15ea
b5c7
eeec
bad4
c948
3879
76de
6acb
99e1
0e47
065a
13e0
35b5
48e5
5b96
65be
6d95
9cf7
aaa1
c2a3
503a
e056
5f7c
3fb7
9f5f
ff4d
9c52
bcae
6c8d
8cd1
5ca6
e496
9424
9eb4
779e
4735
9b85
adb0
0d3b
a927
a855
d565
b237
622b
526d
336b
5332
96ac
c132
3165
811e
32d5
5840
b544
517b
b3ff
faf0
2a77
61b0
b001
530d
19c2
1193
4326
5b7a
7555
7391
8552
9ffc
ad0b
d853
f9c9
f9f7
2095
10d5
c0e4
d016
2fae
2f89
1f6d
1c6b
f48c
8463
7e13
9720
9789
479c
67b4
ab5f
6d85
a89f
e839
e565
e5a9
556d
aa61
8a25
fa5c
226d
822d
339c
0630
f65c
f62c
512d
45c4
12df
4942
3274
32e0
67c2
264b
5147
76ce
2a76
239a
3eb9
355a
3b47
31c3
78e1
73d9
84fc
ae03
b188
c8a3
cdc5
e407
f9c6
2030
1052
b058
bc47
8ce9
4c8f
b4ad
847b
3e55
8e2d
fe24
fe3e
7799
7751
f711
a73c
1d35
8d2c
7d59
1839
a91f
b522
a52c
956e
723d
5618
5687
02e8
c1e3
62f0
1644
46ce
7879
fabe
8445
83b5
b7f0
9448
51dc
95d0
0681
0e46
1a85
110a
260c
2ff1
540b
69cf
72a1
aa96
a776
ccfd
cdcf
e4fd
edb3
20b8
2f68
af60
44db
c466
c4d7
f78d
ab6b
bb85
7b5e
3bac
ad15
8d30
6d18
35a5
591c
78a5
d834
c530
8a3a
8a89
f35d
b32d
8684
361e
a3bb
6972
aa44
117c
85f6
12fd
67fd
3846
7a73
f8d0
f2d5
d67b
fee9
6af4
57fd
2145
8348
414e
21cc
2be6
3e45
4656
58e0
5187
5a03
63e8
8bba
9d05
a5ba
b708
bb04
cde3
ce71
e656
fd01
2048
40bc
40b3
d09d
df1a
efe9
9c29
9cb9
ac66
ac81
3c37
3c92
8cd9
446f
f458
6490
a478
6752
87a7
0b87
5b88
8b84
7b83
4b64
0534
c99d
b529
d523
3a3a
fa37
d260
a619
11ab
e167
06bf
69b9
05e9
b1ed
b9ea
2ee1
aee3
27f4
8bf5
844b
41d4
e1f8
09f8
3c04
4ffd
4def
6df8
690c
7ef9
9db1
91ce
c126
da81
dde2
e696
50b3
108c
30fc
a074
2f9d
2fb0
ff21
7f5f
9ca4
9c38
4465
4426
64a8
3e96
1e74
be36
9760
07d9
a732
8b88
ad90
edbf
498c
4861
0984
2867
0363
6a9b
4a1d
325c
a235
3360
63ab
c36a
8638
11ae
01e3
22c4
66d0
6978
4945
0576
9171
c6dc
ddd5
1448
b3f0
ead8
ba70
f7f0
a270
82ce
d57b
28f9
0d46
1ffb
3158
3dfe
340c
61c8
6f09
8748
cde7
d9c2
fdb8
5043
8068
20b0
6055
b0df
b0ba
9f32
ffef
9c8f
8c33
4cb7
b45a
5414
5438
14a8
841b
8ea3
0b82
9b27
ed8a
dd1c
891b
3913
e92e
6561
3a3b
c5ab
c638
638e
0664
736f
36a0
9668
f132
b165
31b4
2ae0
32fc
63f0
c8f7
35cf
21f0
7ee5
d6f8
1895
118e
1b98
1d75
2dec
2cf1
590d
5106
6222
7b91
89f0
9504
b9f0
d3a6
e506
e408
fcfb
60a7
9075
3f3b
bf28
dfa7
7f7f
cfaa
9c8b
5cd7
2c6b
07d5
ab6a
8ba9
3ba0
fb29
9d88
0d5b
b88c
588c
7a65
73ad
863f
f165
3110
216a
18c1
b1e5
12d4
317d
2bfc
a979
5445
bbc4
b27c
e841
78c5
d1ed
81ef
844e
b148
25c0
d3be
c802
25ba
2df3
3ecd
31c5
7aaa
83a3
a7b9
b602
b5bd
cb48
cb4b
f1c0
20bc
2099
40bb
30da
b018
7088
4fc1
af3b
1faf
cf5e
0c2f
bc59
8c12
1ca0
04b2
248b
341c
74b4
5454
14b1
84b6
6e1f
0e2e
0ebf
3e8e
8e98
8ed1
aed6
cea0
fed0
ded0
9714
6734
5bac
5b38
8b8a
05a9
ad3c
6d5b
4daa
1897
5924
7967
e98a
b863
e818
d867
aa1c
ca6c
122c
b216
d26c
7339
d138
01d8
18d3
694d
1a79
1a78
e8b9
c97e
89bc
88cb
43c2
aa76
f7c4
264e
3ab6
cccb
d1d0
8dd0
15f4
4670
a2d4
19eb
5807
f30e
0cf6
11cb
2228
4d02
4b4a
5321
71a3
9386
9898
a3e3
b193
e655
e852
f353
50d4
2069
e08d
308b
cfb3
ec2f
74ec
84bc
2e20
8e20
9e3c
ebdf
eb99
cd32
5937
598b
c9ab
956b
6a11
3233
52a4
f69f
a662
468b
861a
261c
216b
d1ab
06ea
31b2
1ad9
51b1
e874
464d
56ec
4af2
08ff
c649
424e
25cd
29db
fcc0
0d0d
1283
3385
42ba
4748
47b5
4db8
5f08
5851
7a01
877b
a3e0
ad02
a99a
a995
bb98
c9f0
e20b
e7e6
8034
a0b7
5fad
5fe8
3f30
9fe6
df31
7fd5
efc0
dc61
4caf
ec39
ec98
3430
645c
5423
1432
a475
b769
9b9f
ab8a
2b7f
bb61
e7dc
7b58
ad3b
8d5e
dd6f
7830
d532
3a8b
9a62
121b
866f
0949
09b4
a3b7
6a41
49eb
327b
b5d5
a5cd
c84d
62e9
2ac1
e1ec
53fd
b3b2
61dc
f6d0
a1fa
cae0
03ec
032a
19f3
1e75
3db6
49f1
4199
4381
53da
5a08
540a
699a
8898
aa58
a685
a105
b9cf
cb71
c853
e2b7
501d
50c5
60bc
305f
30ba
c09c
c015
8f7d
2f83
1f6a
dcbb
9cb6
cc63
ac54
3c14
5cb4
6414
6ea7
2e84
8e84
5e18
5ed4
b799
97a5
bb2d
bb65
3730
1bae
1b38
fb35
1d28
353e
6985
b969
a966
19ab
5929
b534
a8af
a5a7
3a23
822e
b219
43a0
4624
461c
e16c
694c
05ed
b643
c1b5
2978
62c4
28c6
71b3
4344
e5ee
a1bc
6bf3
3348
26d4
0d79
190f
39f3
4e48
4b76
6ef5
7b4c
8b48
8d0b
88a3
9be8
9193
a3d3
a4eb
ad46
c5b3
d1c6
d7e4
505f
70ae
af46
cf59
9cae
ac2c
2c53
ec4b
543f
1456
8431
e4cf
d48d
943f
3e2a
1d61
081b
3539
298f
e923
e511
c526
aa2d
ea59
faa0
e38b
2630
b6b8
32c1
08bb
bacd
32e3
baee
5bfd
3a77
3847
334e
927d
7140
d240
9308
0608
0898
07ea
29c9
39cb
49c6
4cf5
53d2
8393
8106
9131
977b
93ea
94e7
ad03
ae48
bdf8
b907
e3a8
eaa3
fb08
8054
1070
40ed
30b1
b0a2
c0cc
c096
a090
d077
8fc7
5fce
1f63
3fc3
bfcf
9fc6
ff34
0c15
2c66
7ca6
b428
6edc
3e21
ae7c
ae21
078d
ab3a
5765
eb69
ad2b
9daf
5da0
4d8d
298e
e994
4529
b82d
3897
1536
556b
7a62
ea3e
2297
3260
3261
01ae
a687
e632
865f
8611
8112
aab2
a941
3bc0
2dd7
bcc0
1277
58d8
28d3
6875
9ac1
d1f8
2ac6
79d9
82e4
03e4
1e08
3748
3881
418e
5b06
6def
8996
870c
9385
9ef5
94f3
aec1
b596
e2b1
e7ea
505d
308a
af26
3f20
bf79
ffd1
7faf
7f35
dcbd
4c2f
4ce4
7410
8e5b
8e14
1e20
0b90
ab21
4915
8569
e59d
a589
ea37
c28b
01ac
0687
a66e
02c7
1ad4
6a43
08d5
154d
68fb
b441
33f5
754f
864b
124c
4afa
46df
1bcd
3ab5
b176
b8cc
c9db
2ab3
f142
0663
2d0c
2204
4776
43e6
570d
5658
6e04
6225
6da1
7e41
7aa2
81a3
8d73
9f09
bd01
bb73
b10d
c772
dc04
dd46
30d9
8fad
8f59
1fba
9fcd
7f18
efb7
0c31
6c19
2424
245b
2427
3414
f467
14be
f787
9baa
ebdc
1d1d
4966
d962
6558
15ac
ea94
e397
9948
06f8
0877
32c0
c6ff
3bca
33f2
314b
bccd
237d
33b6
91bb
b2ed
7a41
9afd
7ee2
21b0
a7cd
f8dc
a5de
0677
d3b0
5308
0b78
04fc
1128
2351
4d40
5298
57e1
6f0c
7504
7e0a
877d
9eb5
affe
c908
cb75
def2
dbe5
e903
50b8
80a1
4038
f03b
8fdd
af78
3f36
ff5e
0ca6
9c5d
8c22
3436
9454
6eb0
3e9c
3e51
871c
87db
5b8d
2716
ab90
3bad
0d9b
cd1c
186e
893b
493c
b9a5
a931
4525
985b
e826
8a54
ca2f
1239
323f
c235
e22b
131c
c13e
a139
3eec
a5e6
11e8
eab1
e1dd
42e9
fab3
c3fa
dafd
dadc
5aeb
36da
a1d2
55f4
d6f4
52f1
0953
1d01
14f0
2982
23ee
5951
57e0
6555
6bea
8a0b
ae09
cda6
ce45
e5bb
e3e9
e8a2
f9c2
80ec
1095
c054
a06f
d0bf
cf55
dc33
0c4a
3c8e
4c47
5c8c
2c47
fce3
345e
7486
f428
149b
2e32
2e52
7e4f
9e16
0baf
27bb
6bdf
4b16
dd1e
a81d
153b
95af
3a22
3a15
2a9b
3254
32a7
9297
f235
c61b
6327
c3ab
b160
5114
215b
03b7
224f
09d5
c1b0
2bfb
4447
49b2
5bc0
e5c6
0540
1306
71d7
8bf3
e64b
77c1
66c3
b94f
83fd
f342
e2c0
a7f5
b7cb
ecc0
f9ef
92f1
f1b4
600f
b005
a304
5303
1a0d
299a
34c6
4b05
54c7
5401
57e6
aec2
b4f9
bbba
c5b1
e126
fec6
f2b9
20aa
204e
d05c
9064
0f8f
0f77
1f5d
ef82
ac1a
7c2d
7c26
7cb8
343c
e489
d424
941c
946a
3eda
2e92
8ede
4e70
b7bf
17a8
d7d9
2781
2b3a
3ba2
3dbf
fd1c
bd39
cd74
088b
3537
0287
596c
886c
7384
6633
3169
acc6
5379
c1eb
6970
8873
6446
05fe
8ad1
eae0
17cb
8447
d6d9
0196
33e2
4eb5
5b08
63e6
7221
96a2
9a91
acf8
a90c
b4c4
c9f2
10f1
4046
afe6
0fb8
1f1b
3f83
0cb2
9c6c
9ce6
cc33
ac59
8cbf
5c24
2c24
ec32
3e86
3e91
772a
1721
5bdf
5b28
e78b
6b29
3b55
cd15
cda9
0384
f93a
ba54
aaae
5a1e
c387
4657
c19d
319d
03ba
49db
a3b5
a8de
a5e4
8bcd
1278
1bc3
b6dc
47f1
76db
28b9
72c0
e2f9
530e
0602
03d5
1182
1983
11c5
1792
218b
2b0f
24e7
2b43
2dca
3ec2
4282
490c
9df4
ad51
adeb
c1c2
fff9
f106
80dd
206c
2041
b0a9
703f
70dc
4fc7
5fc6
2fa9
2421
342a
e459
2ebf
4e35
fe4f
17b0
5b8a
9b16
ed9f
4d69
e5a8
c5ac
6aa4
b29b
9294
b35c
a62d
3618
2618
7114
02ed
22cd
cdd3
a8b5
49d9
a9b4
45df
344d
65e6
89b5
b37e
a5eb
66e3
114d
5bf7
6bfc
734a
fada
a3fe
0ee9
27c3
92fa
6001
6806
7303
4a0a
5ecd
6e05
720a
818c
86a6
8296
8de1
990a
ad81
a5b3
ae4c
a3de
b2bb
be0b
bcf5
ca0c
20b5
10fc
4078
30a9
c074
c0c3
f0f0
a04b
8f56
bf3a
bf85
acda
6c65
6c58
972d
4744
d72b
bb35
3d21
2d87
6d7f
085e
893e
48ad
7911
ba2d
d5a5
2a31
ca1f
f687
7311
4665
c1ab
4576
b34e
324a
87cd
87c1
11e9
6849
47c9
e3f9
2948
48dc
15d1
d809
150e
1191
22a1
4903
6996
6ec5
7b0f
9e75
a3d0
aa02
ab92
b5b1
c5b6
d501
d163
f906
f7b8
fde1
2061
20d3
10d4
304e
8f2b
3f19
bfb2
7f14
7f32
cfa3
9c4e
cc85
7c57
ec3d
043b
24d3
f488
d43f
c731
e727
e72c
3b1a
ed12
189e
496c
f824
a928
5928
1a10
58ac
783a
7a3e
c61d
535e
c138
113b
91ad
66b2
32cc
32fd
b9dd
12e5
8bcb
8bf4
08fd
817f
234e
46b5
08ea
0cf8
1aa2
2d92
210b
4113
55b5
68ef
88e8
8a01
8402
820f
a90f
b282
c7b3
c209
506c
806b
4035
407d
705e
8f4c
5f38
5f86
2f29
0f9b
7fa8
ef16
7c20
04cf
f4ef
f4d7
64b9
3eab
3ea3
8e25
4e83
1edc
ae14
ae82
476c
478a
5b9e
a766
ebb0
ad12
bd28
7d7c
4d3c
0834
18ad
183c
b915
55a4
a5ab
6214
628b
4233
139c
263d
3160
040d
58bd
a3b6
31d0
1273
42e0
05fa
2577
11db
daf5
3a71
c3c0
82cc
0f0d
1f0f
1155
2907
27e9
5703
55b0
5cf9
5d93
6df2
8db2
8b46
925a
ba96
b4ea
b65a
ce0d
f3dc
50b7
103e
e09b
4047
3065
d05a
8f6b
af72
0f6b
6f53
bf6b
ff1b
9c97
9c62
9c98
8c77
1c7f
fc3a
04b0
849c
2e3c
feb4
fe25
179d
9b2e
c7aa
278c
db35
8d27
4d88
351d
c96e
c92f
b520
a83d
d82f
95a7
2257
b33b
0638
916c
acc2
aab9
88c7
7ac0
eee4
b2c0
35cb
234b
05dc
9bc8
1bfd
5544
5ddc
f146
72d6
d276
d1bc
630d
1e0a
1353
2631
3df9
34f4
3ff4
5dbd
7a5a
a2b4
ae02
a629
b158
cb77
cdcc
cc0e
d4f0
d4c4
e10e
f9cc
702b
90e8
3f22
3f4f
04b3
f45d
643f
84ae
e490
3e6a
2e24
2e9e
ded3
77ac
4789
2b97
a757
8bab
3b28
cb16
6d6a
89ab
6938
4963
95ab
c55e
6a28
932c
111e
31e9
16db
a8d0
a5e2
997f
824c
abca
9573
77c8
4ae7
144e
88f7
ca44
2a4e
f840
d6f1
9ee0
9804
f802
05b5
35bc
4ef5
4efa
5e7d
562a
61cb
7dc6
8cf2
a62a
ab75
b606
c298
c704
cb45
dcfd
e659
f8a6
fc0a
20de
30b8
2f86
0f76
9fd1
ff7e
ef2d
ef2a
efb8
3c8c
7c34
fc6d
041c
449d
84b1
1e52
9e3e
9e12
9b1f
c7a2
2b35
dbaa
8b31
7baf
bd7f
1828
026e
b927
8524
c827
3a63
2a3d
9a1f
6265
c330
a32d
561e
b611
462d
861e
315c
5112
a12d
06b2
45ea
b670
39eb
8bf9
eaba
77c0
394e
26e3
aaf8
e27e
f3b9
0e4b
1de8
374e
4df5
5d4c
66a5
7e45
9b0e
aeb1
a1c2
af0f
c4e2
c7e6
e7b9
e4c8
501b
10d3
603b
70b3
4fdb
4fe1
5fa8
6fa0
3f54
7fb0
ef94
efac
6c43
7ce1
ecb1
34b1
44b4
a4b7
ce98
5e5a
0787
773f
679f
ab59
aba1
8b7c
fd34
ad60
6dab
0d67
351e
69a8
b911
099e
c95d
381d
e529
d5aa
c528
4a11
2a13
c2a8
6335
1611
5620
01e4
02e2
254b
457c
45fa
11ba
09d7
22da
d34f
c5e6
117d
68c3
0bfe
c644
c64e
48c0
61e2
f8fd
f2fb
4004
1996
2607
2b45
37e7
4b71
56a6
53db
9bbd
a223
ae04
bffd
ba0b
c60a
c256
da02
eef7
5089
80ba
30b0
f07c
af79
6f2e
1f34
3f3c
0c8d
3c1a
3c75
8caa
8cec
1c59
5cde
2c18
746b
748d
64aa
1470
84dc
e4e4
c491
3ebe
2e91
ae60
eed8
c794
2799
ab99
1b5b
8b22
cba5
052c
8d8d
dd21
7968
a81b
389c
e828
3a62
c284
068b
b684
4613
963e
5166
1ee4
b9b2
6641
c8f6
a87a
4cc9
66e5
78cb
e7cc
dafc
d3cd
d9e5
da44
e3be
617a
d2dc
05b6
31c2
399a
4d48
4c06
5107
6d41
8221
9ff7
a993
b50f
d1a8
de48
df0f
20c0
e08e
e0c0
4fd2
3f38
9fcf
cc4f
acac
aca2
bcbe
6cb6
6c4a
8c4c
5c32
fc2e
04b4
741d
541e
9438
be8f
ee8e
5e89
debf
97da
0b86
5b57
27d2
fb7c
9d6e
6d2d
6da9
4dbb
89a7
fa60
9aae
522d
a657
4616
1132
92e4
a6b6
a9db
8549
68c8
bbc6
0549
fbfc
684b
23c0
a648
c543
2cc5
137e
7673
5ace
1281
13ef
2ef9
290b
2104
3d47
8703
8b04
8743
970f
a74b
a5a2
bd0c
b746
c885
d2a1
dece
d9c1
e50f
ea01
fd40
f1c8
20b1
a028
4f2c
5f87
af23
afb6
af41
0f6e
bf1d
ef7f
0c3e
ccaa
acb1
2cbe
541c
542a
84cc
e41e
9461
9472
c4ab
6e5b
6e11
ee8d
9e32
97dd
ab69
2b6b
8ba8
7b9e
8d94
6dad
bd1e
a96e
0939
291f
2858
a861
9838
ba22
d510
633f
43ad
431c
0690
73ac
8664
115b
8124
084a
12c6
c97c
add6
344a
11ff
88c8
16e6
aeeb
b84e
127e
1149
86d3
fbf4
56de
b6df
cbc0
6548
21b5
3641
3ac4
397c
4306
d30f
0896
1251
110b
2e04
3ec7
3d45
4791
5d0c
63d6
7ec6
73a6
8746
8df1
9eb2
ae4b
adfb
b791
cd08
f3ef
5028
50d5
b09d
b09e
b0f4
a047
902f
9092
5fbf
2f5f
2fc7
af7d
3f4d
9f46
df9e
0ca3
9c3e
6c54
3c99
4cd4
5c48
747f
4452
b459
6e6e
3e53
4e5d
4769
f758
8760
c7a3
3738
2daf
9d1b
bda4
4d6a
3558
698b
4936
f864
f833
282b
0362
452a
b597
b53c
9813
955c
1224
e26e
c667
08b5
3bc3
88cf
b2f8
0bfa
8270
16f7
76fa
9dda
43f9
5aee
d2f2
1ef9
18e3
188a
14f8
2d48
370c
4e02
57b2
57e7
6de0
6bed
7282
bbbb
c552
80bd
601a
dfba
efdc
9ca9
3c6d
4cda
4c43
5c6f
5cff
2c5f
b4a0
1494
3e9e
173f
873c
5ba0
c782
d78d
a758
5767
6b6e
6bd3
4da9
f822
598c
2994
f95c
681a
8510
253d
a521
226b
8220
8212
e616
3632
1543
aad5
29b2
49b0
16e9
27f1
68cf
66e2
8a75
91b8
8ac6
9abb
f2c5
dadb
82cb
d976
a2e9
1655
13e2
1d76
2695
29f2
27e3
35a2
3d92
5225
6d9a
8b4e
8b41
8a0a
9188
b655
d77a
d905
e1a6
fa01
305e
b062
f01c
8f82
2fef
af15
0fa7
1fb2
efb4
9cd7
5cdb
2cd0
7ca9
348d
f42d
a4b0
3e7f
4734
1755
6754
7b3e
3baa
1d60
f923
9866
e56a
c523
6a9c
2a1b
ea2d
42ae
235c
4384
1387
138e
0809
1137
912f
5375
2545
b3c0
66be
56eb
b1de
77c6
9ccd
8afd
fa45
3ad0
230d
08eb
2182
33a6
3e4a
39ff
4b02
4607
4906
518b
58ed
6a92
9b78
ad53
b1a8
d395
20eb
1082
e01d
404f
301a
30fb
c0c0
f0ba
a01f
a0f3
70be
bfe5
0ca1
3c91
eca0
0455
0e95
3e44
4e2b
be7b
9e26
975e
477e
87b0
c710
27ee
dbdd
8d20
1887
592a
2820
d92d
3936
6536
8a8e
fa84
b613
e61f
e687
4630
1162
415b
044e
0371
7add
09bc
3eef
1ae6
284c
29b6
8abb
33fe
49e7
36bf
3dd4
8ae5
2ace
dee5
f8b8
d9b4
d84b
e9ef
7bf0
4bfb
9309
2a92
3607
4e4a
6698
7225
82b1
8791
8404
a3db
a952
a991
a7e1
c123
c851
d29a
ec04
f748
f9f8
f3a6
fdf2
f107
2038
1049
3061
f0bc
f091
0f9d
0fb1
bfa5
bf66
bf45
2ca5
4459
f4e4
b454
84d4
6e2a
8ebe
ae2f
fe92
de16
0737
5bd1
a7a4
1b35
1b31
fd20
6d16
7d58
f865
a963
485d
295b
0367
7969
881e
5812
6521
128f
328d
c22d
4289
8662
2194
41ad
02f3
19bf
a9b5
224b
17f6
66dc
66e9
f7cc
1bcc
0ddb
5148
b6f4
c94d
1444
b8c5
a7f6
0ee4
36c5
9343
8304
03e7
3228
41c1
63a8
6982
6a0d
89cc
8cf7
93d1
dde4
ebe4
ebe7
fcf1
801e
10b9
605c
c09d
c0c5
d0e4
4fe4
8fe7
6f2b
bfc2
ff5c
8c34
8cb9
7cde
fc8b
041f
341b
749b
f464
1419
9433
c4ff
8e2e
ce2f
fe66
0769
7760
9b64
0514
ed38
bd6e
c9a9
798e
e969
258e
7aa7
aa31
fa6c
821c
b26d
a23d
2369
3630
f1a0
213d
612d
044a
1ac3
2271
2eeb
08bd
2bf7
4643
33ba
3677
b8b6
b2cf
51f8
9179
28df
eae9
0bc6
dad7
36d1
fa77
c876
d2d0
a004
1c07
1183
2c05
3399
3e7d
3b4f
4405
590e
63d8
6355
8583
8325
9104
910c
cc02
d747
f626
fe42
504b
1045
708f
4f89
4f13
4f75
5f43
2fea
afb9
0f6a
6f42
1f31
cc9c
ac2a
1cdb
ec43
34ef
74a6
b49c
9479
8e59
8e16
5bd7
9b59
ab14
abb7
2b36
572a
37a5
dd2b
0d3d
bdaf
cd6f
cdb0
f828
4858
193c
393e
e963
88ac
8821
8564
4a26
8a9f
42a8
f338
836d
c357
1330
16a0
e65f
31f5
2840
89e0
5672
2ddc
67cb
c1d2
1bc5
19d3
f2c0
26f9
a1d8
96cc
09a2
03e1
0df2
0db3
1661
29f8
22b0
3585
4e08
42b4
4dc1
5906
54c2
6f03
9ff0
aa8a
aa5a
ac09
b286
bef4
bdff
b103
e4f1
f9c1
50b0
60db
30aa
5f82
ef2c
cfa4
cc3c
bc20
64b4
548b
54b8
a469
c467
c48b
3e3b
5e55
67a2
8785
27d1
bb6e
4b8d
3d35
1d2e
9d8a
7d8a
489f
2836
395c
baa7
655e
c85f
d522
a5a4
e29b
d22f
d316
f119
4134
01d5
0372
b2d1
e5d4
117f
16b1
16b0
130b
e7cf
487f
c54d
67f1
6adf
e1fc
e2e0
2874
d5fd
2304
0747
0dc3
0631
3155
4e01
5d03
5208
6201
8981
9e09
a2ba
ad40
b3d0
cde6
de41
db06
da0b
edfd
f9a2
208f
4020
40bf
c0bf
2f33
2fe8
bf89
9f56
ef78
cf77
0c12
ac2d
ac84
acb3
4c6d
2414
34ff
1451
14d3
a4e0
3edd
2e99
2e5a
ae59
ae66
7ed8
071c
07a6
ab6d
5711
8d87
3569
6961
a955
a95a
4838
4825
19aa
096c
b526
8597
7a3b
aa1a
b234
c215
c694
535c
5319
136a
663b
01bf
a9b9
167e
2241
49bb
49b7
4ee9
58d4
27c6
73b0
d5f0
d54d
c30d
1331
1608
1998
2777
739a
96a5
c102
90ea
6f7c
0ca8
0c29
bc74
8c28
2c6c
24aa
3479
b495
14d4
845a
d488
94b0
6e3f
fe34
fe5d
8797
0b5f
9b81
3729
7bdc
6bdc
6b36
6b26
3b67
cb29
dd29
4927
791a
458c
b5ab
e82f
e863
5554
a5a8
caad
2258
b62d
a664
094a
a6e6
18ce
12e4
12ee
1146
b1b3
42e8
1643
6a77
b8d6
517e
eac0
85c2
f8bd
f443
c27f
51e7
2003
7801
1ef7
2e71
27e8
3d71
4328
49ca
440d
6d43
7df3
8bef
9a86
9dfa
9a08
9106
c10f
ea58
e851
feb8
6064
c038
70e9
d030
afcd
0f54
1c48
5c98
748f
7438
8438
6eaf
6ed5
0eb7
ce44
dea4
471a
4728
6710
673a
9b8a
c734
3714
e744
3b90
2da0
082e
b925
a990
599c
0988
6865
5865
551b
a58d
9524
3a5b
32a9
b2a0
b2ae
8335
0634
a3a0
b63c
a167
3eee
38cb
6570
33f3
854c
53b2
78c6
827b
35cc
62e7
1bfe
b3f6
21e2
2a7b
2ab4
21b3
21bb
5afb
3ad3
26db
2009
b304
074d
03a5
0ef0
03df
21c3
36a9
5299
6795
6a91
69c8
7203
7ecb
8b4f
98ea
a395
aef6
b291
c358
e504
e6a5
40f0
4095
a0c2
7051
ff8f
0c39
bcb8
3ca9
4cb1
24a1
541b
a4bf
0e14
2e1e
9e36
17a0
8790
5bde
bb1e
eb2f
cb66
ad31
8dae
7dab
4867
d966
a8ac
3a1d
da66
6289
a21f
f62d
569f
f115
b15f
92d1
66da
49b3
08c7
a87f
c2f3
86fd
e7c1
654e
3345
330b
a303
5809
250d
2205
34c3
3409
4388
48a6
44fe
5659
5903
64f8
73e7
7326
85ba
8e43
8793
a4e6
b5a6
de04
e2a1
edf4
20a0
2059
107d
608f
40b1
302f
701e
af9c
ff41
7fe0
7f28
cf2a
3cae
3c8b
8c19
4c7b
2c10
7c5e
fc1e
042c
0467
14ff
3e99
8e58
5ea8
9ed4
b774
7732
172f
178c
abac
3731
3d25
adaa
9d70
3513
8913
a924
982e
b8a0
b85d
389d
152e
c53d
c5a9
ea3a
e224
f3ab
f363
b33a
4364
d63a
666f
06b9
1a41
45ff
664e
c1ec
66db
38ce
29b5
16d9
37cd
4af7
b6eb
71bd
eaef
7a40
b6de
59bf
c7c1
9370
530a
830d
f00a
1222
1653
1688
1793
23ef
42b6
59a6
5995
6629
7b7b
9bb3
9155
96a8
a602
befc
cd7d
d136
ede6
e62a
f907
fe4b
209d
20a8
2077
c078
5fc2
6f5b
3f53
0cbd
acae
ac89
bcd3
6caf
1cdc
2cbf
7cb1
241d
2477
f42b
5493
d425
3e27
3e5a
de59
9b30
a7a8
5715
8b5d
8daf
ed62
6d74
dd38
359b
8912
1923
2958
2925
295a
f939
7890
d525
aaa4
5a25
2261
9237
e22e
4366
c369
311e
42f8
22cf
11bd
a9d3
3572
63b8
53ca
32e4
b5c0
58dd
e6c0
05f1
9178
47ce
a6c1
56d1
b3f8
e44c
53f3
a7ca
2940
6005
c004
09ce
3336
4856
57ed
6df9
8502
9b45
a1a1
adcd
a893
b4c3
ed9a
f895
50f5
7028
8f15
8f39
afb0
3f81
efa0
8c47
4c33
3465
34a1
74dd
74e0
74b7
5424
a4ff
e4d6
8e32
4e32
deae
de35
5729
eba7
3da5
2d2a
f857
99a9
298a
c95b
b5af
b523
682d
65a4
d869
15ad
2590
aa16
d313
f114
c12c
115d
45e8
45c8
0648
bac9
16ce
887c
e1d5
ea40
56da
d672
4a74
82cd
82cf
73f2
03d0
085a
139a
24f8
35ba
4747
4e7d
4609
7798
77e6
870a
93d8
a15a
ba99
be05
c9fe
eb4e
edc9
ee79
ede1
601e
704e
d08e
6fb7
df35
7f91
ef69
ac71
3c87
8c6b
3469
2e1b
2e28
ee4f
076c
77ad
f7ad
8739
5bae
d7db
bb2f
bba8
3d7f
0564
0527
8d44
9934
a93d
035e
1aa4
8818
65a7
852b
5569
aa2c
2a6a
6261
c232
c36c
e390
1ee6
02d3
c97f
114c
a5c3
c6bf
687a
c1f1
21ec
e6f9
ba40
17c0
43f2
4ac7
8370
5309
08e4
09f2
07e1
270c
2d42
45bc
43eb
4dfe
5882
7281
9f08
a131
adcb
b9a6
b136
c1ca
db01
e701
e902
ebb6
f4c8
f10e
1044
1fac
dfa9
df4f
9c81
1cbd
7c48
047e
74c0
5419
54bb
d418
94dc
c47a
8e9c
ae9d
de55
f78b
2770
ab3d
db1c
dbde
1b33
fb2a
cb7f
cb51
9d2f
5d2c
7d5b
08ae
3597
356f
f82f
b964
a967
a921
8859
8828
a839
3259
532f
3654
8122
02ff
564a
36f8
9177
8178
7a4c
56d4
cabd
c54e
a2cd
894c
7bf2
480d
0e4a
1601
1be4
21cb
490e
4bef
49fe
55a6
59f4
6e0a
6296
6ece
9e47
a996
b8e9
b3df
d777
e748
e3e5
f389
5058
2098
1071
9051
ff5d
df69
0c61
ac96
bc3b
3c6c
8c92
2cdb
f46b
b41d
54a5
1473
deb7
f75c
179b
8769
5b27
5b2c
5bbe
ab5c
3b5b
0516
996c
482d
6864
988f
e554
a529
75af
aa8c
12af
5327
165f
a690
7697
f1ad
513a
6944
1670
63f2
88d0
87f6
aa77
754e
d7cc
b6c9
68d8
2aff
55e3
384c
f7fe
ecc9
bafd
5eed
8303
0e07
13dc
1b46
3708
3298
32b7
33e5
37b1
49c5
63d3
6ef3
84f6
9d0b
9d7a
990b
aef4
ad4d
a986
b2b1
b741
b9fc
bb4d
d128
d1a5
e129
e209
5040
60b3
b02b
7058
7077
9086
0fdf
ff18
0cdb
9cd0
acdb
ec51
049e
7490
4435
542d
5460
1420
1414
14dd
c4ae
0ea3
3e93
ee98
5e98
67da
9b90
275c
2b9b
5751
eba0
6d33
ddab
356a
a96f
591b
d91b
589b
aa8f
2260
2290
b232
c220
33ad
362e
316b
b5ef
adda
0577
5bc7
aee6
27f3
144c
41fd
36c4
37f0
55fd
ca7b
0ec6
1b01
1e73
238a
250e
2db9
2401
358a
3777
3b02
3de9
4231
4e41
4695
44fd
47e9
5188
5b7b
5209
6228
6bb5
8636
acf1
b3e4
cd48
f7e7
804f
2094
20c9
1067
108f
4077
30e3
b030
5fe1
0fa4
3fd4
df14
7f9c
4c3f
4c23
1cbb
ec77
3486
14de
1e5c
aed9
7e7b
073c
17d0
672b
0b22
c72d
a76b
372e
3774
3759
7b94
7b74
7b28
3b82
fb8c
fdac
9d20
cdaf
555d
2254
063e
163a
c5f2
537e
457f
b342
b679
aa4e
32f5
56b6
e173
957a
86b6
35c0
c94c
d1fd
78d8
41d2
554a
02bb
03db
1286
41c7
4df6
5585
56a2
7703
7aa3
9183
b105
db4e
d407
e709
5055
80ee
407e
40e2
c06d
90ac
2f2a
0fd3
6f31
7fbc
dc8e
ccef
ac24
6c63
8c98
2c33
4414
6499
14cc
8e15
ee37
fe9d
7764
178e
c79d
a7a9
5734
4b69
3d2d
3d89
8d3b
6daf
bd29
bd77
0829
359d
353c
693e
4954
9962
a98b
488f
b589
ba69
8590
25a5
4a10
2a32
e2af
d235
e68b
18d8
087c
11b0
aaba
32f6
63c9
a974
32e9
32e8
8bf1
91b5
58cd
c6e8
9875
a178
52c8
6307
9301
3628
3f07
3699
45b1
53e9
5102
6256
63d7
7cfd
8771
a90a
e702
edc5
ea0c
f7ec
60bf
c055
a0cf
4fa4
afde
6fef
1f47
3f10
dc44
bc5b
34e4
84bf
e435
6ea9
2e44
1e7e
ce7e
7e86
9e55
b75a
f76a
ab12
2b3e
3b97
0dab
0d35
bd3d
5daf
998a
2854
c91a
39a0
b516
b83d
5860
9235
528c
b65d
a620
f12f
3133
51ad
034f
0374
98b5
98b7
b9b3
134d
17f9
2975
08c9
3a4b
87fb
8bf2
3ab7
387c
48f5
ba75
0eee
5549
397e
764e
c577
074b
21cd
3b05
3255
332a
44e3
5b77
58a2
6ff7
72b2
9a85
9df2
ae73
cb07
f703
f3a9
20af
a0dc
709d
7045
2fca
afee
9f3d
9fcc
7fcf
cc30
bc18
8c9f
8c4f
4c9e
1c7b
5cd3
ec48
04a6
3487
4416
8e11
ce1d
ce25
07b7
17da
8722
1b25
6b2f
cbd0
6958
59a5
2959
5833
e88e
e832
aa3b
4a5d
125f
1238
3219
e22c
b660
1112
b12c
9138
02ea
49d3
e7f0
444c
49b1
08c3
997e
8840
b1f2
19d5
a1b9
2a70
98dc
5a4d
5ac3
d375
2809
04c9
0792
19c0
1cf1
11c9
2222
2e0c
3b48
3909
4b47
5983
61a8
670a
7c01
73e3
7993
77e8
b8e8
bcfc
d74c
db91
e229
f9c0
504e
2068
b019
90c6
4f74
8f67
5f56
2f92
afcb
ffcf
ef4f
5cae
34d9
64bd
5422
5e35
b73c
0731
1730
173b
4b25
3da9
5daa
692c
592d
2815
7a5e
3a3e
6260
429e
d22c
d69c
219f
d190
719b
45ec
1844
17f0
e141
33bb
e64d
e645
72f5
557f
c64a
81ee
98d6
2ac7
2a46
e303
0db2
1fff
3ffb
4705
4e46
4159
6f02
7f0d
9e48
9881
9da1
91c3
a2b3
b2b0
bdf2
c386
d1cb
d9fa
d40b
e2a3
e998
ef06
f255
2067
4045
b0a7
a058
8fcc
5f41
6f43
3fd7
bfa7
cc8b
3c94
3cbe
8ca6
8cbd
446d
b435
1e6c
4714
17a5
0b25
ab8c
2bb7
375c
8b12
fbdf
3d32
2d90
2d25
9d12
7d1d
8928
698e
496a
5912
c954
981f
985c
b8ae
6534
1566
6a12
a2a0
019e
b322
1adf
6a49
2847
36bb
62c1
8a44
8ad5
9175
05db
c641
9ac3
c547
b7c0
e2d8
e2e5
8941
92fd
6ae3
8ccc
1de3
1295
1b4a
2b76
3705
3898
4a81
4ebd
49f7
560c
5d4e
89fd
89c2
8d09
a5a1
dffb
fb95
602d
6023
407b
4098
30b2
a0a5
2fa5
0fe2
6f3b
bf39
cfe3
cc69
bc55
6c8e
5c77
5cd6
2c8d
7428
f46a
4e61
078a
5bd4
278b
abee
579f
fd62
fd2a
1dbb
4818
d92f
8814
b838
78ac
e5a5
aaa8
fa9e
9a9b
121a
529c
b38c
2620
b197
a12e
034d
0844
1ad2
85e9
b444
49ba
63b9
32e5
1248
fbf3
b57d
d1de
e2c6
fa49
fa42
2672
51d6
71f8
f1d4
c5dc
b302
f004
11ca
1b75
35b6
3196
5109
69a2
75b5
73e9
8193
98e6
9d0e
ac06
a606
a4fb
b4fd
bb42
cbb9
c106
eb02
e706
809c
20ec
e070
b07b
7055
af38
af51
6f47
1fe7
9f3a
ff81
ef66
ef47
9c1e
9cb8
4c70
4cdf
5c19
fc3f
fc7a
2485
4424
9495
3e65
ae26
7e33
fe51
4767
1715
67a1
d7bf
2761
ab1d
e7b7
1bd3
3d37
08a4
a91e
1966
d914
1a3f
65ab
2525
8a38
b36e
b39c
b312
062f
f63a
a627
e62d
86ad
765e
3124
919d
03c9
b1ec
16c3
bee9
b8f9
3dd8
a8f4
3673
d7c1
0dd3
d1db
a3fc
5870
e3c0
e2dc
dae1
cac0
c305
f80f
03d8
0be7
1282
39cd
4907
4f0a
558a
58ee
5bea
8231
ad73
b2b8
dd45
e9c0
2057
20d8
109b
104a
e033
e0bb
30d7
b020
a09b
a0c1
2fc4
af44
1f23
ef22
dc8c
0c5a
9c39
aced
4c77
ec7a
fc36
245c
346f
1427
6eac
3e4f
1e77
dbb0
cbd9
fd1a
6db4
6931
a914
5967
2915
1a9e
a813
9822
652c
3a12
8261
2361
d31e
1334
5614
8624
268d
6135
89d6
a8b1
11b8
1cc9
08b8
b44e
49bd
6eee
3148
117b
8bc9
46ba
ddd0
88f1
c9da
6549
5af9
364b
c307
0d03
0cf5
1cf0
190b
110e
21c6
218d
2da2
315a
4999
5b0d
6775
9b95
abe3
af0d
b50b
b502
c775
e4f0
f704
fd03
fe0d
a03f
a059
afdc
6f8a
dc29
9c16
ac47
0498
447d
648e
64d7
947d
0e10
3e15
1e29
473a
171d
87b4
3726
1b10
cb20
ad8b
9d87
286d
2865
e959
883d
88a7
121e
929f
e230
f39b
d61e
a61c
8668
7665
366f
3164
0847
b3c6
a8da
8ab5
16e3
56e9
6a70
46c0
41e2
98cf
a7f1
d6ea
37f6
2ad4
035a
14e3
1b0e
29c6
2d45
3601
3903
3902
4be8
6111
6b98
660e
6a09
7de4
82bf
8228
93dc
9ffa
a4f6
a9fe
cb02
c60e
c161
5076
80ca
20d9
1056
30c6
7020
4fcd
8f29
2fed
6f3f
6fd3
ff3c
ff77
7fe3
dc98
8c37
1c41
fcb4
2479
3437
3455
74dc
4476
642e
84d8
4e86
7e67
673f
bb34
bb84
1bde
4bbe
4b53
3d10
2da7
0d55
bd1d
085c
191c
0913
3920
4527
b52c
7869
7561
6aa7
fa2c
323d
4258
83a4
831c
6357
a33c
a6af
a63c
863d
9160
e1ab
6976
32f0
33fa
46fd
114f
a67d
b2f2
8adb
98d3
feeb
b97e
6ab5
57f2
d9dd
a805
c801
06aa
2591
3128
54f6
5d40
577b
5d78
5407
79f1
8ec6
874f
9dcd
9398
af07
b205
c155
c909
cde4
e121
e40b
f18a
fef0
5051
10ae
1077
3056
30fe
b01a
8f28
ff48
9c36
ac27
3c67
1c20
342e
74b9
44e4
64bc
14bb
e493
6e29
b732
b731
f754
875f
c769
27a6
2b33
2b82
8b59
0537
083b
8985
6920
f819
481d
289c
0364
e5ad
7564
6a21
8a1d
828c
5264
738f
e660
c16c
324d
66d6
3574
25d2
aa41
317a
32f1
49e6
88de
b8fe
31d5
4377
46dd
b57f
e7c8
9872
ba47
f9d1
624e
05a2
1e09
2692
270f
39f0
3403
34c5
48ef
4f0e
4685
59f0
5331
5409
7a82
8d47
a5a6
a707
c283
da93
eb76
f986
f10b
504c
80ef
109c
6044
6013
40f6
a025
90a1
5f64
2fa4
af7e
0f88
3fad
3f28
df55
ef29
cfb0
9ca3
a4b4
8e8f
8e36
4e6f
1e9c
cea9
5e38
fe89
07a3
aba9
bb63
5710
e734
3b3c
cb13
dd34
4da5
2960
e967
3297
433b
f618
b614
e635
a6b4
b2da
d34e
37ca
3149
244e
53cb
7acd
5949
46d2
b6c4
95ef
b6d8
4873
59dc
f9d0
43f1
15b9
12a1
1ff4
1bea
2bbb
4123
44f0
49fa
460a
68e9
6df7
7708
79f3
8603
85bd
98a6
b255
fa02
20ed
10f3
a064
d02c
9089
9013
8f44
5f3a
bf75
7f7b
ac31
acd8
3c79
3c78
2ce1
242a
34d6
64a7
64dc
a47d
e46a
0e96
2e6f
8e3d
8ead
8e65
8e51
1e6a
aec0
ae31
0789
f75e
9ba5
e7a8
1bad
8b9b
3d3a
ed5d
7d64
99ac
8835
b55f
681d
253b
9514
822c
d613
1639
6616
31bb
1af7
11f6
3a48
8a46
637c
b579
9bc9
d1d1
85c8
76e5
59bd
73c4
c9b5
26ff
bafc
4ada
f24c
157a
d5f7
d444
d001
04f1
0393
170f
1e7a
1881
3184
3253
4aa1
4ff9
49c8
6608
65a6
74ea
8f0e
8e4a
8a03
9b47
a661
a40c
b403
ba81
beb2
ba05
fb75
109e
b0af
a0be
702e
8fa9
3f14
ffd8
dfde
0c2d
4cea
fc45
fce5
04a1
3470
34a6
34d1
443b
4422
64a4
6461
b461
9467
c490
3ead
776e
9bdb
abd1
bb86
8d6e
9da5
b524
3833
152c
3a69
428e
5357
f612
7319
e315
865b
5127
1aba
87ec
6349
02d6
167d
c975
8ab4
abfe
88d1
beee
367f
367e
d7c6
0bfc
3876
3346
15fd
d2cc
f2ef
3307
0888
0995
2eb3
2252
3d01
3629
34ed
4e07
4ecb
55ba
5593
5631
718a
7a0b
870d
8386
8596
8588
93eb
a292
cb4f
ce0b
dde3
d4cd
ee4b
e401
f2bd
f9c4
f62a
5083
803b
20f6
10e5
e0e4
7018
9024
5faf
5f31
bf3e
bf4e
9f5c
9fda
dfae
cfe9
0cb9
ccd1
6cbe
6c83
8ca8
441e
44b6
6413
541d
847f
1e11
ceaf
ee19
5e77
77d8
9b6a
c7bf
2bee
3718
6b31
fba7
ad38
ad7c
8d55
bd36
a929
198b
0927
e91e
6818
ba2a
e536
a564
c56d
8227
c25d
f33a
b3a4
c361
a66b
3139
d19f
537c
31b1
26ca
66f4
a9e1
69eb
87fa
22fa
824a
b1d4
7ac9
46de
917c
b54e
19dc
e574
5bfe
5af8
a6f2
6802
6801
8306
0595
1b4f
25b8
2163
2d4a
3d09
33d5
310b
4228
43ea
44e2
4699
7b02
93e8
a703
b903
b8ea
cff9
dffd
e5ba
fe08
7064
7065
70b4
9035
5f32
3fdf
bf92
cc1d
8ca3
2cd2
7c66
2434
64cc
64a2
149a
949e
8e12
4e59
ce83
9e2a
b72e
b7a6
97ac
8774
0bd8
275b
2b74
bb22
571a
ebde
eb89
3d74
fd94
2db7
696d
48ae
c967
793d
8819
b514
b89b
65ac
8559
1537
25ac
fa68
5a6c
82a4
832d
638d
e63b
e615
46af
468d
369f
1160
17f4
bac1
a5e5
327d
5849
62fd
817d
3ccf
7947
7eef
a7ff
4aca
d5ff
400c
e80e
090a
0e42
02b3
1cf9
3d4b
35b1
34e7
4e0f
6131
650e
710b
8b49
8281
9606
9b06
a663
b5bc
c333
d3d1
eda3
f885
10bf
e0db
403f
f0aa
d013
90fa
8f54
5fb0
5fef
9fbf
9fe5
7f4d
ef89
cf35
cf56
dc21
9c42
6c5b
1c9f
1c88
1ca1
3416
14bd
8491
943a
6eda
3e8a
4e6a
ae7e
f728
17af
2bdb
ad33
9d54
b9ab
485f
1a33
459d
a8a7
9832
6514
851b
c624
332c
132e
6627
b694
7619
3197
416e
9941
1ee8
58ba
49dd
aac5
1174
e5c5
4ab5
56db
5173
517c
cabc
937b
b3be
c5c9
930e
0cf2
1da3
1ecd
1dff
2dc6
218e
4d7a
7a58
7d72
8d02
8406
9a03
a6a5
a3da
c603
ceb5
cb4a
c7e2
ddf4
ed4d
f685
a0b8
9fa3
efed
0c94
9c1c
6c3c
6c16
fc9d
04d1
3427
742c
6468
b4ba
1e1f
5ea7
4757
1735
2b8e
1da7
ad5b
ad8c
8d6c
5d9f
5d29
f9a8
b89e
aa39
ea21
1227
323a
b23d
46a0
e19d
0343
06ca
b3c2
6977
197c
5277
127a
6a73
b94a
8af9
1ddb
d7fd
95fe
f245
2878
39d8
a373
1702
29c2
4ec6
4bbd
7da6
7e7d
8dc3
8326
81cc
9e08
9586
9d53
a609
b503
da0e
fef1
5033
2086
4f64
4f4e
8f2f
2f6b
0fd4
6f4c
1f99
bf38
7f2d
4c85
5ca4
7c41
14ac
3e92
8e6d
bed0
eebe
b7aa
17db
0bd4
0b85
9ba9
bb69
576d
6b3e
3d31
f8ad
a912
59ab
2829
b52a
b821
9a31
c239
c610
6320
a61b
7620
35f1
05ea
17fa
b1e6
08de
aab5
32fe
494e
a877
f7c1
7572
a6cf
b3fc
6cc8
13ba
57cc
e9e3
72ce
6ae5
0bb5
074f
1106
3126
4602
470b
650c
83a5
89c3
9b7d
bef1
b1c2
c4f4
edeb
edb9
f383
5021
10a2
60dc
b059
b0d3
f0da
9083
4f33
2f51
0fb9
0fc9
3f40
8cbb
5c71
343f
4496
6455
843c
0e9f
0edc
3e64
9728
07b0
4720
472d
171f
672d
0bdb
c770
db69
bbd9
3dab
3d1a
fd6e
fd29
2d10
8dab
9d44
0d1a
496d
a964
988c
b85f
6515
e515
c830
553f
a56a
c53b
c536
da3e
6259
c28e
7232
536e
161a
915d
e197
613d
c5fc
c5fe
e8ba
534e
3bc7
e647
08fe
eee3
8ac4
baeb
4a47
5174
eacb
c540
4677
d671
8577
414d
f1ba
d3fc
d178
f304
01c9
1107
23d7
3eca
3ec5
4b09
51a9
6c02
7772
83e9
ade3
adf9
a9ce
a60d
a4f8
b1c8
c776
ddb1
509e
201b
40ab
1fa4
1f3b
dfb6
cf7d
9c44
cc38
ac95
3cbb
3c2a
1c96
7c3b
64ac
64d1
8434
84da
e42b
2ea6
ee58
5e1c
9e65
5b32
bb3e
7b1e
6b8d
3d6a
1daf
6d2e
4d8e
35a4
1915
f920
98a4
781e
856d
2534
6a6d
125d
c264
7238
633c
165b
b620
f13b
b11c
415c
611b
c5ff
c97a
31d3
86d6
48be
c9d1
4ac3
9277
d8d5
a3c2
f2e0
0708
1b07
1a98
1402
3706
4b48
4ff0
45bf
49a1
5281
5b4f
540d
7695
9bef
a981
b3a9
bd83
c1c0
de01
deb2
50ab
e0fc
30e7
c0e7
f044
4f15
6fca
ff9d
ac26
6c2c
6c8b
0475
34bf
34db
648f
b488
b481
141e
8425
8e77
ce16
eecf
976b
9758
4713
1733
ab1b
bb33
3dac
dd97
0832
9924
b919
b929
2966
6537
e821
d827
e594
6a54
6a5d
b22c
42a5
d31a
1313
a65f
e657
966a
2273
4175
b9ef
2174
12d1
a546
8ab3
eee9
72fb
1441
a1e5
26df
d8c1
75f0
73fa
9ae9
280a
3802
1a52
2c06
274c
2cf6
23d0
3609
49f3
5386
520c
b6aa
c5bc
ce4b
fa99
f123
5024
4018
30ff
a07f
d0e7
904f
6f56
efbc
cf1e
0c4c
0ce2
9ce7
bc7c
8c42
2c52
7cbb
8e10
1e5d
ce97
5b33
9b11
bb2b
cb2a
fd10
fda8
fd88
ad44
5dbe
b984
c9a8
68ae
6511
e510
522e
0667
e366
1118
b16c
416b
e169
094c
2240
3172
11f2
b545
b541
e7c9
46bf
85c7
11de
47f7
9adc
76e6
78dc
c7c0
f8fa
36e1
a005
13eb
1b72
2996
3605
4f0f
43d4
5182
5dcc
64fd
6221
85b9
8ec7
beb6
b396
c6a9
c691
d748
da0a
e588
fd07
b0ec
7067
7073
4f87
2f1c
6f4d
1f49
9fe1
df82
7f67
ef1e
bc58
6c81
3c9d
8cbe
4ce5
0477
042a
7468
64c0
64ef
8495
6e57
6e60
2e3f
8e52
1e6d
fe65
97b0
f769
172b
67a3
d725
bbbc
57a6
8b1e
cb38
1d84
ad22
edb4
dd2a
bd5e
5d8f
3589
898b
1954
c934
f91b
583d
e516
d520
9518
aa8b
6324
6315
461f
915e
815b
c5fb
2ae6
9641
c1b2
a674
16fd
5ad9
6546
fee2
3ac6
a446
f9b9
15d4
0cfd
3505
37b6
31cf
3a0d
5a88
53d6
6ef6
7f02
7dc5
8128
9b98
e3e6
fec8
503e
2033
20f0
f061
a060
2f97
af59
6f33
bfba
bfc1
4cba
ecb4
043a
04d0
049a
34ba
a43b
e4a9
e477
9488
8768
0b54
27aa
3bd4
052a
6d8d
7d5a
0987
c9ad
455d
2557
e56c
c562
fa1d
1311
a697
111d
7135
8870
5649
42cc
4ee7
86be
6377
d7c0
16f6
05d9
05d1
7948
f8ba
a7fa
19ee
d84e
944f
61d6
e975
730d
1504
225a
2cfa
31cb
48e3
5b03
5704
5626
6dfd
63e2
6986
6202
7655
8bb2
8773
8bb8
920e
a598
d1a2
d3e7
da08
fcfd
fcf4
10e1
e0e5
4025
40c7
307e
b0dd
b0cf
f0eb
f045
4f63
5fea
1fe4
3f79
cfdc
cf73
8c68
1c73
2c81
6425
c46f
1e5b
ae3d
ae11
ae88
0761
272e
2b2e
e76a
1b3c
7b59
fb34
cb69
fd9c
1d10
8d66
355b
1911
4560
a894
ba6c
25a8
e527
4a57
2a64
7227
d39c
c335
7630
c11b
7160
3003
a8b8
02c3
edda
addf
09d6
22df
e6eb
e6ee
86ec
46ef
47c7
98f0
9aba
e6d5
667a
9ad5
6543
b140
4a75
4a77
7ccb
d9ba
e3b3
e944
e809
07e2
1152
3283
49cc
4f07
45bd
4dfb
5be5
6128
6df4
6c0e
7747
8be4
a3ea
aa56
c706
ddcd
df0d
e69a
e208
f163
f126
e0ee
e042
b0ee
c0e6
70e8
70c9
d0a2
4f4a
8f65
af9d
afd1
1fc3
7f48
cf48
0ce7
bcb1
1c64
0465
44d4
8471
a4aa
d486
d47d
6e25
2e33
8e23
4edd
4edc
ee89
dea0
deb0
078c
0b7f
d75e
2738
eb15
4b3a
fb3f
cb1a
fd13
ad9e
ddee
a913
2931
e93c
baa5
58ad
2533
d534
6a13
b297
d22d
f33d
3332
235e
068c
d684
e335
56ae
e638
b114
05e8
4943
0547
b5c5
c349
78c9
337c
58c7
41e9
eac5
f8c4
e3ca
36d0
bdd5
dcce
0d81
3cf9
68e4
6e4a
8aaa
a5b0
ab02
a8e5
a4f1
b40a
c228
c986
ecf0
203c
60c0
b034
c02e
c069
c0a8
d031
5fbd
2f8d
0f6f
0f71
ffdb
7f89
efad
9c4b
6ce0
8cd3
24ef
3491
f420
542c
14d8
8468
a4ae
e45c
3e40
1e82
7e88
5ed0
476e
0bad
d758
2bad
2baa
bbd3
1b8c
eb13
0513
b93d
b98b
a984
1925
ba63
653e
e8a0
d855
1530
d530
5a90
6211
e289
83a7
c3a7
661a
3687
06c7
a6b5
a9b7
3444
16df
49be
c44f
8844
e6cd
a673
c2f9
1646
17c7
f2c6
334c
e2c2
d2e5
7171
d67f
f141
f671
d94f
e949
700c
1229
1bed
2771
4555
5628
69fa
6d7b
7d7d
aa05
b1a6
b1c0
baa2
b405
c899
c18c
d5b5
fd79
2015
b068
a038
5f29
6f26
bf46
0c89
0c75
3cea
8ce1
7c11
7c71
145b
1484
845f
848c
84d2
3e2e
3e5d
ae8d
feda
f72b
5bd8
9b5a
2782
ab70
ab38
2ba0
3788
eb16
2d55
dda5
a939
f984
885d
d838
7565
aa15
121c
332d
f622
16af
466b
76ae
b34b
17fc
dac3
32d4
494b
43cc
e6bc
71b2
82df
f44c
65ce
a143
5302
21a3
2903
2d4b
2d83
32a2
3ec9
4d0a
5a95
5ef8
6156
6db9
67e3
7df7
8ef4
8c07
8de4
9707
9353
b151
d4c7
e1c1
fe01
209b
20d4
2052
20c1
608c
f020
7061
9079
9f54
df1f
0c14
0c53
9c7a
cc2a
ac82
8ceb
1c3b
1caf
1c72
7c49
24ee
b4af
e4ac
d421
3e5b
cecc
9e3a
de1d
0733
f786
676d
37ac
fbd1
cb9e
1d67
bd8a
b565
382b
5531
3aa8
ea10
faa7
fa8f
fa32
1234
429f
3390
5369
f6ae
866e
3138
5122
7120
3bfa
094f
98bd
1ac5
f27d
31ef
08d4
bacb
eabf
787d
26e5
58f4
e377
5871
99dc
d3fd
3304
780d
1d0f
12b3
2602
24ea
2208
41c8
4d04
474a
47b6
69c9
63e4
81a9
8551
94c3
9f07
c9c6
c226
cdba
ce09
d2b9
d7e7
f6a2
fe73
20a9
20f8
307f
30ed
9068
4f85
2f54
2fb2
2fe6
af5f
af9e
bf3f
df27
dc5c
dcb8
0c28
9c73
ac60
6c8a
1c38
b41a
b4b7
8464
845e
d4d7
2e9d
ae6c
ce2c
8727
8728
a7d3
5757
0557
2d54
0d8c
0826
b513
ba3c
5a28
935b
6368
a369
362f
3690
262b
a197
2178
aac6
93ff
544f
78bc
96f1
67ca
b841
9cc6
b3fd
e3f5
93cc
a57a
75cb
48d4
04f6
0706
08e9
09c1
1602
19c4
1ece
2e49
2281
2dfb
3895
6dbd
6778
82bd
9509
9d73
9be9
aa92
ab40
acf3
ba07
b206
c74a
d4f4
e03f
e02c
70a0
2f52
0c5b
cc11
2cb0
042d
34b2
141c
8e1f
8e9f
ae36
ceab
9e40
fedd
de99
b711
7781
173c
8b83
7b8d
8d10
dd69
7d1f
cd69
6939
a93e
031d
1a22
2523
6a1b
5a1c
6235
a264
e265
639d
c33d
138b
568d
6624
05c2
58b3
227a
aab6
317b
0977
87f9
43cb
597e
56e7
33cf
35dd
394a
48c6
e5e3
13c2
9add
c9d7
97cf
28f5
e9b3
230b
f806
0e0e
2187
32b9
3c0d
3d41
5e73
8995
8107
91c4
aff4
b185
bcfa
be4d
bbeb
c9a6
ca92
d953
e4ea
ed4a
ea09
f1cc
fec9
f20d
5091
8062
20b6
3039
c0ef
a098
4fbd
8fe4
8fc2
5fdd
5f77
5f78
2f3e
2f96
7f73
9cdb
2432
24a6
3471
74ad
4464
be59
9eae
9e89
f720
6714
678b
6719
676a
9b82
d739
2b2b
2b5d
a77c
dbbf
e7a9
7b63
3d8e
0558
1da4
2dae
352a
b91e
a99e
d920
1a15
3934
b861
7837
d52c
a213
c69c
2697
265f
f112
b12d
416c
02da
32f4
aac0
b2d2
66f5
c8f0
464b
3145
2dd6
78cd
fbfa
47ca
c940
424a
17c2
21dd
767c
79e7
61b1
72df
f2f8
c003
4307
f803
16a3
118f
1663
120c
2111
2db2
2f0b
3f06
49c0
4953
6de1
69ce
8df5
83ed
9298
9773
a4cd
a7e8
b128
b552
b5b8
defe
e553
e5b5
fdb2
fb42
5046
b03f
c042
70a8
70eb
d0ad
8fc6
5fa2
1fa6
ffa2
7f30
ccd7
cce6
ac32
7c6c
ec6e
7418
bea3
5e95
9e14
fe7e
879e
c797
1ba0
8b7f
cbd4
cb81
ad10
ad32
adb4
5d3b
7d34
6967
f86f
99ae
c95c
79ae
98aa
d566
9562
2a25
1213
9269
c268
311d
09ec
92d0
45cd
19b9
31fc
78bb
a5f0
f977
12f3
33bc
e6c2
eabd
76bf
2571
8ddb
88ff
e8d9
6aea
2806
d305
0b73
1b77
1952
2e0f
4a95
5ec7
690d
8222
818e
adb5
bd78
bb4e
b9c2
b3d7
bde4
c585
cdcb
d4e5
d3e6
e681
e60d
fd0c
f796
20db
40d3
3063
f025
2f2e
6f2c
1f79
1fb8
ffa3
cc3d
6cb8
8c63
1c79
745b
5434
142f
e49b
4e33
4e53
1e58
ae8f
fe35
de1a
0728
475b
47a7
878e
5b64
5b84
9b26
d7dc
3719
3b29
0523
0d12
bd69
cdae
3559
a922
0366
6868
68aa
e865
aa1b
da2a
5aae
5a5d
223c
521b
a19e
21a7
4169
2270
aaee
1ae1
3245
b9de
1971
11f0
22fe
f978
2375
b570
23c2
4872
61e7
9ad8
c7c9
4a7c
f3c0
26b7
f3b7
d642
2309
a002
0ff3
0382
15b2
14fa
2d81
2606
2f0f
3198
3103
4185
4356
590a
6dfa
6856
6f06
6ec8
6d93
7121
8691
8b78
ac02
b198
be04
b192
bdca
c4e9
cde8
d892
20a2
1062
60fa
40c0
f07d
9028
8fcf
6fd7
3f55
bf93
bf7a
ff31
efb2
3c2d
5c3e
5c2e
2c2c
2c7d
7c10
249f
3460
8466
0e7b
1ed3
eec0
fe2c
17ad
172c
673c
67a7
872e
0b19
0536
1d3d
6d6e
dd23
4d38
6988
f9a0
7994
b88e
b88d
8531
759c
8216
a22d
52ae
528d
931b
f354
f33f
6319
b115
81a0
811b
6138
22c5
98b0
1ccc
314e
16ec
85d5
42cb
f7c5
c6d4
86f9
56f0
2340
e575
1447
21f8
d1f5
38d5
a3c6
3309
1606
23d9
33d4
42b5
4c04
4682
61a5
674b
6bb1
970b
9359
a951
ad0d
a891
bef8
cb0a
cd06
e586
edec
f2a3
50ff
801d
b016
f065
7063
af1a
1f1c
cfc8
9c66
cc62
3c47
4cae
4cbc
5c45
ecdd
347c
7415
b438
14b5
d455
ce87
de28
b781
679d
d7be
db5b
5718
371b
3713
7b32
6bd7
3b9c
fbab
fbac
fd3b
f830
f838
a918
4565
88a9
68af
b8ac
155c
c894
4a9d
2a33
5313
6687
2162
094b
d6be
65d0
22d2
284d
a9ec
3278
597d
c3b7
564c
437c
46dc
43b5
21b2
96e7
d674
6ab8
97cc
f2f0
e003
380a
700e
03d6
190a
1f0e
17bd
1109
2682
4663
4402
550d
58e7
7dc4
82b9
8d9a
a503
bb4c
b4f4
c502
ca5a
c32a
d9a6
e9c4
ea0b
f2b1
fcf8
5020
50bb
20b3
60b1
b057
a0fd
4f1c
5f3d
0f72
dfd6
0cb8
ac19
bcab
3c89
8c8d
8c82
ecb0
24dd
64e4
b493
54dc
8426
0e3d
4e30
4eaf
7e10
5e3a
b79c
f785
676b
0b28
9bd7
c736
5781
4b2d
fd38
5dae
029e
4926
a95e
198d
1912
1a69
1a6a
981c
e868
9564
3a18
3a6d
c561
aa6b
aa22
aaa5
c2ac
c6ad
4369
0624
5613
b697
c139
116d
45f9
0642
16da
c5e4
62f3
bccf
127f
2377
e84d
b2f6
987b
ccc8
1449
e6f3
a6d6
26f5
5a7d
6304
7307
11c8
1be5
140c
2192
31a5
7df2
9184
9dc1
a3e2
a2a2
abe1
bbec
db0d
eeb9
fefe
80b5
8041
40a7
8f1e
af85
6f5d
3f58
ff43
bc53
4c2e
7c8d
f423
f496
64d0
14b4
a4e4
9464
4ed4
7e9f
b786
77b0
17ac
6751
0b2f
9b97
c767
2728
2766
ab44
e7ac
ebb7
7d14
cd9d
cd9f
1960
2939
b587
6823
b834
3816
3861
e524
e59f
9528
da35
6254
a2a5
c2a9
d216
e33f
26af
42f9
a9b6
b640
d34a
32de
9979
bee1
11e7
91e2
5245
86d7
b1b0
b944
98fc
48cc
8af5
f9d2
38b5
d80c
02bd
0588
0779
1699
2a5a
3901
3bb1
54c6
6b4b
690a
7329
7df5
78a2
8b7d
820a
9a06
a705
a982
b9c4
b50c
b705
bd98
cec4
cdbd
cb91
cef7
e2bf
ede8
e7b6
fa51
f3e1
fd0a
fe4c
8077
20c6
40a3
3097
b01c
703e
4fba
0f1e
0fd0
6fbf
1f2c
dc11
ac3c
3c58
1cdd
5c9c
2c96
04ba
5489
841e
3e2d
8e3f
1e14
ce37
cebf
9ecc
decc
0b5d
bbd0
e733
7bd1
fb18
fd3f
2d26
9da0
9d3a
bd8e
7d60
cd5a
4938
296f
2866
c928
e830
f267
d361
661d
869c
c157
1194
42f1
31e5
dac0
08b2
87c0
c2e9
784b
78fd
33c4
35d1
3ab2
65fe
21fe
eacf
ebf1
78dd
ca4e
41d1
dbc9
c5c6
dcc6
e2fe
75ea
0df0
0ffd
029a
14c7
25b2
26a6
2705
34c2
43a8
5f05
5a01
722a
8e7a
8896
9281
9b41
9741
a298
a70a
ad49
a402
c709
e403
ea02
e698
fb96
fa0c
80ac
3053
c03d
d064
8faa
0fa9
bf91
ff4c
dc1c
aca4
acb7
8cae
1ce5
ec66
04d6
04b8
2430
3424
7461
84dd
8e9e
4ebe
cead
f7bb
f7a6
9b53
d710
2714
2713
db13
fbaa
1d33
1968
28ad
e938
886d
ba27
8514
1589
251f
c884
75a7
da5b
eaaf
33ac
e32d
66ae
e612
26ac
b190
d15c
acca
b9b5
edd5
08dd
aacf
b2d5
aa79
a5f7
524e
8a4a
bae8
eadc
734e
b8cf
7ee4
9dd6
d5c6
96d4
d8cc
0dc0
1b0b
1ff5
2772
2658
350e
39cf
3e4d
340a
5609
5185
6593
7502
7181
8aa6
8e7d
89f9
9189
9be1
a740
b285
bb43
daaa
e3ed
50ac
503c
106d
604d
3033
9025
90a3
0f63
0f7b
df56
ef49
cfda
dcb1
0cad
3c8f
8c35
8c86
4c66
5c14
048a
248c
2483
345b
64d3
64a1
849e
e4cc
9415
0e3e
3e13
2e1d
ee93
a7d4
4b86
cb39
ad8d
2d7e
ed34
0d3c
8914
482a
d984
a81a
981d
251c
9566
3a3c
8a8c
9a16
828d
b22e
f23d
f367
6354
4330
d6a0
b664
a69d
b19d
06f4
98b4
b340
064a
09da
b9d6
b2dd
49e2
49e8
93f2
e5cf
7848
62ff
33cc
1244
637b
28d7
4a4c
c949
f87b
ba42
9ad7
d149
e8d2
13bb
42d1
15ce
c8c5
9aea
0dcc
1a0e
4e03
4a0d
5c06
5ff0
7aa6
8d7b
89f4
8621
868a
9552
93d7
9623
aff8
a8a3
b355
cd01
c795
c698
ed47
ed45
eb4a
ed0e
f3ea
f609
2043
3036
3026
a07e
7032
8f2d
8f8f
5f97
3f4c
bfac
ff86
df78
9c8c
aca7
6cb4
8c7e
8c4a
4cb9
2463
b47e
5496
8422
a4df
e48e
2e7b
8e3a
4e28
ee84
7761
471c
a7aa
db9e
1b44
8b38
fb11
cb8b
1d21
1d26
2d8e
ed5f
ed54
4daf
4d99
693d
0938
2860
7984
1560
c81b
c56b
fa66
9289
236a
5138
215f
87e3
1849
23b3
63cd
56e5
16b4
6442
1143
41b0
0bc2
d677
38d9
9bf0
a6f4
15cd
c676
280b
0b41
0653
14cb
29a6
2798
2be7
2209
4ef3
6dc0
73df
990c
9404
a7b6
a205
bb96
bcf0
b625
ccf4
c195
d555
d993
eb46
e631
fe48
8015
60fc
d0c8
9066
2fe3
afa1
ffba
ef1d
cf1d
ccd3
1cda
5cdc
0412
b4de
1477
0ed9
4e8b
1e5a
4716
8794
5b44
dbac
bb21
e72d
cb6b
ad64
69a4
698c
5985
293f
2912
392a
8834
a818
a859
686f
c88e
955d
ea87
72ab
c614
33ab
8322
631d
7667
413a
034b
66d9
3449
aa4c
a541
a8cd
11fb
66fa
4944
16c7
354d
85f3
86b8
8a7c
36fe
917d
c848
eaed
48b1
55ed
3a73
59d0
5ad2
724e
5a78
7805
5806
0efa
09f4
1502
1c02
1ffd
1a92
1853
1dca
32be
3aa6
3186
43e4
74fe
78eb
7202
77e1
8b73
81c9
9996
a3a6
adc4
b8e1
b9cd
bc0c
c74e
de76
fdf8
f9f5
fff8
ff06
2016
2f24
0f11
0fc5
1f91
9fdd
ef21
cfc1
ccda
4c86
1ce2
7ce5
fcab
0499
341f
7467
441b
f46d
f454
e422
d410
4ea0
1e6e
be52
ce6b
9e6f
7728
1710
17d7
0bd1
27bc
2b55
8b67
8b8d
6b1c
0d70
496b
2969
d958
e9a8
a8a9
853d
3894
e53a
4aa4
fa35
632f
538d
f624
139e
1362
363f
c16a
216f
415f
3005
22e2
c6fe
444b
49e1
85d7
91f7
8af4
21df
f2df
d5cc
e341
7bfe
c574
28fb
680a
7306
11c1
1b45
2b06
39f6
45a3
4bb6
5203
5d48
5c09
57b1
6b04
6c0d
8c03
84c1
af04
a8ec
b331
b3a5
cd72
e70a
e8e4
ee76
e7b1
50a5
307c
70ca
0f69
6f1d
ff10
ff4b
dc15
dcd1
0c77
bc9e
8c40
f4d1
e4a4
9463
94ba
0e85
8e26
4e38
be53
de10
47b4
5b30
a79e
db3a
8b7e
8bdc
6b14
3d18
1d6b
8d77
4da4
2834
2828
e59b
5584
755e
8aa9
9a30
222b
6219
d261
631c
7394
e62b
9613
319b
7166
0944
45f1
f279
b6bf
31f6
32cd
b2d0
4648
c2ea
85f8
0dda
bae0
fabb
26ee
3ccd
1dde
6ad7
0cc1
c8c1
d2f3
8377
3b0e
4986
49c1
5dec
6dc8
79a6
71ca
8226
9999
a5bc
b1ca
cbef
c658
de46
efff
e256
eff9
fdc6
f2be
f8a3
fdb6
e0d3
4086
c0b0
7044
70b0
d067
2fd0
af92
af45
1f51
0c42
24d2
74bf
64ae
d461
c43d
c469
6e5c
2e10
8e83
ce9b
7e2d
ee6b
eeae
77a2
c79b
d770
2758
e7af
3d66
055d
ed29
cdad
591d
5931
f9a7
392f
b530
b83a
2597
2512
6a94
9a35
3220
b26c
62a9
e264
f3ac
f633
1320
d624
669c
c12d
5132
02cf
06db
09df
22d9
314d
c2e7
5645
78f9
b27f
e7c0
6844
47c5
83c2
7946
ebf3
b14c
9dd7
7abe
8ee0
3302
0f04
14f9
1507
170a
13a5
110f
2ff6
38a6
3efa
4888
5255
6c0f
6251
7de1
8207
9fff
9255
a3aa
beb1
b20c
c7e4
def4
e4e5
e328
eb05
e628
e663
f798
f393
5084
8061
104f
1076
605d
408b
a04f
70e5
d0eb
4f4f
6f22
dfaf
dfc0
efc5
dc34
bc2d
3cec
8c5f
5cd0
7ca0
7cdb
0425
2467
34d0
3423
44b9
d4b1
4e14
ce99
7e8c
47d0
0b1d
d7d4
275f
2b21
2ba6
2d9b
2d68
bd84
3568
898c
482b
5938
285b
6827
d897
e522
6a6c
9268
93a4
3397
b62e
e6a4
819f
4138
6133
a8b6
c972
aa48
aacb
16cb
b8f4
b8fa
e842
9842
86b9
56f6
8ac1
77fc
e37c
6ad9
e3c6
5548
26b0
65c3
d1b2
fdd5
0df3
16a6
13e5
87b2
8951
9653
a3ee
abe7
bd51
bd76
b209
b7e6
c602
c6a1
c206
eb73
fb47
20ae
607e
302e
c04d
f0ef
709b
4f95
af25
af88
afe1
9f5d
9fd8
cf65
dc77
9c7f
9c4a
bc1a
2c5b
fc28
3439
7412
7472
f457
b41b
548f
8459
c4df
2e85
ae8b
ce6f
7e1b
47af
0b32
c7a7
2b18
fb30
cb6a
fd39
0822
3516
89a5
0934
8833
68ad
9857
7832
859d
2516
d52a
3a90
326c
065c
5654
e69c
e690
c19c
8134
81ab
03c5
037c
e6e3
51b6
63b1
5976
11ed
b2c5
72fa
b54b
6845
a6cc
5179
91db
194e
f9dc
e3c1
7444
9bfe
767e
29df
c87a
fddf
088a
19c3
25bb
27b6
33eb
3bb8
52a3
5cfc
5b4d
54f5
57ef
72b4
7359
98ee
9e0b
9ff1
a4e3
a281
a4e1
af05
b113
b706
b207
c385
d505
e3e3
f702
5061
5073
308f
c052
d0a4
2f5b
af32
afe8
6f36
9f35
dcdd
6cb7
5c8e
ec68
04cc
2435
148d
945c
0e59
3e94
8e92
1e8a
9e58
475d
f7d2
17b7
2727
27d8
ab18
bb3a
7b34
3d15
4d35
081d
4913
7926
b818
588b
5861
856e
8337
c31a
061f
132c
e339
e65b
463e
1ee3
4978
63fd
6eeb
39ea
85db
36bc
b277
59eb
e843
8add
d7c3
827e
5577
85c3
3849
7ae1
a6df
1705
1bb1
17eb
2dfa
2b04
3b7b
4636
4d95
5d01
53a8
5b09
6d79
6efb
7ef4
9e0e
a898
ad71
b992
c2ba
c323
c9ff
d399
d401
e604
eefa
f7b3
fa55
f7b1
fbe5
fd96
506d
2062
1038
60a9
40b0
c063
c048
6f92
bfe7
bfda
dfbc
9c18
9ce4
acb2
6c34
3c9c
8cb3
2c40
3490
74e4
64d2
1491
a472
942a
0eab
1e9b
ceb7
9e44
de66
9788
5725
3b2c
8d64
8db4
9d8d
6d21
4dbe
cda5
4959
196c
c828
9563
c61a
9690
1eec
03b9
45d6
2177
b9df
16c9
16ca
68bc
37c2
89b4
c9e2
31d7
42c3
a5fc
a8fb
76bc
5570
58c3
baef
7878
81eb
6bf1
f2c1
6bc1
25cb
d9b3
d6ed
75fd
82e8
a14d
55f0
72dd
81da
8009
4802
04c1
49fc
44e8
5779
5893
7b08
74ed
874d
8df9
8be1
9efb
ab06
a9c5
adf2
abbb
a393
b74a
bff5
e606
f699
40cf
30c7
afb1
1f72
3feb
cf62
8c3a
1c90
7485
4458
4423
f495
54dd
1418
e460
d422
8e1e
1edf
7e92
9e54
fe15
772e
77b7
ab9f
2b9e
a788
bb52
e7bb
8b69
8bb4
8b11
7b1d
4bd5
fbb0
ad59
6d2b
7d5e
4d1b
4836
0954
8890
b815
7820
388f
151d
3a9e
4a16
a25e
e25f
76a7
266c
3190
e19f
f272
b5ee
66d1
6a44
c17e
a8d9
69e9
c2c0
c1de
62ed
26e1
e6fa
6bff
f2c4
82d0
78d1
3ac3
36c6
28bd
65c7
42dd
72db
d371
6302
04ed
0981
3d02
3992
3ffc
4dba
670e
6898
8dc2
8d06
ad75
a201
bc07
ca88
dc01
d74e
ec0f
e10f
ff03
f4fd
30a5
c05c
c043
f0b0
d033
d0ce
2f3d
2feb
af8c
6f13
efa4
0cd2
bc1d
3c12
4ce6
1c3a
4497
44ae
c45f
4e84
ced1
de21
f7b0
675a
c76e
aba8
a77f
1bb0
7ba9
9d22
6d94
4d77
351f
2830
282d
988b
e89e
c865
d5ad
aa33
da2b
2a27
ea3f
1294
928e
9219
92a9
433a
d630
1660
866b
c1a0
912d
4bcd
4174
b672
16de
314c
a97a
c3b4
66e7
b1b2
987e
b170
d14a
79d6
27c5
ecca
da73
73be
3afd
52f4
6805
0c0e
04e8
1706
1eb3
2706
2599
2d82
3907
3d73
3e72
42b8
4136
4f0b
83aa
8998
960c
9bb8
adc1
e602
e70e
fbef
f682
f183
f7e9
5042
8023
4030
40a0
b0a4
b071
c0b3
a075
a0cb
705b
9097
90a7
4fcb
8fdf
8fde
5f2d
5f63
9fe9
dc6a
9c82
9c4d
bc24
3c38
3ce0
ec8e
4433
b4b6
9428
3ed4
4ed1
1764
d720
2b8b
a782
bb1b
e754
8b36
492e
f8a0
482c
5922
2989
983d
ba61
655d
e86e
d858
d590
a52e
1258
a289
4265
2367
a610
e65e
215c
41af
a6e4
07c7
b6bb
85ef
b9db
68ff
46f2
69e0
5cc7
87ce
85dc
a842
96fc
a6cb
58fc
ba45
ebfc
f2d0
fee6
5dd3
267b
65c0
55d8
42d6
f006
0e02
05a1
274b
2686
34f9
4686
4236
4ec8
5336
55be
590f
5685
6b02
6d73
6d96
75ba
8626
aa0f
b553
b70a
b6a9
b3e6
be45
c666
cd0e
d2b7
de73
d651
d35a
2091
20ba
10b2
6054
6041
4f47
af9f
0fc6
6f66
1f64
9f2a
ef43
9c1f
3c33
7cd0
ec34
6422
5477
14db
8eab
8e7e
bead
cedd
9725
0785
4768
9b13
9bda
c718
a721
8bd0
1d77
1d23
6d1b
dd5c
4860
e93b
15af
2566
d529
4a5c
9a6f
5a59
831e
b334
a39d
766e
b1ae
513d
91a7
a160
accd
aa49
b646
29bf
56b7
56e8
b5d6
2dd4
86de
fbff
41e5
dddb
2afa
38bb
5dd9
a2c5
da45
65cd
92c9
f84f
a179
99b5
a807
03d2
0ded
13a8
2883
4a85
5c03
6e45
6e0c
6e09
8779
8dc8
9d83
a704
b228
b321
ef08
e405
f692
fef8
fbb6
5088
801b
2072
10a3
6058
60c2
c03e
a015
afa2
0f82
6fe7
1f2e
0c38
0c23
ac41
4cd7
ec37
3415
546c
1496
d496
6e56
0e8b
7e5f
7e56
ee15
5e24
5ea9
07df
87bf
5b10
9ba2
ab74
ab55
eb81
6ba7
4ba1
3d69
3d65
9d77
ed35
4d1d
cdbf
698a
f81d
b91a
1910
29a8
c963
583a
d538
3a6c
c514
aaac
aa32
821f
f238
f38f
336e
332e
1668
566d
5615
365d
1120
b132
03c3
31bf
3441
11f9
4646
87c4
8547
aee9
78fb
71d1
78c8
a5c1
8adf
46cb
c946
7ee3
21b7
194f
41d6
feea
96da
8944
a347
6aef
29d3
95c7
954d
8806
b802
1b06
4596
477b
5328
59c7
57ec
6328
6dc9
670c
78e9
7bba
8907
8e47
8dec
93e3
a551
ac03
affa
b32a
bbe6
d201
f905
fe02
802a
8075
6035
4024
4067
30ae
b099
a0e5
7034
5fbc
2f63
afb2
0f95
bf90
9f33
ff3b
ff85
ffc6
0c9d
3c81
8c95
5c72
2cdd
2c3a
ec2c
ece0
248e
4482
54da
a492
e48c
c415
6e33
6e81
1e63
7e5a
f732
377c
1b19
8b81
7d12
4d20
026b
699f
f831
792e
baa8
7814
8520
a525
eaa8
fa2f
2210
f22d
e35e
669d
a669
080e
c16f
313a
211f
81ae
98bc
31b9
7ada
31fe
56b8
c242
42e5
b6c3
b6ef
eaeb
b2e5
35e2
fab4
47f0
d3cf
a7c5
dada
baf5
924f
a177
4dde
95c4
b30a
7003
0907
1b49
1ec4
13e4
120a
2de3
44e1
4b7d
6e01
6efa
8b03
96a1
a1a8
a9cd
b10f
c4ce
cb7a
c8e6
c991
e77a
c06a
c0e3
7089
8fa4
2f77
6fb8
1f73
3f62
df71
5c22
2c67
048d
f4a8
6415
6412
e499
94dd
6e66
3e7b
aea3
de9f
f752
675c
6785
0b55
c78f
abd2
57d0
eb6f
3d3e
ada4
2d27
6d8f
7d2f
4d30
495f
e9aa
ba5d
152b
e528
956a
1262
823c
8265
c22c
d211
b319
569c
516c
81a7
02f8
11b4
0640
b9e4
b9d1
16e8
53cd
3dda
644e
a8f1
eabc
eab2
e7c5
c1f3
88f8
7ae4
f8b9
caf4
b309
14e9
2283
2df6
34ce
3199
3dea
4692
520e
62bc
7d79
7392
7d4f
9bb5
94c9
9d0d
a50a
a3d2
b59a
cde5
da99
d331
f9a6
f74e
fb48
f7e1
40fc
c0ff
f0f8
a035
a0f1
8f66
af22
1f87
bf3c
bf19
0c88
cc90
4c57
4c61
4c36
4c81
1c43
5c9d
7c1d
7ce7
7c91
04d2
24a9
3462
7484
64d9
8433
a4be
d428
ae28
7edb
07d4
8726
571e
5786
4b8c
1d9b
1d6d
1d44
4987
9990
398e
885c
ba2f
b82e
b88f
8a15
ca10
b22b
b287
426e
422b
42ab
b36f
e31f
3130
81af
1aeb
e6ea
c2eb
9cc7
28de
2347
514e
d1da
e5e8
41f9
c3f6
25f2
7a7a
41d7
13be
d9e7
d7f0
6ab6
6273
f8fc
13fb
82e9
82e0
7006
062a
1c0e
19fb
17e6
2906
22b6
4da6
4296
49f9
5683
61a9
6599
6886
6ef8
6e4d
64f3
8696
8b91
89c7
8dc4
8d43
9893
aa0a
b4c7
d2b4
e199
203d
607f
708b
5f4c
afd7
1f5f
ffcd
df2c
ef6d
cfc0
0c8c
9c49
ac7f
aca5
ac93
ac73
6c76
1c37
ec5c
34b6
5425
a433
e4b5
d472
94b7
1e25
be88
47a1
27af
a751
bbaa
37a4
37db
8b25
8b16
4ba0
fdae
ad9f
2d8d
9d38
9d16
0d66
7d23
cd77
8922
7914
b53a
a86f
6810
ba2e
656c
2569
b2a8
f258
e316
166d
868d
c120
c11a
511e
aaed
45d0
c977
68c0
b1fb
c2f7
46d8
72f1
b54f
8274
4a48
a1b0
26e7
e6f4
47fa
7ee7
e346
37fd
d5d0
d243
f2ea
330f
0748
08a2
0621
0cfe
118b
220b
3d51
3749
4a53
5596
59f6
6e46
6df5
6efe
8604
8358
8593
9e4c
a198
a509
a70f
bb4b
ebe1
5077
207c
b090
c081
4fdc
2fd4
1f7e
7fa7
ef15
cf44
cc2d
ac8d
ac12
6ca4
3ca6
8c59
2c7f
74b0
74bb
f468
148c
a470
c416
2e5c
8e60
8e99
1e7b
9e69
b7dd
473b
1754
c7ee
27a4
2b3c
8d21
ed8e
6d20
6da4
0d16
4dee
0897
798a
c52b
7557
aa3a
5a10
b25b
c269
938f
b337
d35b
4310
e669
366b
362d
a11f
9944
1ac2
b9b6
0646
b6bd
b9eb
68f5
297d
96f9
eab7
86e5
46be
48b5
65f1
ccc6
cab3
76cc
b147
5877
a5d0
caf2
a1de
397f
5ac6
04f0
0883
23aa
3d48
3323
3dec
4ec2
41a5
53e1
5399
57e3
7cfc
8686
9b4a
a331
b106
c771
d6a6
de42
dbe3
d151
fa92
60d7
f099
a0de
5fed
bfc9
9f28
ff82
9c86
3c10
3cac
4c2c
7c47
ec97
fcae
fcdc
64b2
b4d0
b4da
9439
1ec0
ae77
7e38
fe8c
9b69
bb9c
3d38
2d2e
2d62
9d33
4d6e
b95a
486a
88a0
a85e
b82b
1527
e563
aa34
9a1d
32ae
b269
62ae
931d
c35e
f61a
e32c
568e
6637
b134
034e
a6e2
acc4
45cf
add8
16cf
c5e2
aa7a
5abb
35ce
b6c2
ea4f
514a
4a4e
c945
28b0
e34a
82c0
714d
72ef
a80b
e004
19f4
1196
27b5
2a05
32bb
3681
470a
5ffb
82be
8885
8cfc
a126
c7b1
da58
d20f
ecf3
f983
fdea
4014
4028
3043
4fc4
5f65
5f5a
0f78
7fab
efd6
aceb
6c4c
8cb7
8ce8
ec19
7495
44cc
642d
a419
e4a3
6e77
be5d
de97
477c
f7be
87d0
d714
abae
ab5e
aba5
4b63
1d11
9d2b
9dbf
6d66
5d14
cda4
e933
6867
5864
3831
c5a7
c22f
e26b
5287
9360
c66a
1369
d63f
d662
1657
f11e
9130
42f5
084f
18be
38c7
1cc1
85d2
b8b7
d1e1
c14b
21fc
81ec
98d9
b146
facb
e9dc
8374
b007
7302
d802
d00a
0f07
13a6
2125
289a
2d86
3bb6
3d7b
39c8
43a2
4b98
5692
5dc4
5ffa
54cd
57e8
6888
7131
73aa
7b40
77ec
8403
9c02
918a
a8e4
cd43
c186
db47
ed96
f10d
40c8
b04f
707e
5fab
6f6e
bfb6
ff2b
ffc7
dfc5
ef87
dcd3
dc7d
ac64
bcbc
6cd3
1c28
24a4
645f
d43e
c4d3
6e5f
6e5a
3e7e
8eda
4e87
ced0
8735
8756
bb89
bbd2
6b25
3d28
6d38
6d77
bd24
5d2f
7d16
35aa
991b
4897
0357
d963
1a1d
658e
8522
e513
c534
6a2b
4a22
8a61
3227
9284
5214
a39c
8657
116a
9118
a6e1
a8bf
b6b0
6a48
344b
08c5
b5f7
f1f8
5cc9
0574
c3b8
5841
68c4
66ea
33c0
124a
367a
56f4
98cc
a1b8
55e1
9ad9
ca48
8eeb
29dd
4dd6
eafd
d9d9
0b7b
03eb
2507
2f07
2db8
3c06
350c
3181
47e6
54cb
625a
7def
7395
7741
84f2
8d82
96a9
9cf9
a7eb
c888
dc0f
d8e4
e2bd
ea93
e402
fa95
50b6
e06f
60c6
302c
30fa
90d3
5fd8
2fee
2f45
6f30
6fe8
3fb8
df62
0ca7
0c11
9c79
6cdc
8c38
2ce9
7c92
fc8c
346d
6428
94db
4e15
1ea4
9763
7754
f71c
87ee
2710
abab
fb1d
dd8e
9933
0922
d95f
a887
7889
e5a4
956d
c524
8a3c
4234
f11a
b13f
aae6
1ad8
11f3
e5da
3140
c3b3
5670
91e5
6440
d1e8
43bc
19d2
c147
f6f1
1bf5
52d8
f345
7ee1
38b8
39dc
f845
f648
eaf2
d6fd
b00a
b30e
19f8
1126
1696
2a81
2298
2951
2636
3892
3351
4604
4d09
6de3
78ef
718c
71c9
8683
8d4a
9dc8
a4e5
a6a3
aa0e
b70c
b20f
cb0d
d255
e4c2
e202
fb09
20a3
1084
b0b1
5f3c
2fbd
0fd9
0fea
1fb1
3f3f
3faa
ff19
9c3b
bc7f
5caf
5c7c
34da
b4d9
842f
e481
d4a5
3edb
2e27
2e74
7e70
7e66
5ed6
072d
471f
4724
0b89
d7de
a7ae
1b66
8b3f
ebd3
6b7c
4ba6
fbb7
0daa
7d8e
892c
f869
5933
2832
f93f
7987
7894
d820
1557
a5af
9560
4a2c
ea8c
8a23
126d
326d
9287
f23a
f313
833d
06ac
e31b
e69e
c114
515d
7169
66d5
bbf0
a8c3
16d5
46fa
5975
2dd0
0544
42e1
c6d8
1647
fbf8
65f4
9acd
2572
fab1
67f0
1377
c7cf
7cce
e9e0
a6fc
fae0
f3b4
797c
7970
15dc
430e
0ff0
0b77
09a1
0ff2
19fd
1e78
1cf6
1d98
3df8
59a2
63d0
640d
78ed
9991
920f
a1a9
a222
a2b2
a199
b588
b5bf
cdf5
c982
d603
e7e5
f9f4
107c
40d8
30a2
c0b2
a08e
7068
d0c2
5f5c
2f47
af64
afef
0f7a
bf49
cc77
bc56
5c33
ecb7
14bc
147d
0e36
3ea1
3ea2
aed7
5e1e
de3b
8782
0b59
2b31
57d6
6b37
4b6d
0d27
cdab
8936
681f
5831
3828
155b
62ab
0615
b66e
f11d
b19e
38fe
d6bd
22e0
324f
3247
85ea
63c4
87f7
78b9
71ed
e1df
b2c4
b2c8
d8b3
b6cf
b6e6
35e1
e6dc
58f9
9afb
98d7
76d4
59ba
6af1
a2f8
da43
6ac8
51e1
d24e
d97f
a2e5
9544
0c04
1dfa
2e03
2155
22a2
31a3
360a
4745
64eb
63d4
83ef
9a04
97e4
a153
ad45
bece
dbb1
d109
d105
e795
f3a5
fa0b
4065
40b7
40e6
30e2
7052
0fa0
0fbd
3f5a
9f6c
ffaf
efd5
3c72
4cde
5c60
2caf
9498
c49d
c488
6ea0
6e34
6e3a
8e44
be44
ce3c
5e92
1783
5b1d
27a8
a79f
577c
eb97
eb58
6b69
cb6c
3d20
053a
2d3d
8d6b
9d21
899f
293a
c920
c960
d937
6836
9833
d837
25ab
5526
a51b
2a1d
1218
238e
431e
5632
663c
761b
2627
c13d
1134
1115
7194
e1ad
5370
06e4
aaef
edd2
88ce
bee3
c2ec
867e
b1b8
8a76
16fb
9bc2
7a47
5144
b6f6
92c4
3ad2
f944
81f4
e8cc
a307
0996
060f
174f
17ef
2407
3195
33a3
5981
5852
53d9
690e
6123
62b9
622a
7604
8b02
840d
9c09
ab93
a9c9
a998
a60f
a382
a353
b5b3
b707
b631
c222
c404
d231
ec02
e3de
fe4e
fde7
fc04
fa0d
2034
e04e
e0e9
30bc
8f4d
afda
1f82
3f69
9fab
ff9f
ff40
7faa
9c7d
bc6e
6c12
6ce4
3cb9
8c83
2ce7
2c51
fcb7
04db
749a
44b8
f48f
6492
ce27
7ed9
0bd3
9b62
ab32
2b11
a7bb
dbad
1b2c
4b65
fd60
adee
0d8b
0d7f
5d9b
7d69
d93b
682e
5820
15ae
e56e
e590
aa3f
6a3c
9a6e
4294
b39b
5310
d65f
a667
f11b
1154
312b
a16a
6dd3
06f5
63cc
097e
124b
eee6
eeee
e7c6
b8d5
3874
6cce
3cc0
daff
8af6
d3c6
5af3
83b9
53fa
da4e
8ccd
e5f3
0895
03dd
04ca
1583
19cc
179a
2b77
2586
27e7
32a1
3704
3d83
3193
3da2
485a
5d81
510c
7a55
7a98
7883
73d1
8df0
84f0
83d4
8ff5
8da1
9903
9231
a70b
ad05
b595
b1ce
cb03
ee47
503b
60ae
4021
a0ff
908f
5fd0
3f70
ff99
ffbd
ffe9
7f6c
ac8e
3ce5
8ce7
1c76
346e
445c
a49a
e497
941e
ee31
f7ae
872c
9b58
2764
2b44
db12
bb5f
1bdb
3b9e
fb39
ad9b
2d89
2d29
5dbf
7d5f
4918
986d
98a9
b88b
8538
2529
a55c
7528
aa9b
121f
d2a8
c362
6618
e66c
76a0
f127
3118
71ac
58b0
6149
1aea
17fb
dacd
a242
43ca
88b9
b5d3
c34a
4376
08f3
0bf6
25f8
b143
a6d2
43f6
fac2
26b3
f1bc
f3f8
430b
0ef3
1506
13a2
1c0b
1e4d
1d42
2116
29a2
3326
4dc6
465a
4896
5b07
677d
7ef5
7d86
874a
9cf2
ae46
b4c9
bbe9
c7b8
c779
c159
de75
e3d8
f336
fa98
fb9a
509f
5013
80fd
2018
206b
e0ef
608e
401c
b03e
b0bd
90b9
4f57
cf86
0c10
9c3a
6c28
6c21
1c8b
04e4
243f
74ab
5487
1453
2edc
8e7b
4e9a
1e70
1ea2
ce58
7e84
eed9
9e87
0720
7763
4784
f7de
0b8e
9b2b
c760
ab27
a76d
5754
e7b4
4b29
3d24
fd8e
9d34
ed3b
ed84
4d28
0819
19a0
88aa
a83c
e56b
3a87
4a8b
b21e
632d
a334
a363
a68b
761d
5164
6167
1ad6
aab0
c6f2
87f1
68c2
1145
53be
b6ca
46cc
19d8
ea4a
144a
5ade
844c
5af4
53ff
6bc9
19ef
b97a
a2c3
6acd
fa7a
dbf2
077a
04c8
0383
1121
1d56
17ea
3125
3b0c
4286
5c01
518c
53e4
5588
5e02
5e4b
790b
8f09
8eb3
8e78
88e2
9187
9125
a74e
abb9
b28a
c22a
c9f4
dec7
e1a9
fe45
f9cf
50b1
40cc
c09e
f0ac
f032
f077
f051
4f4b
2f8e
2fd1
afea
1f22
1f53
2c1c
742b
742f
748b
64b6
b499
547e
e4df
8e6c
ae56
ce66
9ebc
d762
a71f
db8a
577f
e7a7
8b85
eba1
4b27
fb32
3d5a
1d3a
ad1e
4d23
69a0
492b
c9a0
1a1f
e92a
8861
b531
b813
7a3d
4a18
8a14
8aac
faab
fa38
ca32
33a4
331a
163f
9654
b12b
0940
0449
32ff
a54a
3549
69e4
05f9
9cc1
8174
05dd
83f9
a1bf
f872
27c9
39b4
d6d8
baf4
13fd
d2c4
daef
5ac7
d374
d242
0392
1bb2
1b48
3333
5905
6226
610c
8163
8285
ae0b
c4f5
dbb3
e4cd
60a5
3012
b05e
a034
7083
4f3d
af8a
af76
af48
bf65
dfe8
ef3c
0c3c
ac79
8c6a
2ce4
ecae
3497
74ac
74ee
448e
b434
84b0
d4b0
c48c
c413
2e9f
1e91
d760
271a
a785
eb5c
eb87
eb1a
6b33
4ba9
cb6d
9d7c
9d66
ed21
b928
a962
6834
d88d
aa26
9a5c
5a14
ca1a
121d
128c
b265
721e
9397
935d
f3ae
b36b
d33d
a31d
6612
4638
76ad
b13b
8132
5377
02dd
497d
06e3
aae9
154b
32df
4947
3143
a87c
67c1
bccb
51fc
1649
91b6
6840
8ddc
41f1
2af3
2a73
7245
2679
6ac6
3978
8805
200a
e80a
7309
2505
2e46
2b0b
34fa
53ef
5204
7cf8
a748
acfd
bb0e
ba08
d131
d852
edcf
f686
80bb
80c6
2012
208a
6049
402a
f0e7
f0f2
4fa5
af5c
0f38
1f65
bf26
df67
0c3a
9cff
cc8c
6c25
4c13
547b
1499
a487
c453
cea6
b7d0
97a9
17df
9b7e
c7a8
a77e
e7be
6b6d
fdbe
1daa
6d55
dd6d
cd5c
893f
a91a
a926
ba1e
5836
55af
55a9
d53b
da57
da60
eaa0
fa63
221b
1210
8239
a224
7258
138c
1627
b61f
2638
616a
6dd1
06cf
98b9
634b
45dd
22d3
e6e8
0978
12e1
6eef
3146
2446
53b7
8a48
5146
ca46
25c6
bafb
924e
55c9
f677
d6ff
0b4a
1905
2356
2779
2d72
2956
210a
5bb5
6747
69c0
6b0f
69c3
6595
770e
7eb3
7393
874b
8986
9d47
91cc
9e72
b3d8
cc0f
df07
ea9a
ede4
e688
f2b3
2013
e03e
e0f5
607c
3027
30a7
d0f4
903d
0fef
6f27
6f15
1fd3
ffb2
cfd4
cc74
8c66
0497
045b
04ec
2423
6467
948d
3e34
8e54
eeda
9e18
976c
772f
0b5c
ab64
2b14
6b60
ed63
dd6e
69ad
a96b
483f
283f
3937
a83b
e89f
3aa4
fa25
5a5b
a297
f36f
332b
0669
566e
56ab
66a7
6665
263a
969e
9162
c8b0
98bf
02db
06dd
dac5
49b5
08ce
68ba
4cc8
567b
a8fc
46e2
9cce
6a76
95e8
65fb
2afc
eac7
58fd
4672
f6cf
7446
744d
79d3
d9ee
eccf
a57b
9244
55c7
074e
1bec
1209
2dff
220d
4905
4404
57e4
6cf3
67ea
7605
710d
740d
8505
8f02
8853
bd7b
c10b
e708
ed53
e4fa
fdf6
b0f9
c085
1fab
3f77
dc90
dcdb
9cac
9c67
cce7
bc15
6ce5
3c64
1c9e
1ce3
ecef
24d4
64cf
b47f
e420
9434
8e1a
ce53
7ea8
5e2a
9730
87a0
0b74
0b33
572e
7b67
ed9e
cd99
4939
b959
e92d
b810
788c
d865
4a1c
2a9e
b230
923c
c61f
231c
433e
43a7
1368
f138
713d
6110
6145
31f2
23bf
d341
3bcb
8abe
3272
8242
43c4
4ab7
864f
5442
12f5
6371
4ae6
6879
68db
d6c4
2af2
aaf6
6673
e375
d8f2
967a
1370
7bca
fac6
36d5
da7a
d2cb
d97a
f645
17e2
2ebd
2dcc
2cf4
21c5
2109
44eb
5682
6de6
6407
740e
7e7a
8d05
83e2
9609
aeb5
a5b1
ade1
bdf0
b4eb
c629
c253
ea86
e3ef
e253
e40a
60d1
b0fd
f09b
a063
0f28
9fc2
ff6c
dfa8
ef2f
dc6d
9c7c
ace9
bc81
1cd1
7c22
54bc
5463
d41d
6e91
0ea6
bea5
fe56
b753
0722
178a
a7a5
8bae
cbd7
059c
1d32
2d2f
0d3a
358e
c937
d913
a8a8
585b
853e
258f
c52c
c531
82ab
6233
d35c
a330
661c
4632
1166
7115
45c1
85e7
c17b
11f4
68b4
87f8
e542
8676
e648
9848
05da
4246
e6fd
17c9
79b9
744b
5542
937f
0673
214e
0d47
0e76
1656
1f0d
1698
23d4
318c
370a
3dff
33a1
44c7
4ef7
5625
7625
8a96
89f1
99c0
98a2
aa52
acfa
ba82
be7a
c1a8
cef0
c18f
c1ce
e598
f708
f288
fb4d
f204
20f2
b089
c01b
706e
9030
5f88
af56
6f46
1f69
3fd9
9f8f
df1e
cf69
9c96
ec23
34be
74a7
f497
64a0
14a0
a4bb
c4aa
6e6f
3e61
4e54
1e2b
9e1d
fe52
073a
672e
9b3f
c7a9
ab9e
a789
8d25
9db7
5d60
353a
691f
b95c
481a
292e
ba38
65a0
1567
7aab
7a6f
95a8
c564
7566
aa11
2a63
8a22
8a16
e294
c669
6361
069c
56ac
719e
06bb
1a7b
12c5
aaea
66df
1540
a8d2
e87b
e54a
87c6
1178
544c
567d
5673
8674
c2fb
e1d7
8a77
e6ba
35ea
c6e6
83f3
ddd7
e5ef
85cc
9ad6
76e1
96e3
5a4f
38d2
9a79
a2f0
c7fd
c7f1
c7f0
61b7
95f0
55c6
f6d9
e8f7
e9b1
0f0b
0de6
1136
190c
2776
27b8
290f
2dfc
240a
33e6
4ec3
4a07
5352
64f2
6b4e
64e7
68eb
7b49
7e48
7b04
8c05
8ef0
89fb
9a9a
a2b0
ab48
c9fc
dd06
dd4d
e8e1
fc02
f181
fde8
20ee
2096
1068
10e8
6024
407f
3011
30f1
b033
c0bc
a05f
90b5
8f6d
3fae
0c86
ac42
bc65
6c94
6cdd
6c49
3c1d
3cd3
3ce2
8c2d
8c23
2c6f
ecec
04bc
347e
645b
6459
84d3
ce28
ce63
ee44
9e7f
d78f
2760
bb6d
572b
3769
3765
3ba8
3d1d
1d54
2d99
8d3d
9d5b
6d2c
cd14
b93c
2955
d99c
d989
253a
e51d
e568
559c
a59f
7a39
eaa7
2215
b28e
738d
863e
c1ae
111b
91af
2166
6dd5
06b8
06d2
a9d6
11f5
d340
597b
68ce
78b0
130a
e64c
51f0
56fb
514c
c1f8
eac9
55ee
86cf
6adc
79d8
9140
9270
61b5
7bf6
51db
dab8
d5ef
c5d3
680d
0d48
0b96
0eb8
0607
0982
150a
1f05
1355
2dc5
3325
32b3
4706
4b45
5e04
7656
8d52
84ed
92b4
a1aa
abbd
a9f2
acf7
a792
b9fb
b402
c582
c4c7
c4cd
de03
d10f
e9fc
fa85
f7e3
2044
e027
e028
303d
3068
a08f
a0ce
7072
d068
5f66
af19
af96
0fc3
6f11
1f19
1fce
3fc6
bfef
9faa
7f45
dc20
ac87
3c27
1c4d
2c94
2456
f43c
b48c
3e5c
4e74
ce2a
7ed4
5e96
9757
6762
6711
6782
2bbf
8b3e
8b9e
4b99
5d8d
353f
b931
199e
599e
d862
c8ae
7a6b
aa24
daae
da27
8a9e
a29c
6363
e318
c1ad
45d3
6a4b
08d7
26cb
abf7
46f6
88d5
63bb
057f
e5cb
39ed
11e2
c2f2
1648
ccc3
83c9
11da
c7ce
c9b9
4bf5
cee0
e248
d1b4
ca70
d30a
0628
0796
2593
38a3
3dba
39cc
6e02
8d79
8dcd
8dfe
9d96
910d
ab4d
a407
ba9a
c70f
c8e2
cdc7
d7e9
d106
2054
109f
1073
e0a0
401a
40fd
3077
4fef
1fee
acbd
bc67
6ca3
1c70
5c47
1476
84e4
c47d
0eb0
3e88
ae7f
fe96
773c
db28
e781
8b44
fd23
2d1d
ed3f
6d13
cd8b
0814
691b
f836
a98c
886f
a890
983b
9815
255d
8a8f
8aa8
2227
629c
a234
92ae
728b
426a
d26e
c66b
2310
236c
d69d
568c
8694
968d
116b
912b
05cc
7adb
6645
a3bd
37c5
0970
53cf
71de
53bd
53b1
58db
c2f4
e677
56fd
8dd4
76c6
794e
11d2
b173
ba7e
38bc
9bff
f9e8
7bf4
82e5
e9da
75e1
81fc
b00d
0705
04c7
1b4c
19cb
25b4
24e9
2a06
27ef
34e1
4773
4d86
54f4
7d81
74f3
7661
8906
8709
9136
9a05
a2bf
a771
b8ee
c282
c3ef
d298
d981
e9cb
4026
3069
f079
70c6
6f3e
bfce
cfd3
9cbd
acee
ac65
3cbf
5c8a
0462
7469
b4ab
c472
3e8c
4e7e
ae61
5e57
7794
4722
4752
f7a0
5b67
9b63
db20
1b59
cbde
9d68
a916
19ac
59a4
29ab
a830
9831
ba60
58af
e52b
5589
a5ad
a29f
e239
e213
421c
f32d
732b
161d
56ad
86ae
9665
6157
06b5
92d7
6345
17ff
abfa
d7c7
47c1
23ce
77f5
2afd
82d7
15f5
3aeb
f2d3
5ae5
36ce
36c0
61f9
82f4
f3ff
96c6
d806
1d93
17e4
2a82
2ec6
36a5
37e9
5db6
7113
7255
7efa
8b76
8dca
9db6
9df6
b983
b740
c631
db98
e901
e3ea
e882
e8ee
edce
e661
fdc7
80d1
20e2
e0f8
3092
a0d8
a0f4
90c4
0f94
1f1f
1f62
9f7e
df47
cc5e
6ca9
7c52
fce1
348e
1463
8e6f
4e63
1e18
de30
db11
3ba4
cbb4
ad89
2d8b
b96a
481c
0958
0921
f933
796f
4aa8
8a8b
a267
b36a
1630
368f
f11c
f135
3122
2119
d15e
acc8
edd7
aab8
4aba
66eb
71df
d8b4
0ddc
6870
56dc
56d7
5178
387f
67f7
21b1
19ea
a27b
ea72
8809
8006
0df9
1ffe
2aa6
2df1
3cfd
5163
53e7
5391
6b07
64e3
6b41
7c06
75a3
7882
72a2
7383
8b95
8e06
97ba
9383
9dfe
a50e
b777
b605
bdec
cb0e
ca02
dc03
db45
ddb8
ed4b
e3a2
ecfc
f323
b046
c05b
c099
904c
4fe6
0f35
6f59
1f7a
3f63
3fd3
3fa2
9f7b
9f83
9f76
ff72
9c4c
1c98
2cad
2ca6
ec9c
04a5
3451
6474
b4bc
5412
a48d
d437
6e58
0ea5
2e86
5e40
b7a1
0738
4762
f733
d7a4
5735
e7a6
1b27
3bda
cb70
cb89
9d28
9d31
ed14
6d14
4d3f
4d5c
3594
8921
4960
f98c
88ae
9889
8558
c8aa
d52b
953a
2aae
8a27
7284
f260
d266
239e
6360
6365
061c
16ae
269f
f120
42f2
6146
254e
56cc
c9eb
c2e5
62c7
8671
b5cd
6449
35d3
d1e7
98f9
21f6
4248
98df
1dd7
f8c2
f8c0
48fa
7a78
53fe
38db
9bfd
067b
a1ef
834c
d27b
29ef
e302
1bef
11cd
19f1
1e0b
13e3
2583
4181
499a
54e1
5d92
63d1
6102
79c2
7d45
84ea
8e75
9693
9204
ad4a
a652
d656
e28a
e207
f772
f3de
801f
2097
2075
1072
e02a
3073
b061
1f8c
1fb7
1fef
1f61
3fa5
bf36
7fbf
0ce4
ac7b
ac72
3cb0
3c43
5c51
2c1d
64db
a4d2
d48c
6e30
6ed9
1e69
ae20
ae55
be70
fedf
9737
f729
f751
1712
875e
a7d5
37bf
1b13
6b2a
fb5d
fb8f
2d65
bd59
bd63
4d7e
3562
4812
5923
0929
2919
1a90
1a12
7860
e5aa
c23c
5320
562c
a639
115f
1a76
b3cc
25dd
7845
16bb
c37d
72f7
0bf8
6a72
ba4c
78db
79b5
b879
9348
dae7
fcc3
3af8
e244
ea7c
5002
d006
f003
0b7a
11a8
1358
23d1
3507
3b72
3be9
5602
5d53
5405
6551
63dd
7ef1
73a2
8882
820e
96aa
acf0
adc5
be07
c604
c9cd
df02
e591
ed51
f38a
f3e9
f902
f15a
f20b
802f
e034
e014
e0f4
402b
b03c
704a
9096
5f6f
2f58
0fd7
1f76
bf34
9fef
dc7f
dc51
ac2f
ac85
bce3
1c39
7c9b
7cea
fc4f
fce7
241c
2470
74d7
7431
6477
54cf
147e
14ef
941b
0e37
8ea5
1ecf
5e70
5e21
778c
f739
bbde
bb13
1b58
8b20
8b97
8ba3
cb1d
ad6e
2d58
892e
4957
4923
b92f
0962
c99e
f932
f925
7923
a862
9861
baa4
6566
8518
d81e
e558
556a
9aad
321a
e235
7265
c63c
1662
6622
368d
9632
111c
61a7
02c5
2546
66bd
a9d9
33f8
e5d9
63bd
4ab8
15e4
32e6
c341
e641
76b1
8ad2
28dc
b6d7
5bf0
9af9
21d6
a1df
4bf4
e3b2
a149
95df
800b
7804
e306
14ca
215a
2402
33db
340e
48eb
5136
59f9
64f5
8504
8606
94c6
9116
974f
a9c3
c156
c796
c1c5
d113
d3e4
d7ba
dff1
f1a9
fdb3
501f
8073
601b
40cd
30ef
903f
2f9b
2fac
2fe1
3f7f
df86
dfc4
ef5d
ef4e
0c3d
0c58
cc9a
ac3e
ac1c
1c99
5ca0
5c4a
2ca9
2c4d
7c96
ecbb
243e
f47c
6437
8416
3e24
3e19
4eab
1e27
1ed7
ce38
ee85
b73d
d79f
271b
ab3b
bb9f
5764
1b1c
1ba2
8b24
eb25
7b30
3da7
1d57
ad20
4928
b98d
4890
2964
d96e
79a9
e910
a889
583b
85a0
c53a
da33
123c
322f
82ac
c2a0
f29b
169b
912e
9132
1cce
16dd
46fe
8543
1bcf
72f8
8277
f6b5
35eb
737a
f873
11dc
e8d5
36c7
764b
e00e
01cb
0852
0b0d
1ecb
21a2
2ff4
32ba
3586
3d53
3ef7
4163
49c2
420e
6e06
6e76
6793
6cfe
7585
7eb9
7da3
7892
8dbd
81c5
8b43
94e8
abb6
c231
c3a6
d5b6
da98
d398
fdf5
2089
e0b5
e0ca
e0c4
4023
40d2
c0de
c0eb
a011
d0e9
2f66
6f21
3f2f
3f51
ff67
cfa9
dc83
9cb0
6c40
8c1d
8cff
1cd5
1ce1
ec1f
fc90
246c
3484
34b5
4454
44ef
449a
b474
545b
2e51
fed3
47a5
f7a4
0b62
2b83
a7d8
bb9b
6b3d
9d3e
6d29
a93f
093c
ba34
d866
e538
7a9d
7a9c
6a22
da16
2aad
8a9c
ca61
62aa
e25e
9366
8369
2357
4322
539e
f6ac
e39c
a66f
316d
4bc5
1a7d
2ee7
b2de
3a4f
16ea
a976
c6c0
544a
11e4
b84d
c1dd
71dd
a8f6
b2c3
d7c4
164b
62ef
35e6
96bb
f87c
e3fd
b174
7342
47f5
c3c7
587f
d2e8
a5df
0672
927f
92c3
f3b0
2add
f674
61f4
95c5
95c0
52f8
c009
112a
3906
4db6
44ed
54f2
53a6
560a
5196
53df
63a9
6255
610d
7f04
8df4
9ffd
a403
aa85
a2bc
a9cb
b60b
c10c
dcf3
f4c3
fb07
fffa
508a
20f3
10eb
e08f
6063
402f
40c1
30d1
30e6
b0c8
c0ca
f059
f028
d0d6
4f8f
4fe7
bfa9
bfc4
7fde
3c41
2c83
ec74
ec56
24cf
3425
44a6
b42b
b42a
5429
1460
14d1
8469
2ebe
8e22
be99
ce54
9e95
de39
b730
b716
6733
876f
ab6f
2bdd
a731
1b8b
cb60
fd89
1d5e
adbc
5d7e
48ac
1989
792c
7928
398a
e531
7563
6a8c
9a89
625e
a2a8
f311
8332
d3ac
066b
7363
d66d
f13e
9168
e8b5
66bc
edd1
b647
56c8
a54c
197f
68f3
89bf
a872
754a
5642
31da
85fc
f971
b5c3
eabe
46b1
b94b
b6f3
fad4
fadc
a7c4
d2ec
73cf
92cd
f241
a173
d5e7
d3f4
0eb5
05bb
0f02
04e1
21c8
43a5
470e
4207
5de7
5743
6e4b
6e7a
7e42
8607
abe4
ab0d
b2a6
b399
b3e3
c20a
df0e
d2b1
e502
f403
f681
fdf4
f103
8053
10b6
6045
4031
3058
4fde
5f4e
5f4a
2fbe
0fbb
6f70
bf82
dfbf
df29
cfa6
0c71
ac74
b482
947e
4e2c
fe9c
fe33
0755
f7a7
2b15
7b7e
3d6e
1d5b
1dae
dd7e
0d2b
35ac
592b
7916
a8a0
a869
9836
151c
4a65
2aac
9a9c
a25d
4213
d612
16ab
7615
a133
d19e
716f
01e2
85e2
c1be
11fe
2976
4645
27f2
78bd
11e1
31de
bbc7
b1f6
53bb
124f
e6c1
e1d8
827d
47cb
8ae8
41fc
86cb
7271
72c9
287a
e3b0
fa7d
81f5
a375
9805
1d78
28e9
2e0e
3626
4b49
4ecd
4b7a
639a
6b0a
6d06
6283
86a8
9186
9b0d
9bea
a885
ca06
d663
edf9
f333
f4cb
202f
4064
b085
b045
b0c2
f076
a026
706f
2f64
0f45
6f6b
6fd4
9fc4
dc49
0c8b
cc27
ccba
aca1
8c9d
4c5c
1cd7
5c2c
2c69
2cdc
ec47
1472
9469
9462
0e60
ee11
7725
ab81
bba1
1bd1
8ba7
7b82
1d36
8d19
ed6e
35a8
0354
889d
683b
683a
2539
a537
a531
7a9b
7a66
951a
7519
daa0
4a94
8a1b
fa89
c218
f2a7
f219
c36b
531c
e39f
3120
35fa
66dd
b9e8
9642
56cb
37ce
314f
5978
62fb
130c
1305
1142
4ee1
827f
3ab9
b2ec
bad5
e5e7
6cc9
81e9
6ad0
15fb
79b0
f447
e2ed
28b3
72c2
96db
29dc
e1bc
d447
0eb3
13e1
1d53
18e2
2dbd
2196
2107
3951
3d4a
5693
7de9
7740
82ba
8605
8db8
832a
84f8
8102
b329
bd79
e683
e281
e796
fa82
fa88
80d9
1059
401e
406c
405d
40c9
b0b3
c03c
c04a
f0c4
7037
8f8b
0f4c
1fc0
bf42
df9b
df61
dfb8
7f1b
cfa7
0c9f
bcdc
7c7e
7cb9
a4bc
d476
c4bb
2e4f
1e9f
b788
473c
0b2c
c7d1
a712
8b99
cb18
3d26
8d1f
9d5c
3520
3587
89a4
093e
c984
c962
b894
e829
153e
5532
ea20
b257
621f
622f
f2af
c684
c394
f627
e31c
e63c
9638
3194
9167
a12f
01b8
5371
35f6
69d4
3ee9
06da
4170
c6fc
997a
b5cf
b5ca
36fa
e7c7
28c8
77fe
cbcd
e3f2
f7f7
3aed
f2db
fee5
b7c1
f9e1
d8c9
f6d7
c67c
d3f0
380c
19cd
2e73
31c1
3ded
4703
4333
4eca
75b8
7bec
8191
a1c4
a7e9
aa0d
a40f
a20a
cdb1
c9fa
d506
db95
de0f
ec09
fcf6
8035
20cc
103d
1085
60ff
4099
c098
c0b6
d039
4f84
af3a
6f3a
bfcd
cfd0
9c60
8c24
4c19
2458
8488
a4db
e4ec
946b
6e6b
6e86
ae95
7e3a
de2d
471d
2b30
2b61
fd19
9d7e
9db4
499b
1962
d955
1a5d
e81f
b294
f2aa
c65b
836a
b31c
63a0
5338
56a0
b69c
a69f
2614
b11d
92ee
03be
f178
31ee
284e
12d6
bbf2
aab4
c1b1
c176
32d8
c9e6
16ee
c24b
39e8
31d1
8bf8
46e9
d1e2
0dde
86f2
6a75
62ea
9ac2
c3f2
eacc
e3f0
91d2
f6c3
0eef
d9b1
2a45
f3fd
b80f
24c4
2d7d
23df
4883
58e6
9dc2
93a8
9d02
bf04
b9cc
c9fd
c77d
c70e
deb8
ecf4
fcf0
80aa
40e8
c089
d04f
d07a
8fd2
5f26
2f27
2fec
0fbe
0f91
6fee
1f30
bfaf
ac9b
ac8c
6c91
8c1e
7c24
145c
c49a
0e3c
3e6c
2eb7
8e9d
4e92
be6a
f72a
9b51
c79e
d711
ab2e
ab8d
371d
8b51
3b8f
6d54
0d2a
7d8b
c98d
f930
f927
e98f
a83f
6861
782f
25a9
a536
d25f
636d
4313
c38c
f63e
e322
5690
a6a4
712d
49de
05ee
aacd
e5c0
0548
b5cc
77ca
b2cd
b8da
bae5
9ab8
ccc2
c545
b17f
e2c1
a7c6
b7c6
2adc
97f6
b805
0dfa
070f
1b0f
23dc
2741
32b2
3d46
4626
44ca
5749
6aa1
64ed
670f
75a6
740a
94f7
a3a2
a10c
b90b
cc01
c1c7
c852
decb
d631
f4c5
f105
8028
60da
409b
408f
40f4
3034
b06f
c0be
a033
2fab
2fdb
2f75
6f87
3fee
9f53
ef3a
0c78
9c83
6c9e
3cdc
4c8b
5c4c
2c1f
ec9e
04b6
2422
64d6
b49e
8475
a4a0
ee77
5e6c
9e5c
fe60
dea3
b744
77df
77d4
9b29
3b22
2d5e
8dbc
bda5
5d54
7d5d
2933
e932
a828
a826
6857
383f
256a
e53b
d51e
7aa4
ea39
eaa9
fa9c
c289
72a5
f23f
436e
5360
5311
a668
f137
c154
311b
811c
4172
964b
b1d6
1148
a67b
b8be
337a
35cd
757f
bae9
65f6
257f
56d6
fab5
cabb
e37a
17c1
e1ee
82db
1372
4845
9a73
36dd
c9b3
b7f4
52e1
28b2
f14e
e1b9
d645
fdd7
99d0
800d
2d95
3d03
33e9
5404
6604
6d0a
61c5
6186
688a
69f6
7128
7856
74cd
8c0d
8ded
9692
94fc
b5b4
b298
bb93
bbb5
ccf8
d4c6
d389
d740
e6a1
e4c5
5030
80ff
e035
e0b7
40e5
a0af
4fd0
4fd5
8fbc
af54
ff38
df4e
cc40
3cd1
8c7d
5c54
5c56
5c91
fc7c
043e
242d
2487
74b3
84ac
0e40
ae6b
ae9e
7e3d
de37
b735
b76a
2737
aba3
2b1c
372c
8b90
fd70
0562
1dad
1d63
8d5d
9dac
ed2f
0d1e
5dac
4d1a
695d
f83f
196a
1932
59ad
299f
d9ad
986a
9858
78a0
151b
e569
a58b
6a67
3216
639e
13a7
a66d
9635
6dde
03cb
a6ba
aa46
2170
b648
c1b9
d348
6ee4
9970
5bc2
39e6
5674
e6ca
eabb
e676
8aca
c842
19d4
58ff
55e4
fbc7
2673
2a4d
23f8
72ca
5eea
a2e0
2006
a00d
4304
7005
0696
0e78
29a3
35a3
3a0e
43a6
4629
51c0
5ff2
6ecd
6b78
7ec5
8dce
8952
940a
a7b8
a7ef
bb48
caa1
d983
dbeb
eeb5
e2b5
e18e
e4ca
fbb5
fb04
8021
e07c
303c
c0ba
d034
5fcc
af4d
1f68
ffc2
9cd9
9ce1
cca0
6c88
3c9b
4ca8
5cbd
2cb4
7c25
b4cf
e45b
d46c
c4a6
2ede
1ead
1ebc
ae44
aebe
aea2
fe8e
4730
5b59
db8f
db70
7b53
6d3e
8958
b989
3994
b52b
b5ae
659c
6559
852f
258c
da5c
4237
b36c
731e
a312
6697
51a7
813b
815e
e11f
b44c
63c7
c448
42c7
c347
b8b4
b6e7
b571
9acf
9ac0
e6dd
3cc9
6bf2
654c
c3c5
3343
137c
da40
a1dc
39d1
3806
15b5
170e
13d8
28e3
3286
3121
31cc
3cf8
4a51
42bf
477a
4bea
5eb2
5a5a
5df2
5792
6b4c
7888
7dcb
77ea
8409
9299
b693
b4e6
b191
cb98
daa6
f4f4
f7e4
f407
2066
4044
302a
c0ab
c0dd
70ec
2f30
2f43
af73
afbd
0f87
6f6f
ff8c
ff42
df11
df23
dfe3
7f75
7fc1
ef9c
0c5d
4cb8
1cba
ec14
ec95
fc73
246b
a4cc
d466
c42b
c4ef
0ecc
8e5f
ce19
fe38
0782
77af
87ae
0b8f
276d
db1f
37d3
1b39
eb9b
6b3c
fb26
9d23
dd7f
bd44
5d77
7d6a
19af
1935
393c
882b
b53e
b833
585c
659d
6519
558e
4a64
626e
338c
3339
5312
b65b
769d
1190
994b
03f3
06ee
45f5
e8b0
3440
63b5
56e4
42ce
67c3
71e2
59ec
46d6
9cc4
43bb
b6e1
83fb
bad2
48c1
cbc4
9af4
ba4e
d141
d8f1
deeb
93b6
7175
5aed
39b1
d6e0
26d8
e3bd
61f2
03d1
1c03
1125
1d41
4111
4dc0
4d0c
42b3
7182
7a07
94ea
ad07
b2b4
b3ef
bf06
d65a
e3e2
f981
20f5
c036
d04c
d047
8f89
8f72
af57
af8d
3f43
df3d
efbe
cf39
cfa8
cc75
ecad
eca6
fc41
04a3
3475
44ec
e491
c42a
0e1e
1e68
ae91
7e6e
debc
1751
ab8b
ab53
2b67
a759
3b6b
3b21
9d1d
9d7f
083e
6962
4985
459f
a8ab
5854
e89c
a538
3aae
c56c
6a63
9a6b
5a13
129c
9257
e215
725c
23a7
538f
a35e
161f
c13b
413f
18fe
0647
17fe
1af2
62fc
62f1
78ca
46ed
36f7
b6cc
41b5
41b1
23cc
68d4
cab7
3870
4247
61b4
61b2
2147
81b9
95d7
090b
1292
12b5
1399
2dc4
2ded
4389
48e2
4ffa
4a02
6fff
6f0e
6a95
6509
6208
6103
74e7
8b0e
9205
bb78
bcf1
ccf0
ce47
c773
c4c5
d658
d893
e608
e507
ed0b
ed78
fbeb
8099
80d5
60cf
60aa
40a4
40e3
3014
306b
b0c9
b0f6
c065
af55
afd5
af53
1f36
1f48
cf7c
dc16
6c90
8ca7
1c54
5ce1
441d
646f
6456
b484
548a
84a0
8424
d48e
d4a9
9418
6e2b
3eaf
3ed2
4eb4
4edf
4e36
1e2d
1e7c
1e21
ee60
5e1f
9e7e
0b37
0b11
5b18
27a7
2b58
a7d2
bbdb
6bda
053e
2d7f
8d6a
0d1c
182d
2984
e81a
c864
5514
4aa7
5a9c
8290
d21a
c668
8330
835f
23af
0639
463b
a13e
98b3
2540
69be
b6be
3171
c17f
abf8
b37b
87c7
2448
bcc5
71d0
e646
8a41
42ee
d1ee
4ae5
bae2
98f8
d6c2
93c8
7ee9
76e0
59bb
93bf
c7c6
914d
e9ee
8341
99e9
7dd0
28f0
c67f
96c3
9001
0c0c
1685
23a6
25b7
2dfe
318e
360e
48e9
5e4d
78e7
7d09
7651
8b07
a904
ad4e
a186
b4f6
d5b9
d2b0
d20b
e65a
f1a8
fde5
809e
10ac
60c3
4088
b039
f058
a036
2fc1
af71
3fd0
ff88
dfb4
ef13
3c74
3c4e
1ce9
44c0
548c
94bb
ee95
9b25
27bf
2bd6
378c
4b30
4b8b
4b26
fb1c
3da0
3da4
2d59
1990
e997
a82b
7868
7a10
95a0
758b
da59
8a2d
fa6e
923f
1615
8635
512f
01bb
184e
08c6
b8f6
87cf
5974
39e4
15e8
7842
bccc
b2ca
36fb
e57a
427d
cab5
c549
86c3
52db
7344
d3c8
a2d3
f8bb
b3b1
97c6
62d0
3ada
4bf9
a449
8344
c57a
d6fc
ea77
ebc0
e309
1d83
1773
17e8
2659
2e79
2699
2a07
3d40
3582
3225
340f
4b77
4d05
54e8
53de
69c6
6d0b
6105
82bb
a40d
e5b1
eb40
f328
f663
f709
fb91
e01b
40ae
40ec
b0fc
b0fe
70ea
70c7
908d
3f82
9fde
7f19
0c46
9c41
ac86
bc48
3c9f
8c39
1c55
7c9e
34d4
641f
b4be
b4dc
6e5e
6e12
beb0
97aa
0774
0763
77d3
672f
671b
8733
0b5e
a75e
371e
e769
1b3f
4bab
fba0
ed5c
ed90
6922
f8a9
e562
c83c
756c
ea33
8a31
ca9b
b23a
626a
c26f
f29c
f28b
8311
2362
d35f
133c
6614
a633
e68e
763f
2134
815d
41ac
3002
87ea
5372
07c5
064f
b644
68b1
88c3
327e
a87d
87c3
0541
a5f1
71e8
33b1
6441
c2ff
b2c6
d8f0
6ad8
2ccd
5ae2
6abf
6ab1
a6f0
2a48
92f0
39df
5ee5
d6fe
81d8
0e71
060c
09cd
0991
1c04
13aa
1129
1b7a
2ec2
35b2
4c02
5b92
7df0
8ff0
8795
8b71
9dc3
9103
a1a5
aff5
ad0e
c9f8
ce04
c742
ca0f
de4e
dd0b
e89a
e70c
fb93
2024
60ec
4039
30a0
303a
f08a
d0bb
8f18
5f47
2f55
6f76
3f2c
3f25
ff3e
dfce
7f12
7f74
cf57
dc8f
9c63
8c8a
1c60
24be
54d3
e4d3
1ea6
be51
7e1c
fe3c
de6b
972f
17ab
db22
dbd1
5714
cb2b
3d6c
fd1d
ada8
8d31
f8aa
b96d
b9a7
486c
2813
98a0
581e
e53f
c86e
75ac
75aa
9a63
5a87
b224
62a4
e26f
83ab
b33e
d33b
13a0
735b
a38e
b632
a618
5160
4115
994d
03c6
5341
a54f
494a
3a46
354b
39e1
32e7
b1fe
6373
91f4
ea4e
0bc0
1bf2
76da
a3f9
6ad5
8148
dad1
7247
36cf
9143
d9b7
97c2
f244
e2ff
73f0
f9b0
f1da
2f03
5702
5952
74e8
899a
9ef9
94ed
9199
9d46
a4f0
a655
bd0f
c3db
ce02
c9c2
c9cb
d3dc
dd78
d4c1
de43
dde8
fff5
803f
2065
207b
4084
f0ff
705d
2fa0
6f3c
6f55
3fba
9fb9
dc2e
ccde
4c5a
34b4
34cf
747e
f4be
6454
648c
64be
64de
5456
141b
c4a0
6e55
be90
ee6c
5e68
fed9
9799
4763
c786
d79e
3d70
1d1a
2d1e
0dee
5d6c
4d2b
9969
286f
d997
b5a5
68a9
b82f
1528
7a6a
75ab
2a6d
fa94
fa8d
ca18
226f
821b
4232
f2a8
0694
b63b
03b5
0872
35f9
694f
064d
65ee
32f7
56cd
6ee1
59ef
b1ff
b2c2
757e
eae7
0bcd
cab0
4877
fa4b
b7f9
52ee
7abd
79e2
95f9
4ad0
faea
51e5
fcce
dbff
d37c
9ee4
f3f4
3306
5804
0703
190e
1e4a
2aa3
2cf3
3899
3aaa
34e8
4e72
5592
540e
6deb
71c7
7291
8dfa
8f0d
9a99
9121
970c
a702
bd49
bffe
d191
e58a
e298
ed43
ebeb
f2b5
8049
10bc
e0c1
b0c7
f02a
f0c5
a097
d0cd
d0f5
2f15
af47
0f9f
1fad
ff1e
ff1a
0c74
0cde
ac20
ac40
6c97
4c16
5c44
fc93
247c
6432
b422
9477
6e6c
2edb
be1c
0b31
c729
dbdb
4b57
fb22
3d87
bd2e
6932
495a
198a
f98a
883a
6830
1597
d56c
6a10
6a5c
a29e
425b
d3ab
5339
a322
e61b
86a7
06f3
6348
edd0
89ed
49b9
f7c9
4374
36f6
b572
6a7c
76ff
394b
56d8
0bc1
e5eb
844a
21d8
8574
26be
72d0
f647
600a
11c2
1795
2e0a
27eb
3bba
325a
3792
3db9
4385
4666
54ea
5651
61a6
6d04
6d45
63de
7eb2
7623
84e5
850e
8d42
ad91
c251
cdc9
c40d
d3e3
e555
e321
e775
f3a8
fcfe
8022
402c
3074
f0a5
f075
a0eb
70cc
2f5a
0fd5
bf2a
9fa9
9f23
dfd5
7f8a
cf2b
bc51
6c55
1c26
2c65
b4dd
b471
5486
8418
e411
d4d9
7e87
7ed1
f7a8
5b53
2751
a794
e785
7b26
7ba3
cba1
1dac
adaf
2d3a
5d55
cd7e
092a
796a
ba68
b8ad
388b
e8ad
e533
a59d
ea25
9a67
325d
3215
a2ac
c21c
33af
2384
1616
661f
6638
4114
e13c
a6bf
4571
11b7
f27b
32c5
23b4
68b3
3544
1176
a8f0
53b9
05f4
5572
3945
a1b3
c3fd
ca45
79de
d6d0
c7f9
4bf6
e1b7
d9dc
15da
4806
0b92
1dc0
1ff7
3df3
3df2
4df3
44f3
5dc1
5652
67b9
6623
760b
7358
8158
97b9
aff3
a5be
a7b5
adf7
c2b9
d4ea
e293
e128
e4f3
fb41
f225
805e
10aa
e0a2
b0b7
c0fd
70ce
90ab
af4a
1f2a
bf87
ffe7
7f49
cfb6
9c23
9c9a
cc98
3c1b
8cad
8c1b
8cee
8cd2
2c86
04a2
249e
645d
649e
6469
c4a7
c4b0
0eae
8e24
8e2c
1e3f
be27
bed9
5e54
de93
8764
573e
3760
4bdb
3bd7
fd74
2d7c
9d3d
9da7
5d7f
3554
a93c
098d
a85b
c8ac
a519
6a26
4a84
2a8b
8a68
fa6a
6220
a22c
6314
6390
f69e
7313
166b
03bd
0379
02d8
154a
534f
32d9
e5c2
33bd
2647
66cb
66c1
71b9
e576
21ef
6bf7
25fe
f34d
f7f8
b7cd
767a
25ef
9a40
a574
4bf8
cadd
414c
d3f1
6249
580a
08a6
1d81
11cc
2581
2deb
4eb2
46a2
4b0b
5d4b
53d0
6298
7503
7dba
8db5
890b
94f1
ac0f
a90b
b199
c903
dd83
f891
e03a
30ee
30ea
7016
d0b0
4fc5
2fd8
2fd3
2f48
af2c
af6f
6fa7
3f5f
3f44
9fa4
efe6
3c4f
8cb1
1c61
0473
3492
5490
6e1c
2e8b
eeb7
9e31
b7a2
9784
0725
0ba0
c7bb
cb22
cbdc
dd2d
7d15
7d19
7d74
1866
89ac
195b
c961
786c
d55d
ca35
1284
e25b
4227
f2a0
e3ac
568f
b62c
8610
269c
962e
f13a
f162
315b
a112
71a0
06f0
2ee5
51b9
85d8
31d2
b1b6
c6b8
91fb
72ff
58ca
b6db
21f3
eacd
58f5
c7c3
914c
8eee
d6e1
7ddf
f6dd
c879
f37c
a007
4804
a802
2992
3358
3cfc
4cf1
43dd
53ec
68ee
774b
7dec
8a83
89a2
8cfa
94e2
a9c2
bda3
cff5
d586
d795
e4ce
fbb3
f999
fa04
20cb
c0af
70c2
4fec
8f94
2f26
af5d
af95
1f33
9f8b
cf66
cfc9
ac3f
ac78
6cd0
3c62
3c88
7c1a
eca9
fc2f
0491
24bd
44df
6497
a428
d41b
6e9c
3e39
1e39
7e8e
17a6
6744
6759
a787
bba7
372f
e7a5
1d87
ad8f
9d2d
dd9f
0d6c
cd7f
5934
1a34
392b
c85c
a53c
3a8d
2a5b
d289
c6ae
d318
d32b
d669
98be
634d
18f2
b24e
4176
2aeb
aad9
12e9
a5ec
22f4
85d4
054a
a84a
867b
08f4
eaec
1dd8
c9df
26bb
627a
3803
07b2
0df1
1777
1f03
19fe
1623
2121
3904
43a9
4de9
44f4
4a0b
5153
59f1
8506
8e41
8df7
97e8
ab49
a1a6
a772
ae0c
bdf5
b898
c3ea
c882
d333
ddc9
e326
eeb3
e053
40d6
3028
30a3
30c8
f0cc
70e6
4f7c
8f98
6f19
1fd8
3fa9
ff87
df9d
7f34
7f71
bc19
6c13
1c33
1c4c
2cd5
7cd2
2459
2416
4410
4475
f48b
54b9
146d
14d9
1471
841f
a467
9451
6e1b
4e69
1e32
7e2b
eea0
9ea9
775b
4765
17be
6718
5b6f
ab58
2b9f
a736
6b5a
fb3e
9dae
9d55
5d66
4d9f
1929
2988
c924
582c
651d
6589
789f
8532
d83a
5519
da6a
faac
8238
9260
52ab
938e
135f
5622
261f
266b
5165
4bc2
58b7
31fa
aabf
354c
e5d7
36ba
bbca
5ab7
b8b9
91ff
557d
c146
b943
68de
3944
a1b5
b3fa
c3fb
17cc
f444
43f0
37fa
37fb
d275
830e
730b
d007
c803
0e7d
11cf
24c5
39f5
35b7
3b43
3df1
4ff8
4b08
4992
6c04
64fe
61ca
6d98
7df4
77ef
8c0a
88e3
a60b
a9fc
bd09
b4f7
c886
dd03
edf0
feb2
f402
80b7
201c
e08b
e011
405f
4072
b03b
a06c
d061
d0d2
5f8a
2f9e
2fa1
1f54
1f84
1fa9
3f48
dfa6
7fdb
cfb8
dce1
9c93
bc44
1c8f
ecaf
ece5
043d
3452
5457
84db
a42d
3ecc
2e5d
2e15
8e4f
7eb4
fed2
0bac
0b6b
a78f
a786
8b35
6b27
3d12
bd12
7da5
4994
a99c
a958
d96a
b8aa
558d
3232
53ab
a6ae
468e
6dda
87e1
31ff
dac7
56c4
c177
a245
e879
49e9
3541
1173
1171
85da
36be
e649
eab5
c6b5
05f0
c6d3
56f1
3ab3
787c
8dd2
a1bd
1bff
e443
dcc2
c2dc
d8da
a148
9447
f2fc
d547
b80a
e00c
1dcc
13ea
1909
23ed
3256
3cf4
415a
6658
790a
7658
7406
8892
83d7
83dd
9b49
9852
920c
a55a
abe6
c8a2
c798
e7e4
fcf5
5029
40aa
c01f
c012
903c
8f40
3fe7
3f42
3f47
bf99
ff7d
cf87
fc75
2469
6491
b43b
541f
1457
9490
9e1a
b718
0784
7762
f77f
f762
d7b4
2725
a719
8b23
fbdb
fdad
ed1b
5d2d
081f
598a
c966
c92a
f931
e98c
889c
8a9d
c259
42a0
738c
8190
a6ef
0842
aae3
2ae7
2ee3
4949
4ccf
85f4
f975
33b4
4afd
86db
a5cb
2645
e6b7
9ac7
2570
9abe
96b2
ead6
ead5
6676
5ad5
57c7
38d1
364f
caf0
15cc
3afc
ea7a
e8c4
7806
070b
0d4f
1ff3
2cf9
3dcc
3e0b
32b6
58e2
67b1
7226
79a3
7a04
8ff6
950b
abe8
ad09
b599
c653
d3a2
def6
ed49
eec8
609e
401d
702a
70fe
d0ab
90e9
8f9a
5fee
af7b
0f2b
1fd4
1f66
bfc7
cfc4
0c27
cc37
ac6b
8c84
4cbd
4c4a
1c1e
fc56
741e
44d7
f477
b4a3
a477
a421
6edd
beb4
5e60
fe18
b797
0b16
5b3f
a714
5789
8b6c
6b56
3b30
fda5
0d15
0d58
7d6c
698f
19a4
591a
f964
39ac
688b
6884
6819
d83c
1558
d559
d563
ea5e
ea6f
fa19
123f
d28c
d212
93ab
f3a7
23a4
b397
131b
d6a4
465d
361a
26a0
115e
a120
815c
58b6
a6be
add2
a94d
2971
37c0
b37d
b375
1179
2442
56e0
27f6
27ff
bcc4
8bfe
86b0
46eb
e7c2
19da
e57e
47f3
384a
f2ce
2abf
d14e
1944
a7f4
1374
27ca
4acc
b7fe
d6dd
d8cd
880e
1aa1
2be2
2ff7
2656
28a1
3598
3299
3df6
477d
4e73
53a1
6981
74f6
7bbd
7385
84c7
8e0d
9bed
a2b1
acfc
acfe
b555
be4e
bdb2
b50d
b89a
b2a2
b7e4
c288
dde6
d9fe
eb92
f77d
fa05
80cb
6093
6048
f078
a0bf
7097
2f90
af7a
afe9
0fc8
6fa4
bf9f
9fd7
ef20
cf2d
dc99
dcd5
9ca8
ccd9
6cdb
3c19
2c90
fc4d
3482
a4d4
e438
4e12
aecc
ce1a
7e7f
7e51
9e23
0721
0ba2
db3f
e76b
eb35
4b20
fb7f
ed57
69ac
1984
f95d
852d
555f
55a7
552a
c522
4a14
5a3b
5a39
825d
a339
3137
21ac
4133
300d
b67e
2bf3
46ff
56ee
5844
8540
884a
42c8
62c6
16b3
2378
77c9
1bce
4aea
e67f
fbf6
8ace
c14a
1440
8dd3
c54c
c541
ead2
6677
b175
25fc
b142
deef
36de
9bf2
e1f4
da76
0676
2148
cadc
8cc7
e8cd
6007
580f
0d07
01c1
0798
04c2
1b05
1221
2c0b
274f
2b0c
4693
4707
5e0c
677b
6ffe
6b09
67bd
7ec4
7ec2
7a53
8706
8dba
99f8
a28a
ddc2
e113
e9f2
f6a1
fd82
f351
f401
f40f
8042
402d
4043
b0f7
5faa
af83
0fa6
3f18
bf88
9f9c
7f65
7f7c
cfcc
ccb1
6c38
3c70
1cbe
2ca0
2c2a
7cbf
7c42
ec3e
74aa
b429
9466
94b1
c438
6e1d
0e94
f721
5b21
9ba1
d738
37a7
1b2e
7b23
3b69
2d6e
8d36
bd23
993f
2826
c912
395b
a83a
855f
e81e
15a0
155f
7a21
755d
da84
2a15
238b
639b
563c
b615
519c
a119
d1a4
d137
38f0
11b6
add7
b6b7
a94a
f1fc
3ddd
127c
1147
08f0
d7cf
8278
46b4
5140
b8df
a64c
5bf9
734b
ebf5
8446
e1ef
e1e3
b14d
15f0
a7cc
41d5
9a76
294e
a2f5
7ccc
e2d2
d6da
a277
c27b
e3bf
8346
6170
fccc
72e8
c67a
95dc
330d
0de3
0bb9
03e5
0743
05b7
0381
1161
2385
2953
2e4c
2d7b
2745
318b
31c7
33d3
3192
31c9
5507
5183
5eca
6aa6
6b0c
77e9
8a51
83e4
8256
9cf5
a625
aa91
c74b
d282
ee04
f298
80e9
e04c
40ba
b09a
c067
70ee
7013
7021
90f9
4f7e
8fe2
5f1e
6fea
1fa7
3f2d
bf6e
7f68
6c4d
8c76
4c7d
7c60
7c43
2418
748a
641a
545e
54a7
14df
848a
a46f
948b
0e19
4e2e
7ed7
eead
ee3c
9eb7
b7bc
1757
876c
d788
273e
7b25
3b38
8d61
9da4
0d28
f86a
2924
29ac
1a39
4562
786f
8537
15a9
c869
5522
a55e
5a8d
5a89
b258
623c
52a5
6366
113f
51ac
512c
4160
d19d
027b
a6b7
227d
664a
65e9
6577
1cc5
12e6
12ed
5ccc
314a
b5dc
91e1
8a40
d7cd
a64e
faf9
bab6
5afd
dad5
36d7
39b7
3ac8
9144
b975
7670
bddc
23fa
dbcf
99e5
d277
dabd
81d1
c5d2
c309
9806
0629
1bba
13a3
2749
2103
3905
3592
4b04
53a2
6685
8ff3
8195
acf6
b4ce
b195
ba0a
c555
c1cf
dec4
d326
e50d
e4fb
10f9
e065
309d
c04c
a0a2
a093
70da
d0e1
2fda
af77
6fdb
6fcb
9f62
7f64
ef5c
5cb3
2c9f
7c72
fc5d
746f
44aa
64dd
843a
a411
e48b
d499
0e5f
0ebe
3e22
2e1a
8e8c
4e6d
ce74
7e6d
eedf
deaf
b7a8
87a5
0ba5
9ba7
9b23
c7ae
d7b7
27a3
37bc
4b6f
cba7
8d8f
ed60
cd28
496e
9910
b937
a915
1919
e53e
aa12
6a84
4a3e
123d
a28d
726e
f213
6364
6332
f6ab
1390
7634
111f
2137
3bf2
4979
e5d3
c2cd
644c
437a
d8b7
0dd4
c142
48b7
434a
9871
0bcb
98ce
a647
b14b
f44a
97c0
65c9
bafe
214a
36e7
a445
2ad0
e2fc
a3cd
9eef
0e7a
0be9
13ec
22a3
2595
23dd
4a96
4cf3
5bed
5db8
6a83
63e9
7aa1
8702
8f03
8993
9eb8
a296
a746
b6a5
c1a3
cbb3
c956
db0a
d18d
db4d
eb03
e596
ed0c
e685
e88a
fe49
f689
f229
fde9
e049
40a2
3031
b027
b091
c024
f027
f0e6
709c
4f38
bf44
bf33
dfbb
7fa9
0c6c
cc15
bceb
1c56
ec41
fc15
fca2
7416
747d
642f
8429
a43a
e4a8
943c
c4dc
6ede
3e37
2e54
4e20
1e56
ce11
ee29
9edc
9b1c
d7a7
1b2b
eb29
eb26
1d90
2d36
6d3c
0d21
181e
f85f
4810
a864
5527
a520
7a87
1212
c211
c620
f318
2318
4334
738b
a36d
d654
a622
868b
3668
266a
966d
2242
06dc
697e
284f
4941
8bc3
8bc1
2dd9
33c3
637f
66c6
ccc9
21fa
58fa
d675
d6d7
97c1
72c6
8cc6
f9ba
d5f8
e973
4807
0e43
19c9
1228
13e9
14fb
2bb5
2102
3631
42b9
4e78
55b1
5f0a
5de9
7992
8b06
95b8
9b7a
ab04
b881
b40f
cdc1
df0b
defa
da0c
e222
e599
e391
fefc
3013
b0d7
c0d1
f09d
d03f
904b
4fa6
4f96
1fd9
3f12
3fdb
3fd2
9f71
7f87
7f6a
ef38
dcb4
9c9f
9ca6
9ced
cc42
7cb2
ecd8
0410
34ad
741a
f426
a435
0e8f
5e20
072c
17d1
8712
0bd0
a7ac
a716
a7a3
db5d
eb1e
7b2d
cbac
8d26
5d5c
f815
79a4
682c
b86d
b89f
8589
7535
625d
23ad
d365
d315
c36e
5366
e654
7614
8114
d118
6162
06e5
b1e2
22dd
22de
e54f
0570
e177
8879
6444
1bc4
1bc0
28c7
56f9
6847
b2e1
0bc9
2af1
76c0
f870
5bf6
52dc
b177
7340
f34e
fad5
facc
cafc
3ad5
81b5
dae8
cbf0
0de2
060d
0b43
1907
1d0a
1df4
17b6
35bb
3de7
3395
3f03
3285
35bf
470d
49f6
5c04
54f0
5d41
5dfc
57ea
6dc7
8602
8126
8f06
810f
9336
94c1
970e
a3a5
a2b6
b1c4
b326
d186
d621
fc07
f4e2
1094
b0a5
a0ac
af90
1fb3
bfad
7f72
bc2b
6c3d
6cd6
3410
34de
d411
0e5c
ee2b
ee1c
976f
5b61
c73c
d727
5756
372d
37dd
eb55
3b8a
1d3e
1d5c
bd2f
4914
092d
289e
288b
7985
851d
e837
1554
7a6c
aa9d
aaaf
1263
c22b
e28e
e2a5
7218
f210
8354
a61e
8619
315d
b16d
911b
b6b3
2ee8
b2d4
32d6
3a43
89b0
c9e4
22f5
7547
5ab3
2bc1
957c
b1f9
d1ec
c843
19db
ea46
8147
d9e1
52e2
a1d0
75c1
2871
51e4
73fd
d3bf
5eef
52c7
cac7
5009
15bf
2dc1
3ff6
4cfb
5ff3
6395
6aa2
6183
6b0e
7c02
7885
7d4b
8503
8e73
9cf4
940c
a683
a121
bdc0
b9c3
b9f6
c328
cff7
d2a6
deb9
e552
eece
e995
fb78
f196
2079
e018
b072
a013
4f6f
8f79
8f95
2f62
2f81
0f89
3f75
9f65
ff55
7fa5
cfc6
cc3f
ac11
0461
449e
1425
8460
a48e
4e37
bed2
ce32
fe26
b72d
47bc
f7d0
0b84
2b26
5788
6b88
3d97
0560
2d8c
8dbb
ed70
bd1f
f81b
b93a
a99b
d95e
8864
b58c
651b
e52f
c85d
a568
7590
da22
4a90
2a3a
ea66
b2a7
928c
931f
f390
b314
4361
761f
b19b
42fd
b3ce
9647
317e
63f9
c5e9
9975
16e1
8644
bbc2
c1d5
1272
8bfa
4eec
437b
e6b5
c844
3abf
e573
a1b4
81e1
a7c2
2cc2
d9ec
d7fa
d843
a6f5
25e2
97c7
dbc4
e279
d27a
600e
060a
04ce
03da
0dfc
125a
1381
2d79
36aa
3a05
4c0a
4658
460e
41c3
58e8
612a
6ff1
72be
9a53
a5b4
ac0b
ade8
a4cb
ad72
bb95
cb47
cef5
cb73
d3e2
d771
dd72
d7eb
fbb2
f4e8
1098
10bd
401b
b07c
b05a
c0b7
0f8c
6f61
bfe9
7fa0
7f44
7f88
ac57
6cee
6c82
3c93
3cbd
4c6a
7cd4
b4b5
1430
143d
1416
a436
0e7e
8e69
1e98
beae
ee2f
ee32
ee62
9e27
b763
1763
5b51
9b22
9b74
272b
27db
ab22
db32
4b31
fd2f
0587
ad6c
ad6a
2d63
499d
4916
291c
2961
f960
f938
d960
d933
982c
15a4
e52a
5587
a59c
751c
aa36
4a33
126a
933e
4360
c315
1632
868f
f12e
1ee5
98ba
6341
cddc
18c2
1348
65d1
a9d7
08c1
88d8
4641
6eea
aa73
7545
a971
a84b
2bcd
71d4
3372
0bf4
4aed
e67c
c149
7a4e
4a4d
badd
4240
fa4d
3ae3
9a7a
b878
4a71
26bf
c7fb
25e5
97ca
f84a
95dd
c8d1
06a1
0359
0b72
07e7
31a1
33e1
5333
5695
54fa
5d86
5205
68a6
77b2
82b7
83ec
9555
9de7
9202
a692
aec3
a74d
a599
aec8
adff
bc02
b626
b383
de02
d359
d196
d204
eb06
ed95
e7ed
501a
801a
10df
60b6
3040
f0d4
701d
d0a8
909c
9069
df1d
df93
ef64
dcbe
ac62
bcaa
1c71
2c26
7c5f
7c6b
245e
24a5
5470
8497
d4a0
c421
0e5a
4e44
ee91
deac
de6d
de6f
f78a
0b8d
c73d
2b6e
db30
5797
e7bf
cb24
fd84
ad2e
6d2f
6d8b
6d7c
bd9d
cd57
8939
4929
599d
2857
b59f
9834
9819
9839
b81c
6567
389b
e823
a5ac
a563
3aac
3a26
75a9
4a28
5a6d
1219
529e
f394
061e
063f
0616
661e
e637
96a7
9949
31e4
09db
69ea
e5dc
e5d0
53c3
8843
1309
53b8
86dc
8acc
e5ec
2afe
47fb
93bb
7242
79db
c270
65c2
924c
f676
dbf4
96c2
3804
f002
0b0f
1d47
14f1
140d
23d6
4d0b
460c
57b8
5ff4
6651
6dfe
7556
7a56
7f05
79ce
74f7
8db1
950f
977d
9d4a
abb2
a323
ad7a
b231
c184
cd4a
da51
dda6
d792
d7ec
eb09
ea07
f184
fc05
fa06
8093
1097
e0ba
4089
40d1
30af
30b6
b081
f015
d087
bfc0
ef18
ef99
dc4c
dc48
9c43
9ce8
ccd5
4c69
2c54
249d
3422
7419
745a
d477
0e7f
2eaa
ae24
dedc
97ab
7710
f757
276a
a783
37a1
4b90
cbad
3d8f
0521
1d27
2d6f
8d33
ed61
ddbf
bdad
5d2e
5d28
4984
f821
b963
a95f
a8ae
7858
d58f
a513
c590
756a
9a94
8297
b2a4
f319
161e
b639
368b
3162
615b
4bce
cdde
a8c2
16e7
56e3
aee2
7841
c340
35df
e848
a8ff
ea41
c64c
7371
9ad4
a7c1
dee7
38b1
6af3
a6fe
26f6
6ae9
75fe
15c3
4148
3af7
a30e
0d52
0682
0886
1395
1953
13d6
3c05
3355
4323
48e6
4be7
5be0
6efd
7e78
8251
8f0a
8cf6
9efe
b1c7
beb3
bcf6
c777
c4c1
de0c
de71
dffc
e38a
e3a9
e625
ebed
e7e8
fb4f
f125
507e
5071
60ac
30f2
70ff
5f51
0fd1
bf41
7f3b
ac25
ac49
3c26
1c83
2c35
fc19
fc61
b48f
14a9
84bb
d494
6e18
6e1e
6e8d
8e2b
1e1b
5ebb
4712
5b23
c789
5730
7bd9
4bde
3b1d
3d64
3d19
1d8d
2da5
ed16
6d9c
08ac
f8a8
481e
4828
595e
0914
f99c
79aa
ba1d
5814
65af
c88b
a590
7aad
3aa9
c51a
da20
2a62
ca26
8267
b23f
b25d
a33b
36a4
3667
515e
a15b
d164
89dd
a6e3
a8be
f274
31e8
25dc
a943
a945
33f4
3546
89b3
3279
3dd9
957b
a8f3
a8fe
58de
91b1
47c3
41ef
d6cd
4870
3cca
58f6
ead7
88f2
88fe
ebfd
3840
f340
467f
ba7c
364d
13f9
f848
500d
b002
a00c
4809
0e45
1c06
1d05
1256
2d41
2404
37b5
3888
33e8
44c9
5ec6
6745
7136
74f1
a79a
a1ce
c79a
d50a
d58a
d20d
f77b
fa5a
f3db
207d
e054
e0fe
b0c5
f0fb
0f6c
6f96
1f7c
3f61
3fb9
bfd6
7fe7
dca6
cca6
3ca5
8c5c
5c3a
7c61
fc24
fc71
74b8
448c
f460
f486
b437
842c
84be
e4ba
4e57
4eff
7e2f
7e64
5e31
6716
879f
d767
bb25
fba3
cba2
056c
bd67
f83b
f82c
b921
4823
c93f
9863
58a4
6590
1539
2510
9526
7594
2a1f
8a20
2238
c29e
e29c
239c
2315
c31c
0610
e361
363d
36ab
3660
2690
f19c
919c
7130
08d0
2ae3
89e2
e548
3141
43c8
8bc5
6445
3674
2649
c84b
bae7
9ac9
aaf9
98d0
25f9
c9dc
82d6
a3fa
dee6
dad8
2ccb
0cc0
25eb
36ea
834a
d5dd
7dd4
e1b4
e8c7
a1ff
d00b
0ff1
1553
1c0c
2b46
3dfa
34e3
38a2
31ce
3191
3d0e
44c1
4db1
4252
5c07
5c0d
8aa2
8798
8eca
a333
a10a
b692
bc0d
c4c2
d5b0
d695
eb96
e20a
104e
b0da
d0c6
5f9b
5fcd
afbb
bfb8
9f9f
dc2d
cc94
ac61
3c3f
7c44
045c
649f
1433
a430
a4da
2e9c
2e56
1e1a
ce39
5e2f
dec0
779b
87a4
877e
8729
5bee
278d
ab30
2b3d
2b37
6ba3
cb15
3d11
2dbc
5d23
898e
281e
f910
e5a7
7a15
4a21
ea29
ca67
d21b
0632
1316
e68d
2654
b157
411e
6ddd
cdd4
02de
32c2
9646
8246
754b
56ed
56ef
5abd
33b8
05f2
b575
56d9
4243
e37e
dee0
5a44
9379
e9ec
f8fe
3977
42d7
2adf
7dde
dbf0
d37a
01c4
0be4
19c6
28a6
2666
2152
2d93
2891
2d4f
3de2
39c3
4b4c
64f4
8ece
84fb
83d9
958a
9a98
a123
a743
b509
c8e1
cb72
d1a3
ddc6
d606
d951
d9f2
eb71
f89a
8060
10dd
e015
b0c6
f016
f0c9
a0b2
a043
af6d
ffb6
dfd2
ef28
9cd6
6c44
1c5c
2c14
2c37
ec3f
fce9
2437
74a8
b465
5488
5479
54b2
a488
6e2f
0eaa
0e56
2ea4
b7a0
973d
97be
07a1
673e
57a5
e79e
3b3b
fb28
0533
9daa
6da0
0d32
4d8f
cdbc
3536
898a
a91d
399d
881a
b594
85a4
85ab
85ac
9510
6a90
4a3c
2a3c
ea13
fa26
b2ab
e214
729c
f218
933b
f654
135d
1363
762c
b122
e1ac
25d1
4449
69e3
5273
2441
544d
62f4
08f1
d1e3
05df
19d0
23cb
e3f3
7346
f2ca
c3c9
2cc1
f6ce
a5d5
9341
13fa
51ef
75ff
f84c
73f9
f9b8
c87d
f643
f1dc
04eb
19cf
1e4c
1a09
28e1
2621
3702
36a6
4bb9
67e9
640a
7bb1
7d4d
7cf7
918d
a125
ab91
a195
b9fa
ce76
c9c7
cde1
c3da
deb5
da07
f329
fef9
f8ea
f696
202a
302b
c020
d0e3
2fdd
2fcd
0fce
1f1d
1f2d
df83
0c4f
9cb3
5c85
2c2f
ec15
ec7b
fc55
4437
64b7
b41c
54df
54e4
14ee
c487
0e2d
3e9a
4e2a
be2b
ce5e
ee7e
9e2c
fe29
b76f
7723
17bf
c738
ab1e
7b5a
4b2c
4b89
fb2f
fd9f
0857
3510
b966
192e
398f
a89e
6825
7812
d857
a562
6a16
c265
c2a5
4215
f668
8669
2624
262c
b1a4
2118
2541
a6b2
07c0
134b
b9d2
49ed
beed
8845
2bc2
1274
46b9
4a4a
a7fd
3ae5
6af2
857f
3acd
e2d6
7677
7bfd
73bf
73b3
7973
72e5
2005
099a
1111
1325
1db6
13e8
2ef2
2d06
2f0c
3658
4683
4e0b
4651
4a93
5123
6dea
69ff
7588
7902
7e4a
74fc
720d
86a5
9df5
ad42
b704
bdf4
c626
ccf1
c196
cdce
c952
d5a6
d1cc
fa52
b037
b0aa
c0b8
f07f
a09e
a046
d08f
4f30
4f60
5fe9
ffee
7f33
ef2e
0c55
ac9e
1ce4
2c4c
2457
24b3
2472
34b7
34d5
6473
b4d7
5474
143f
1487
848b
a48b
d4bc
c423
8e37
8e13
1e8b
7ead
ee86
5e74
9e5a
9733
072f
779c
f71e
abbc
a73e
3785
eba8
6b7e
2d70
8d99
ed3d
881c
989e
586e
a51d
722f
9310
a6ac
e634
e6ad
869f
368e
b137
919b
6154
a9bc
e8b7
1cc2
b5f9
22fb
c248
a97c
39e5
96fb
b278
abcd
33be
3675
ea4b
f6bb
48c8
1dd2
f8ca
fad8
21d9
7ae8
19e6
b7c7
25cf
6ac1
924d
26d2
6ae1
834e
d94d
71f7
d009
0dec
115a
34f2
3aa3
38a1
4a52
459a
574d
5d05
5ef3
5741
5207
64ce
7905
760a
73d7
8a55
9c04
974b
9b79
a581
b251
b60a
c3df
d60f
d68a
ea85
eb4b
50d7
60fb
40d5
f055
f0e3
706c
d0ba
90df
8f7b
2fa3
0fd6
0f49
6f8d
ff1c
ff35
ff83
df25
acdd
ac77
6c3e
6c2e
3c15
1c8d
fcaf
0494
34a8
7420
c426
0e12
7e14
fea2
de85
ded2
97d3
0762
abd0
2b3f
579e
1b1e
1bd9
eb1c
fb5c
3dad
0dbb
083c
0887
8923
6919
b98a
0960
292d
3984
a820
986f
ba3f
e838
552e
7aae
c52d
2aa5
8a3b
a29b
9214
9361
23ae
432d
063b
066d
f69d
1312
736e
e387
a630
c15f
1127
8110
819c
d169
1ee7
497e
227e
a8d4
68b0
c24a
31dc
0545
85f5
c374
53b0
984e
c2f1
ea49
65f9
427e
6bf8
25f6
b8c1
f6c9
19ec
e2de
26b4
d6e9
61b8
baf1
f94c
61d1
d248
71fc
71f0
5307
07ef
1607
1df6
1a93
2129
2d71
33d8
4ff7
4205
58ef
565a
6d92
7983
7e73
7cf5
760d
7a09
8be2
8905
955a
a706
aef8
a9c1
cdff
d607
d7e3
f856
f102
5064
60b8
b0fb
f01e
d0ae
8f9d
3fd8
9fd9
7fac
ef42
cc1e
cca4
bcd0
8c4e
1c1f
ecbe
24ad
247b
7434
648d
849a
84d6
c411
3e20
1e5e
ae6a
5ebe
fea4
47aa
6799
9b70
bb56
8b6a
7bd6
fbaf
1d74
2d94
9d85
0d22
7d30
4d12
898d
a987
48a5
1961
f98f
8867
ba14
6563
15a8
753b
da8e
2a3b
628d
9233
6313
06ad
e33a
562d
4615
261a
2114
e11d
01d1
0370
35f2
12c7
1ae3
8ab1
7846
c2c6
1379
a2f2
a279
a271
52ef
c275
4ad7
fa70
d2f4
95c6
c5d1
e807
d303
f00f
0604
0f0e
0be1
3cfe
42b0
4be5
4bec
440a
538a
5ef9
5629
590b
6a82
69f5
818d
8953
8595
98e2
9deb
a555
ab45
ad9a
b7b9
bb41
b323
bd4d
bf05
c703
c116
cb76
d158
fc09
f4fb
f406
5015
50d8
504a
e0eb
e036
606a
3023
c056
c0c6
a01b
a045
7025
70ed
d036
af42
ffe5
7f7d
7f4b
cf11
cf25
0c4e
acb0
ac63
3c59
8cb5
1c87
5c92
2ce8
ec4d
fc68
24de
4477
f48e
64ad
64af
e414
d475
9491
0e1a
2e2d
1ede
fea6
de3d
4719
179c
673b
9b44
2765
7b35
4b2b
cb5b
fd5d
6dae
bd94
7d67
7db4
b9a0
a96d
091d
289f
c93c
c929
a89c
3839
e5ae
5558
3a57
ea2b
422d
831d
5611
463f
861c
963c
b13d
d154
284a
2848
25da
89ea
b44b
5cc5
15e6
884f
abcb
62ce
16bf
5145
98c5
c1fc
b3f5
faf5
61e3
f343
c9d4
f8b6
0cc2
8578
c9bb
72c7
95f4
81b4
42db
eaff
f2f7
0742
1a8a
1993
290e
3b0f
3986
5eb5
58a6
5d02
5323
6231
6d09
7653
7cfe
8b92
9293
9dc0
95be
cb9a
d6a1
d192
e136
ed0f
f10f
80ce
105a
3072
c011
a0dd
a0d0
7029
4f6e
4f5e
8f3f
8fb7
8feb
af30
afab
af7f
0f90
7f77
7f82
dcb0
8c64
2c25
7c4c
fc33
746a
64b1
8451
84a3
946d
9458
c4d1
1e33
ae8e
7ea0
ee8f
9b2a
c7a4
c728
37dc
3728
1b9c
8b56
ebd0
6b38
6b8a
4b34
ad25
a954
4829
f92f
d9a8
a821
c8a4
6a8e
fa9b
225e
533c
531b
a338
f110
c118
8197
8169
8168
412c
06c8
b9be
0875
697d
25d7
1afc
46f4
0578
4abc
8648
11eb
b27e
91e7
4a4b
c94f
98c4
96b4
667c
5ad4
21d4
a5d8
57cf
73c1
b977
d9b0
e1f3
79e0
28ba
dbcc
a34c
d2cd
73b9
c57d
f1e5
4803
0d4c
0ef8
1e04
1d91
1c0a
2b07
3ff8
370f
318d
3f0c
490d
4204
5696
6398
6dc4
7d53
78e5
76a2
8555
8556
8d4d
8efb
93a6
ade9
ab73
abea
b1cf
eec5
f771
80a3
e03b
e013
4027
c08a
9098
6f74
1f9a
1f7d
3f6e
9fe7
ff28
ff56
ffc1
7fb8
ef6a
3c84
3c46
8c14
4cd0
5cd8
2c3d
ec96
fc57
2484
34df
c425
2ebc
2ed3
ae67
5e85
f72f
6722
c723
d7a5
abdd
3763
ad11
adb7
9d30
456a
6835
85ae
8560
2567
d58c
7a34
4a6d
4a29
2a5c
923a
f33b
d3a7
168e
461b
313e
22e6
064e
c974
e7f7
2ae9
c6f1
0975
e540
aeef
bcc1
4ee6
b2c1
6843
684c
71bf
ea4d
f6ba
b6d6
d8f5
96e8
38be
b7ca
c9b7
55dd
55de
f14f
5a75
42d5
e24f
99bb
ca75
9003
0686
1de2
1efd
2592
24cb
2e0d
35b9
35b8
3d0a
4e0c
47e5
64c3
6899
6195
7b03
7e04
8efd
84f3
918b
9163
a385
a5bd
bbe4
ce03
c60c
ddb2
e104
803c
e0de
e099
3020
30c0
30cd
b065
a02d
a04d
70aa
705a
8f6e
8f6f
af9a
9fa8
dfa2
efb5
cfae
3c6b
4c96
1cea
5c40
7c2b
7c3d
34ab
44b1
b43e
545c
94ad
c48f
c4b4
c4d6
0ead
be7c
ce62
9ea7
079f
47d4
f724
5b1b
279b
273d
578d
37be
6ba6
4b1d
fb9f
fdab
ad29
ad36
ed44
495e
f818
f83c
299c
2990
68ab
ba12
e83c
e825
15a7
7a69
7a32
9559
7516
da6e
caab
ca60
8237
4263
3366
235f
c33b
0618
e665
c130
1afe
2bf5
f1f4
69e6
a5e9
c6c3
68c1
31d4
a5f6
e14f
c1da
71d8
46d7
5573
76f0
c54b
7674
bddb
62d1
9a4e
a573
a577
7649
380e
03e6
1772
1326
2381
2cfe
3bb3
3983
3151
490b
49cd
5aa6
5e76
620c
610b
7cf9
720e
810e
9553
9b0c
adf8
a4f2
aa01
be0c
bdc3
b8a2
c40b
dd0a
d9c7
eb48
ef0a
f121
80fe
e0a6
60fd
c0b1
a095
70fd
d0c4
90d0
90d7
9fed
bc22
1cec
2c2d
2c8e
7c39
f476
b467
5469
842d
9482
8e87
8e61
4e88
ae40
7e95
5e15
071a
0729
87df
8751
279e
2752
2bd9
a7ee
6ba0
3b2e
3d8b
f887
b926
4821
d990
982d
b825
d82b
d828
153a
e53d
7537
fa1e
a22e
9218
c39e
e66d
1124
1aec
12d8
12d7
bbff
b2d7
68f9
4445
c5ea
16e4
16ed
aa7c
5972
36b6
130d
8bff
e6be
b546
5576
eae5
58cc
41f0
eac6
aaf7
ebf9
8140
b7c8
a2f9
8571
23f3
57f0
9a4b
dccc
f3b1
55c8
7144
c8c7
dbf6
980c
055a
04c4
03de
0d71
1ef0
14e8
2588
2d4d
2740
4902
49cb
5c02
53d5
6b03
7df6
8e4b
8bec
9853
a1cd
b556
b9c7
ca0a
db96
d325
f60e
2073
1078
e029
6083
40ac
30ac
8fc0
5fa9
2fe4
3fb1
cfb9
dca9
0c9e
ac6d
6c45
1ca7
ec4c
fc47
f485
8492
a4ad
a459
e4b1
94b4
ae64
ae33
aebb
debe
9769
2bab
e724
e774
1ba7
1bd4
fb55
2d67
8d68
b967
a99d
58ae
7810
783b
786a
7823
e82d
d86f
e52c
d594
d564
d5a8
8a65
ca20
128d
623a
a25c
f28d
333b
d32f
6334
1364
73af
a354
1618
b619
216e
b67a
1ccb
1976
c5ec
39ec
b1df
9173
43bf
86f0
257a
4343
7370
76c3
b17b
2abc
5aff
38b3
0eea
f9e4
a349
797d
d5d2
a80a
f805
02b6
1cf8
1192
1236
4331
4741
5772
5189
58eb
5406
6c0a
6581
6326
6107
7f0a
8b05
8eba
8792
93d3
95bf
a77a
b904
bbb1
b636
b40d
cb4e
c74c
ce4a
c18e
c10e
d3d2
e5a1
eeca
ea04
f292
f691
f391
e0bf
4016
404c
b03a
70ef
8f20
bf81
df2a
0cae
acd9
4cef
1ca4
7c86
ec49
f4a7
5433
142b
a462
9423
94d6
ce60
cea2
5e7f
5b2f
5b8c
5b2a
d763
2b2a
57d4
57a2
8bd5
7b5c
3bdc
3d3d
3da8
ed89
6915
4968
f868
996a
298d
d931
9864
38ab
3884
7a35
9538
9536
8215
c29f
7220
726c
4238
b3a7
c320
c319
535d
f664
6613
b6ab
361d
a190
634a
06eb
b347
4173
25d4
a87e
c6c5
66e8
f973
33c7
a5c2
76bd
367b
c6d1
28d5
62e4
23c1
794a
13cc
5a4a
d67c
d6df
a6fb
8cc2
e9d0
97f1
200b
980a
7007
08ec
0778
2b03
212a
21aa
2cfd
3691
3ff5
5982
65b4
63e3
7df8
7852
7106
8b47
83db
870f
94fe
ae49
a1cb
ab7d
b885
b25a
d901
dd51
ec0b
e983
f155
fbe4
f8ed
3015
f04e
a04c
7042
90b8
8fab
8fdb
1f26
9f40
ef6c
9ca5
bcb5
bc4a
3ceb
1c45
8470
0e25
aeaf
be2e
beac
ce3a
5e61
973f
f79b
17d6
5b24
c799
7b54
7b13
4b5c
4bd6
8d1c
8d58
dd2f
ddb7
4d8c
cd2c
0823
6925
4869
0920
793c
391e
3927
e95d
5811
d836
e5a0
e514
a51f
fa29
c230
423c
5211
d238
33ae
433d
13ab
1610
663a
b66f
515f
a19b
06b6
5373
65e7
c6fb
33f6
b37f
117e
7546
78f8
bbcd
16b6
58d3
8a4f
d8bc
164d
b6ec
71bc
c64d
35e0
fab9
c941
9abf
48c7
cbc9
8afc
3843
48f1
59b3
e3c4
d67e
4844
d9ef
4a7d
b978
6aee
8cc1
61ff
e1b0
97fd
500f
0c03
05b1
04ea
17b2
1385
1b0a
17b5
2d46
2993
24e8
3998
362a
4778
5dcb
69fb
6396
6a07
7d0b
84e3
a182
a983
a709
ae0e
b7b3
b659
bcfb
b325
b5a1
b70f
c2a6
c506
c1a6
dec3
ddc4
fb98
8043
60e2
40fe
f0ab
f0ae
f081
7076
d0b2
1f4f
1fc6
3f13
ffa4
efa9
dc89
0c7f
0cea
9c61
ac3d
ac4a
8cb2
4c67
1c8e
0496
24d9
2492
6424
84ad
8465
a4a4
6e2c
6ed7
0e87
3ed9
7ea4
9eaf
9e64
fedc
07d6
773a
77db
f738
1711
875d
0b12
5bbc
a76e
a7b7
db2d
e789
7bee
7b21
6ba8
4b1e
3bb4
1d65
9d67
0db7
7d13
cd67
1934
2954
f92e
d93c
3910
8868
ba11
7829
251b
fa2e
9a2f
8262
e2aa
4230
c65f
f69c
a367
462c
968e
1165
4168
0943
537f
a9d5
b9ed
dac6
4442
2970
354f
5843
42ec
47c4
58ce
c64b
8ee1
9278
a1e3
d247
e9b9
e80b
04f9
1159
132a
140a
322a
34f7
4ff3
4225
48e1
4e42
4981
4202
5221
5993
7a83
7986
7404
8da3
8ffd
88e4
8d96
9323
9ffe
9a02
aeb8
ad82
b895
cc05
dda3
d704
df09
db0b
d7b6
d206
e5a2
e32a
e191
fbe7
5069
2049
30f8
b0e3
c0a3
7085
90c9
8f47
5f9c
0fde
cc10
cc20
7c8e
ec2e
24bf
6416
b46b
a476
947c
4ecf
4ed5
be58
ce96
9ebf
472b
4751
0bee
9ba6
c78b
c753
27a0
2b19
bb64
371a
e71d
1b67
cb14
cbbe
9d9d
9d63
5d1e
891c
9928
485c
4837
093d
a832
381b
e861
555e
c529
da69
2a65
e28f
f233
c630
633b
a320
6632
269b
9166
411d
f17c
664b
1a72
addb
add0
2bf8
c9ed
7ac7
16f4
6a7f
3ab0
c14f
b6f7
4278
e444
27ce
d7f8
9bf4
4ac1
2a4a
da70
8ee2
f3bb
2ad6
99ea
d44d
d448
f1e2
d644
ebc2
6248
e00d
070a
1def
110c
2de7
2dc7
3886
3896
4352
4982
5888
53d4
5791
6cfd
6d83
67e1
76a9
7bb5
7e05
8ef8
83d5
8de5
9582
91cd
97ef
a656
a688
b2ba
b9f5
b125
bd4e
b10b
c3aa
cbb1
dec6
d681
dde1
fdfb
306a
9071
5f2a
9fb0
7f85
0ce5
1c1a
7464
b4b3
a474
9473
2e11
8e67
1e2c
1ed8
ee2d
eea8
9e99
079c
477f
67de
8770
27b7
7b29
3db7
ad87
2da4
2d9d
092b
c99b
c96d
3914
782d
e589
c89d
d52e
aaa7
aa37
ea3c
925e
c216
e23c
d332
c332
d6ae
119b
9164
89d8
cdda
aae4
217a
4642
3275
c6ce
15ef
5443
68c6
564f
b8b8
264d
66cf
16f3
9ab3
5170
927b
e5f4
397d
0905
1ec7
14ce
1405
274e
23ec
3d04
4a5a
474b
44cd
4dfc
5607
5296
5db1
54ed
6dcc
6882
6cf1
7691
7dc3
7a06
8121
8399
859a
9de4
a1c7
bc03
b121
b295
becb
db05
d2a3
f746
f7ed
80c1
20ce
10f0
30e9
c044
a02f
d096
90af
90ef
5f14
5f1d
0f97
0fb7
1f8f
3fab
9f64
0c1c
bc4c
4c2b
4c6f
1cdf
1c46
5c2b
5c4f
5c36
2c93
7c9c
04a8
3431
545d
5475
a42c
6e63
6e96
0e82
0e81
4e2f
be6f
5e11
075d
a72d
a71b
bb6b
3712
7b44
6b9f
3b34
fb5f
8d57
0d24
0d63
695b
491c
4854
c92b
3931
8824
251d
d5ac
6a32
8a30
fa65
b28d
929c
e263
d258
939f
b33f
632c
068d
133d
4637
7616
b127
812f
6139
42f3
cdd6
bbfa
56c6
5349
b9d4
36b5
62cd
c1d4
3377
4aeb
28ce
eae8
48fd
48f0
e448
d9e9
b974
da7d
61d7
52fe
e9b0
caed
e009
e803
09f1
0cfc
08a1
1123
1629
2585
2cf0
2791
3ff7
34cd
43dc
4be1
5509
6ef2
7e09
81c2
8dc9
99fd
9dbd
a5b9
ab77
bf0d
b252
b7ed
c4f1
deb6
da5a
dc09
d70f
dcf7
e892
ea0a
f3e2
f743
e020
e0e7
2f10
af39
0f3c
1fa8
3f91
bf15
9f24
df44
ccbe
acba
bc91
5c3f
f41e
f43a
646d
e4a0
9416
94a3
c41d
8e9b
4ea7
4e22
9e60
1756
8765
5bd6
c7d8
2b10
1b3b
eb18
eb22
4bd7
1d1c
0d60
a9a4
f91e
ba29
e83b
d53f
6a33
5a65
e2a7
c63f
c660
839e
b39d
562f
e68f
762e
2634
919e
e115
63fb
4ab4
7840
8bf7
77ce
0bf9
66c2
28d4
3abb
257d
bab5
7177
27c0
fac1
7ccf
6ab9
a2c4
d6ef
d97c
e30a
03a1
15b4
2ecd
2655
2b98
2236
418d
4f05
58a1
6dff
8ecb
8b75
9ebd
9ec9
94f8
ab47
a9f6
b90a
bd73
cdb9
d70a
d358
e7e9
f28a
f996
f993
502a
202c
4082
3022
3075
b013
c0d3
c093
4f5c
bfa4
bfb9
bfb3
bfe1
9fcb
ef2b
ef59
cf1c
9ceb
cc1f
1cd0
ece1
7497
54d7
5431
c42e
6e2d
3ed1
4e60
4ed8
be19
7e89
b766
0726
4761
f7d6
5b62
2768
1b23
8b14
8b5c
8b55
eb63
7ba6
4ba8
3bee
fb2b
fbd4
cb9d
cb65
ad2a
ed28
5db0
7d97
7d3d
8918
593a
f9a4
392c
e92b
e833
95a4
958d
aa57
da3a
fa22
9a39
9a25
5aa8
b284
6232
723c
233e
069f
1633
66ac
4610
080f
e165
03c8
f275
a9dd
22d8
464a
6eed
3142
43ce
16b9
33ce
b2f5
77cf
8ada
b8d0
98f3
cab2
83c8
86c7
3a7e
52da
facd
8ee7
a1d9
92cc
f140
48d2
61dd
75d4
500b
13d7
1396
24f3
39f9
3de4
4253
4995
57b3
5883
5b4a
510d
64c1
750b
7596
7683
7953
79cd
8e46
8109
95b0
969a
a591
a74f
a6aa
aec5
bef9
c3e6
c592
c125
c407
dd98
e1cd
f777
f747
60f4
b0fa
afec
0f13
6fcd
1f4d
df99
ef36
cf38
cf63
cf9a
0c20
0c6b
0caf
0ce9
ac5a
bc63
bcb9
8cb0
8cdb
4c64
2c70
7c3e
6472
a456
a4d1
e43c
e432
c428
ae4f
ae85
7e60
de3f
ded5
771c
6767
67ee
8744
8736
c7d5
a72b
dba0
eb12
eb23
eba6
051d
5d5f
7d77
f95b
f93d
8aae
5a8f
5aa5
42a9
f397
639f
b633
4612
2619
2668
a127
3bf1
63c8
aee4
b5db
36fd
e6b2
35ca
987c
58fb
9af0
d1fc
98d5
f348
d145
b141
6adb
21da
96e0
d678
39bb
39b2
d5c9
6ae0
42d9
f37b
d2d3
b80e
09cb
04f3
14c3
17b9
1ef2
13d5
2cf8
3793
4777
4ef6
5aa1
577a
5771
665a
71a2
7ffa
72b6
83a2
8bb3
85b7
83a1
ad4b
a883
b796
c38a
cece
cd07
cf06
c995
eb49
e2b3
e9ce
e7ef
8025
40c5
3090
b01b
9026
4f32
5fe3
afd8
0fc4
1fe9
9f57
9c65
9c85
8c57
4c54
7c70
fcb1
44d1
141f
14d7
a4d3
c414
c419
0e2f
2e5b
4e34
ce6c
b770
97a0
97a7
978b
0724
f719
0b6f
2b94
a768
db74
57bb
376d
fb6d
fdaf
fd22
7927
8829
ba25
b8a9
651a
d5a0
d554
a52f
aa6d
2a11
fa31
a28b
922c
7259
333e
2339
6384
161b
e633
3bfc
187f
05e5
06d4
08b9
32da
46f9
12ec
824d
a973
53c7
c2e8
5676
a846
b5c4
12fc
1242
b2c9
e6bf
28c1
05d7
48bb
b6fc
8dd1
e6fb
59d1
47f9
43fc
19e2
d7fe
914e
2677
25ec
f3b5
e9d4
5ac8
a305
c007
0dba
1333
1e42
1d4d
28ea
23d2
4229
4b72
5393
6292
6126
6eb3
8be9
810a
a1c1
a8e2
a1ca
beb9
b882
b856
cdf9
ce75
c5bd
c9f9
d504
d3a5
e2b4
ebef
e70b
eb47
ea05
f6a6
f188
a051
7086
9067
9036
4f1b
4f23
5f22
2f5e
ff39
7f8c
cf88
0cdd
cce4
bc93
ec71
fc35
fc77
443a
f4c0
1452
a4a5
c451
6e92
0e21
ae9a
ee18
9e11
b7bb
7753
4758
47db
f712
0b8b
9b1a
2754
2b9d
2b68
a72a
bbbe
4b81
cb8f
1da0
ed32
0d25
2997
2890
2822
c9a4
d965
7920
3918
888b
8825
689e
785e
7839
3821
d515
c5ad
6a25
4a9c
4a66
2a5f
5a3c
ca87
1257
525b
5219
7357
d61f
566c
b69b
b654
466f
868c
2669
316e
5118
4127
17f1
1af1
11fa
68f2
464c
a879
8241
e5cd
7844
abc3
c379
9843
08f8
8a78
b576
56f8
56d0
427a
3a7c
52d5
6545
21d1
39bd
da48
2a44
52ed
23fe
26f8
d6e4
627f
f846
d643
a00f
0d51
11a1
1be6
1ec5
2504
22b1
38ee
3a09
4e76
43ee
5198
5ffd
58ea
5d83
64f9
75b2
74c4
9f04
9ff4
aa81
a2bd
a102
b3d4
b9ca
b952
d1a6
d1cd
ddf7
ed48
e2bb
e189
f1cd
fff7
80c0
10ec
10e2
e05f
6074
b0e2
d058
d08a
d042
5f16
2f2f
0f22
0f4f
3fb0
ffd9
7f43
ef37
cf8c
dce7
bc78
6cef
8cb6
7c15
ec16
ecb5
2413
2453
64b5
b48b
9470
0e8e
0edb
4e3b
ce67
7e90
5e3b
9ea8
de38
deda
b7a4
f76f
f753
1758
c714
c732
c7b0
575d
5762
fb8e
fb21
1d55
ed69
cd8f
491d
4830
48af
f96b
f936
d91c
7930
7957
683f
ba1c
781d
c86d
c82d
c826
7a5b
9520
3287
4354
0611
733f
569d
866d
7690
3616
b13c
d19b
1ee2
6a40
87f0
e176
b846
2374
e845
76c8
e6f5
554b
c278
b3bb
23fc
e34d
c2da
81be
157b
d30d
0d0a
19a1
2199
37b3
4292
4d49
4151
539a
59c0
555a
5e79
5e4c
55bf
6c09
6f0d
7186
9a82
aeb3
bec7
b7ec
cd4b
cefb
d596
e5a6
e8e5
eb04
e18d
e4eb
6032
40db
b06e
b0a3
c0f0
f09c
a0e8
d0e5
9063
2f3c
af4b
0fca
1f2b
bf4a
efd0
cced
bcd5
bc43
1ce7
5c64
2cba
7c54
ec4f
fc27
fcd4
0457
2468
4451
6482
b479
5458
a49e
a486
e475
2e19
8e63
8e85
ce70
ee9f
b7af
97dc
2711
ab7c
bb26
573b
5733
6b3f
fb3d
fb52
0569
0d29
bd37
4d63
4958
b913
0911
286a
e9ab
8831
a822
589d
aa94
2aa4
ea3d
7261
4269
5220
f220
d230
9338
c68c
335e
b31a
d664
d68c
b6a4
a638
b16e
9110
9114
89d4
07fa
a94f
66fe
63b6
43c9
33c9
b1f0
e6c9
62ec
2573
98ca
e6f2
17c4
9ada
82da
dee4
5ae3
19e7
d5cb
e2d0
da7e
96d5
287f
d37b
2306
a00a
165a
2dc9
28e7
259a
2207
3740
3981
4a99
53dd
5d56
5999
5a05
75b0
7bb2
7dfc
8553
8d78
88a2
8999
9c07
9f0b
b998
cbb2
c395
c3e3
d403
daa1
e3d3
e4cb
feb3
20c7
e02f
e019
f02f
a0d7
d041
8f7f
8f76
2f7e
0f56
6f44
1fa2
1f92
3fe8
ff64
df13
7fb9
7f95
7fc9
ef25
cf8a
dc2f
0c22
0c68
9c11
cc92
ac43
8c1a
4c62
4ce7
4c82
5c4b
fca6
241b
7466
f452
64b8
a481
3e8d
2e14
4ea2
ae8a
be5f
be87
5e3d
17de
0b5b
5b2b
bb44
3755
e758
8baf
4b6b
3b25
fb31
0510
ad1f
bd8f
b987
483e
2818
d96f
7939
b823
8565
159f
d59e
d558
d521
3aab
6a24
daab
da9c
4a62
2a54
2a60
ca2e
6284
a258
e211
431b
4337
c137
92d2
a9bd
66de
29be
43c3
b844
71e3
59ee
e64f
eab4
eee2
6a74
05de
95ec
9bcd
c648
bad6
d6c0
d1d9
21e1
17ce
25f3
91d3
53f0
f8d2
43f8
4ac2
d846
2149
39d7
cbf9
f2ff
81dc
29ec
0de9
03ee
04cb
0db9
122a
1e0f
25b1
2696
2995
429a
47b8
49ff
6592
7c0b
8688
9da6
9686
918f
9b75
cd81
c1c8
c6a6
cd71
c652
d4f9
e285
e8a1
fbe1
fff6
f7ea
e0b3
40ff
b086
0f5f
0fc1
6fdf
1fd0
1f56
bfdc
bf76
9f86
ef85
cf5b
ac88
3c39
4c6e
4cd9
7c32
fc99
445f
f4b7
f45a
6434
646b
64d5
1410
14da
c498
6e9f
0e8c
1e1e
1e7f
fe81
de1b
47de
87dd
5bdd
27a2
2ba3
dbd7
57d8
eb68
ad1d
ed6d
bd55
cd37
6989
b96f
5963
f928
391a
882e
b59e
b515
a812
a831
9823
b832
5830
da8b
2a6c
ea19
223a
c6af
f31b
6362
f66f
1366
f160
02fe
25de
aa4d
12da
a9e6
87ff
e5c8
91f5
7570
b6dd
a1be
2af4
eac2
85c4
a7f3
f7f1
d2eb
9a72
924a
8cc0
157d
fcc8
e245
d2f9
e806
0ec1
08e5
2f06
27e2
3182
38e4
3771
3f05
48a3
4ef0
5d82
610a
6205
9198
a903
b6a2
b4c5
ba0f
ca82
c6a5
c4ed
c749
ddb3
e509
edb5
fa91
f792
f4f7
10ee
e0d1
7046
d01d
5f3e
5f23
2f59
2fb7
6f7d
1fd6
1fe2
bfc3
9faf
0c6a
0cd0
0cd9
9ca7
ccb7
3cd5
fcd9
24a0
242f
342f
4413
b410
e46e
e41c
0e88
0eda
8ed3
aedc
ce30
eed1
fe14
fed5
de20
0739
77a7
47dd
f7bc
17b4
0bde
d71d
db2b
3784
37d0
37a3
1bbe
1bd2
6b74
fb19
fba6
cb86
3d63
052d
0565
1d12
6d9d
dd99
bd33
7d9d
6923
4819
599b
8561
d83e
d8a9
e539
758d
6a5b
326f
32a8
b29c
c2a7
428b
333d
233f
433c
5363
735d
e362
66a4
e63f
1122
a16b
a15e
d13d
d114
284b
534c
16c8
68b5
56b4
4ab6
8877
2373
b1bb
8a4b
b542
b6d4
e5e5
f879
58f0
67fb
2ac4
3344
3ae8
2941
73ca
934e
29d9
82e2
fa71
d949
630e
a00e
0693
0909
08ed
0791
150f
1d04
1382
3f02
5f0b
6bef
6d76
7328
718d
7e4c
8d81
860d
9902
ade5
b40b
cb95
c356
c152
cd9a
defd
e7b2
ebb2
f70a
f9f3
f4c2
203e
e045
60c7
406e
4049
3076
d0c0
1fda
1f75
9f31
df2e
7fd4
cc4e
bce8
8cd6
4c35
2cac
2cb8
b458
54af
a4bd
e494
6e3c
6ecc
8e7f
1ed4
7e94
5ec0
fe6b
fe13
9751
7765
7783
475e
4782
5bd3
ab25
db8d
e79f
e799
8b1f
8b2c
7b7c
fd2e
1dab
8db0
8d11
9d37
ed87
dd9e
7d28
f826
b99d
a92b
c921
f955
88a8
6522
7815
3827
e89d
156c
d56b
a2ad
728d
5290
8397
f68b
5610
b13a
8120
a6ec
b24c
66e4
a845
bcc6
33c5
b1fc
42e4
3374
b543
0dd8
91ba
257b
3947
8dd9
e6da
424b
e6f8
98da
59d9
2abe
f7f9
b7ce
9147
f9ed
95f5
48d6
930a
9006
0552
03e8
15bd
2be8
3a83
4d96
54eb
51c3
6dc2
7e07
8381
9a96
950d
97ed
affb
a109
bfff
c299
c187
cf0a
d4e9
d8ef
d507
ebe2
edc1
ecfe
f8e5
fcf9
fbb1
f3a1
10f7
c0a2
a02e
7012
90ae
2f44
6f62
6fbd
df39
1c6e
2c87
2c76
fc97
44b5
f46c
b431
542e
1490
847e
84ef
e474
d413
948c
6ecf
4e3f
1ea1
9e77
de3c
de33
b764
776c
779d
7767
473e
17a7
0b13
c762
d7dd
ab9d
2b53
a72e
bb6a
bb29
373a
eb31
6b9c
fb36
cba0
9d6a
bdac
7d1e
7d1b
4d7c
a968
596d
6597
256e
c813
959e
5a18
b21b
a261
e260
5259
f3af
e367
e63d
3619
3612
f133
b11a
a12b
2110
215d
412b
aab3
5342
66f1
b44a
327c
5276
56b3
aa7f
4ccb
3dd7
78c4
76b8
56d2
d6ca
a644
faf8
eadd
91d1
96e5
7bcc
b875
e2e9
48d5
fa76
d5db
15d2
e974
050b
0ecd
0d41
0bec
118c
25b6
3502
4dcb
51a3
5cf3
5ff5
640f
77b3
7de8
799a
85be
84f4
8b79
835a
8a0d
cb46
cbb6
ce43
c201
d1aa
d3e1
e1c0
e5a3
e1cb
ef05
eb4d
fdf1
f20c
80ea
20be
60e1
60cb
402e
3084
30a6
b023
f0a4
f0ce
a0a6
8f46
8fce
5f3f
2f6d
af87
af69
1f70
cf6c
cf15
bca0
6ca0
3c1e
4cbb
2c8b
fca0
04ac
246d
14b0
a498
e41b
948f
94b9
4e6c
fe1c
fe70
fe55
979c
4718
f731
c785
273c
ebae
6bd1
3b3e
adbf
8d1e
bd13
7d25
0859
b965
1939
5925
b82a
65a8
d82e
d89d
7a57
c510
da18
2a8d
ca38
a29d
f28c
933d
3334
b315
1357
a313
e66a
465f
365e
2632
5154
413d
71a4
69d3
f27e
edd4
89b1
9972
4ab0
68ca
62fe
9841
8a49
51f3
557e
d6cb
d6c8
e5e6
41dc
39b3
a6fa
6279
13fc
f3b6
cee8
2adb
d979
7af4
8804
0efd
23e4
2291
2136
3b4e
49ce
468a
5a86
53e3
6e43
6893
740b
93a2
b333
b352
b709
bda2
b9ff
c992
d1c4
db04
ddcf
e331
edb1
edb6
e196
b0c0
c0ed
f013
a02b
4f54
4f8a
2f16
2f72
af82
0f41
6f7f
6fe9
1f44
bf8d
9f2e
0cd8
0c72
ac4d
6c9a
f4cc
641b
1413
1481
a49f
e41a
e4d2
d4c0
6e3b
2ea8
4e7c
4e23
be29
ee28
ee63
fe32
7720
f714
6774
6766
0b1f
9b67
9b52
d716
ab3f
ab51
a744
3733
4b3f
3d2f
fd16
1d9f
ad97
ad7f
2dbb
8d7c
5d38
5d31
8929
699b
49a0
b938
093b
095c
0926
2921
282a
799d
791c
e9ac
e960
883f
886a
a865
58a7
7864
c86c
c8af
7510
aa27
6a8b
ea65
8a2b
623f
a257
92a7
d294
f32e
83ad
b32e
c194
c160
4197
4167
c5f9
05ef
56c1
8ab9
12eb
e541
58d0
1247
4af5
1bc9
fbf5
387e
11d7
aaf4
e371
a2f4
a2fe
7ccd
3add
6177
73f7
c578
e94e
a003
6804
9005
14f5
2dba
3c07
4d4b
46a8
4991
6d03
6f04
6b47
7906
7bb3
720c
8d0c
8653
8991
8202
840c
98eb
9d9a
a221
a20d
b906
becd
b236
c507
c3e9
c688
d9f8
dd82
d205
f182
e0ff
405a
301f
f05b
f01a
a0a0
4f9c
4f5a
4f98
5f27
2f84
0feb
1f57
1f7b
3fcb
bf63
bfc6
df8a
ef9f
cc7e
6c59
6ce6
8c90
6e85
3e1c
4ecc
7e1d
eea9
5e16
47d7
f73c
f7db
8752
9b34
578b
8bdf
fb5b
cbae
3d3f
9d32
4db7
8930
b91b
d928
392d
882c
6862
ca29
821d
921a
421f
d29d
938d
d354
f68d
5660
516b
211d
29b1
56bb
31d6
91e4
7ace
78c3
71b4
71b7
8dda
e6fe
d1fe
67f4
467d
13b1
484f
2947
ecc4
b874
d9be
d842
96dc
3ad9
f248
f1b3
c00a
c00e
0cfb
0772
0d75
1293
1745
1195
2d98
370d
3583
51c6
59f3
560d
6dca
610e
75bd
8d04
8efc
9296
9d09
98ed
abba
adf6
b2b7
bb45
b3ee
b779
c5bb
cd53
c107
d90d
dcf4
ea82
e3e7
fa96
fe72
e0df
404e
b08a
c066
c0f5
70c8
9060
4fdd
8f45
0f5e
0f39
6f14
bfeb
bfa3
7fd7
7f61
7fce
ef1b
efdf
dcd8
9cb7
6ce7
8cac
4c89
5c3b
5c4e
fc6e
348f
643e
64b3
0e31
3e3a
ce5d
ce40
ee38
ee23
5e8e
9edb
de8e
7733
7716
6753
9b8d
2739
2726
a73f
a756
db84
bb9d
e718
3b9b
fbde
fd15
056e
2d24
8d9e
4912
f89b
b511
6863
b814
8584
38a5
256d
e58c
9515
4aa0
4a32
5a6a
c25e
e2a4
428d
421a
f23b
c62f
c32e
b627
7657
f17e
1671
85e4
a942
16c5
88d2
93f5
824b
58d9
827a
35ee
4347
b6f8
dddf
a1bb
15fa
4671
7178
38d7
6276
f247
dccd
55db
29de
fdda
e978
6240
6309
060b
1184
2ef5
2853
4d06
5161
77e7
8299
8aa3
950e
94fa
adf5
b77a
b953
b623
cebd
cdf6
d904
de4a
d70e
d236
d3dd
e4e9
fb05
10ab
e0b6
60f1
30e4
6fa9
6f98
3fa3
3f78
9fb3
dfd0
efef
acaf
4c18
2412
447b
b45d
14b7
e4b6
d4aa
8e68
9732
97d5
f734
1736
c7a5
aba6
2b2f
db99
bb5a
3736
e762
8bbe
7b5b
fb9d
cb63
fd3e
1d5f
ad34
8d7f
6d3d
6d5d
bd2b
7d2e
4d19
4d13
9997
199c
19a5
1985
298c
f934
3961
b519
681e
7897
8563
e559
623b
7264
426f
d2a5
3318
d33e
431d
4327
c39d
06a4
1397
a36b
d63d
5667
5638
a66c
869e
961f
c197
311f
215e
8162
61ae
03cd
d34c
a240
c240
88b0
2ddf
e849
b1be
91fc
66c8
41e3
4a46
0bcf
c3cb
8144
9677
744f
6afd
6abc
c27c
c7f8
72c1
c2d4
29d5
e971
580c
0d45
0f05
160d
2df2
24fc
2de5
32b4
4321
4e0e
420a
5d0f
65b7
7a85
7155
7b73
7b0c
84e8
94e5
9d75
a152
a88a
b656
c4c9
d323
d3df
da05
ed09
20b2
4012
3051
b05b
b02f
c0e8
d0f6
2f41
6fab
3fda
df7f
7f24
cc7b
5ce2
2c30
2c28
fcda
fcb6
b427
5471
846f
d481
6e37
8e6b
7eda
5e97
feb7
f76b
1782
ab10
db19
5736
1b1d
1b2d
1b7f
6b83
4ba5
3bb7
fb85
052e
0561
5dbc
89a8
6994
4863
d92b
7964
b86c
6538
1524
d514
da2d
4a9e
425f
3319
c354
f6af
738e
a364
d619
462b
a115
4110
06ff
89ec
88dd
22f6
56b9
63bc
b8f2
a878
b1d3
124d
a5c5
91f9
91fa
8179
757b
26ed
e6d2
83c1
83ce
67fa
734c
17c5
76dd
9ddb
dad6
d670
9142
9a43
75c0
cbfc
0353
1d0c
17ec
4152
6356
6e4c
7389
7b7a
7206
8d45
93db
a328
ab98
be4b
bb7d
b161
ca98
cbe6
d3e5
edf8
e593
e4c4
ea56
e3d9
fd76
502b
805c
60ab
60e8
f030
f0d6
a0d5
d0cc
905e
8f53
3fed
9fbc
9c46
ac2e
3ca1
8c1f
8c7f
8c72
4c7c
1c2d
1cb4
2c5c
ec44
fc32
fcbb
047b
24da
641c
5455
8474
e470
c432
0e4f
0ed7
[...]
